#version: 0.2 - Trained by `huggingface/tokenizers`
Ã °
Ġ Ã
Ġ s
a r
a Ã°
i n
Ġ h
Ġ e
a n
Ġ v
ĠÃ ¾
Ġ f
u m
i Ã°
Ġ .
u r
Ġ aÃ°
Ã ¡
i r
s t
Ã ³
Ġ m
ĠÃ ¡
Ã Ń
Ã ¦
e r
Ġ o
Ġ ,
Ã ¶
ĠÃ Ń
Ġo g
i l
Ġ t
u n
Ġ l
e g
t t
a f
in n
a l
a m
e m
Ġ b
Ġe r
Ġ g
Ã ©
e n
Ã º
Ġ k
in g
k k
an n
e i
a g
Ġs em
y r
s s
Ġ n
Ġs t
o r
an d
e f
ĠÃ¾ e
Ġt il
j Ã³
Ġ r
Ġv er
s k
Ġf r
Ġ um
Ã° i
Ġv iÃ°
r i
r a
Ġe n
n a
e Ã°
Ġf yr
i g
e l
Ġs k
Ã¡ l
Ã ½
s l
v ÃŃ
Ġv ar
n ar
Ã° a
in s
Ġh af
j a
kk i
a u
Ġfyr ir
Ġm eÃ°
t a
Ġ 1
Ġ d
Ġ af
ĠÃ¾e ss
Ã ŀ
e y
Ġe kki
n d
n i
Ġ S
t i
Ã¶ g
ĠÃ¾ aÃ°
o n
l u
l eg
Ġs Ã©
un d
v er
Ġs am
l a
Ã¶ r
Ġh ef
ĠÃ¾ vÃŃ
p p
Ġ al
Ã° ur
ÃŃ k
l i
ĠÃ º
Ġ 2
Ã¦ r
Ġe f
o m
j Ã¡
i s
r e
Ã° u
n ing
and i
Ġfr am
in u
ei k
Ġs ÃŃ
a k
Ġ H
ei m
Ġ B
tt a
Ġs v
n um
Ã¶ l
Ġ u
t ir
i k
en d
en n
Ġh ann
a t
k v
Ġhef ur
Ġver iÃ°
al d
Ġu pp
Ġk om
e t
n u
Ġfr Ã¡
ar f
l ag
Ã ¾
â Ģ
Ã° ar
inn i
Ġer u
e k
Ġ A
s ins
eg ar
leg a
Ġ G
ĠÃ¡ r
Ã© r
u g
Ãº n
Ġs eg
Ġhaf a
i st
Ã¡ Ã°
Ġ M
e st
e iÃ°
en g
l l
jÃ³ r
ĠÃ ¶
ĠÃ¾e ir
ĠÃ¾ Ã¡
r Ã¦
j ar
Ġhaf i
Ġg er
an g
Ġef tir
Ã³ l
ann a
0 0
ĠÃ ©
ĠÃ¾ ar
aÃ° ur
ĠÃ© g
ĠsÃ© r
r Ã³
ĠÃ ³
u Ã°
g g
Ã¶ f
Ġ K
Ġe in
il d
Ġh v
Ġ R
Ġ E
a st
Ġm Ã¡l
i t
Ġ -
Ġal l
Ġ "
ss on
i p
l d
ing ar
Ã¦ m
Ã¦ k
aÃ° i
Ã³ k
Ġ :
Ã³ r
ÃŃ m
ar a
ĠÃº t
Ġ F
y gg
s m
Ġf or
Ġb r
f ir
Ã³ tt
Ã© tt
Ġh Ã¦
Ġsv o
n ir
st u
ĠÃ į
Ġ âĢ
v ar
Ġ L
ĠÃº r
Ġ V
Ġm ik
e ir
Ġ y
Ġ p
Ġseg ir
ĠÃ ŀ
il l
Ã° um
y nd
o kk
Ãŀ aÃ°
o f
Ġv eg
j Ã¡l
t ur
Ã© lag
un um
an s
n g
or g
Ġl eik
ĠÃ¾ egar
Ġe Ã°a
Ġ J
Ġe ig
st a
Ãº s
Ġg r
Ã į
j Ã¶r
ĠÃ¾e tta
ī g
Ġ au
j Ã¶l
Ġy fir
in a
Ã¡ tt
Ġf l
Ġ und
Ġ1 9
Ġs p
Ġh eim
Ġn Ãº
ar k
Ġd ag
el d
ei t
y n
Ġ inn
Ġh ver
Ġ 3
er Ã°
Ġv or
Ġ j
i tt
j u
jÃ¡ r
and s
Ã¦ Ã°i
in d
Ġl Ã¶g
k a
un ar
al l
Ġn Ã½
tt i
Ġs ag
Ġh Ãºn
sl u
ef nd
ĠÃį sl
Ã¦ ri
ĠÃ ¦
ĠÃ¾ eim
a s
Ã¶ k
Ã³ m
o t
kv Ã¦m
r am
il eg
jÃ³ Ã°
e s
Ġs ig
Ġh Ã©r
b r
Ã īg
Ġr ÃŃk
jÃ¡l f
Ġ N
jÃ³r n
Ġh lu
Ġst aÃ°
Ġo kk
un ni
af n
Ġvor u
Ġl ag
Ġ P
Ã³ t
d d
Ġl ÃŃ
re iÃ°
Ġt ÃŃm
Ġe ins
ar i
Ġ D
Ġk r
Ġ at
Ġl and
o Ã°
Ġ )
h er
b er
Ġ ann
Ġveg na
f i
sk a
Ġ T
o l
d Ã³tt
ar s
Ã¦ Ã°
inn ar
Ã¦ g
Ġh jÃ¡
ing u
Ġt ek
Ġk v
t u
Ã ģ
Ġver Ã°ur
Ġst arf
Ġall t
j um
Ġver a
Ġs l
Ġo r
un a
Ã½ r
Ġm Ã¡
Ġn Ã¡
ĠÃ¾ r
e in
Ã³ n
Ã³l k
inn a
Ġf jÃ¡r
Ġen d
Ġr Ã¡Ã°
Ġv el
Ġm un
ĠÃ¾eir ra
ĠâĢ ľ
n aÃ°
e ild
ĠÃ¡ kv
u l
ÃŃ n
Ġver Ã°i
Ġ2 0
un g
Ãŀ e
Ġl Ã¡
Ġ 4
ar g
vÃŃ k
ĠÃ¾ess u
end ur
iÃ° ur
t Ã¦k
Ġe inn
Ġsag Ã°i
j Ã¶g
Ã¶l d
and a
y l
Ġh l
ef n
ÃŃ Ã°
Ġ2 00
Ġund ir
Ġv Ã¦ri
Ġk o
an a
ag n
st Ã¶
Ġl ÃŃk
o k
or t
ak a
dÃ³tt ir
Ġt v
Ã¶ n
m Ã¡l
Ġo f
Ġsk ip
a b
ri f
un nar
Ã½ s
em ur
sk ip
Ġ C
re in
Ġ 5
s e
r Ã¡
Ã¦ ti
Ġl iÃ°
ann s
Ġf jÃ¶l
u ll
Ġh en
r eg
H ann
Ġs e
i ss
Ġh Ã¶f
b Ãº
m enn
Ġf Ã¡
j Ãº
ÃŃ s
ur inn
Ġm ynd
ĠS t
Ġm ill
Ġl eiÃ°
Ġ (
r ar
r um
u st
h ver
in um
Ġver k
s am
Ġ I
Ġh ug
ĠÃ¾ au
Ġh ans
t l
âĢ ŀ
Ġg e
ei g
i m
sk u
Ġm jÃ¶g
f l
f ram
n t
ĠÃ¾ ann
ey t
au p
ĠÃ¡ h
l Ã¶g
Ġr Ã©tt
Ġs jÃ¡lf
Ġn okk
Ġr Ã¦
d ag
Ã³ Ã°
k ja
r ygg
Ġhef Ã°i
et ur
e yr
t al
Ġf Ã³lk
r Ãº
Ġ ?
g ja
Ġs Ã½
Ġg eg
Ġst jÃ³rn
Ġor Ã°
Ġr ey
r u
ĠÃ¡ ra
i f
Ġh ald
Ġt al
Ġb Ãº
ing a
Ġh eld
sl en
ÃŃ u
s v
ĠÃ ģ
Ġ 6
Ġsk il
Ã¶ ng
ĠÃ¾ ing
Ġj afn
e pp
Ġb Ã¦
Ġf Ã©lag
l um
ĠR ey
ĠrÃŃk is
ĠS ig
ĠÃ¾ Ã³
e il
Ġkom a
Ã° an
V iÃ°
Ġn iÃ°ur
m aÃ°ur
v eg
r Ã¡Ã°
g i
st ak
Ġhv aÃ°
of n
Ġm eir
Ġm Ã©r
un n
Ġger a
a p
ĠÃŃ slen
Ġv ir
l Ã½s
Ġm ark
Ġf er
f a
t an
Ġb ar
k om
Ãŀe tta
E n
Ġk rÃ³
Ġokk ur
Ġm enn
ĠG uÃ°
ing um
ĠÃ¾ess um
t um
S t
Ġf ar
Ġv il
g t
t ar
leg t
Ġt aka
Ġn Ã¦
li t
er t
Ãŀ Ã¡
jÃ³r nar
Ġf lu
Ġ20 1
s p
Ġsam an
Ġh r
Ġb l
rÃ¦ Ã°
jÃ³ n
Ġ 7
Ã¶ nd
ĠÃ¶ Ã°
Ġeinn ig
s i
s h
Ġf ara
ĠtÃŃm a
an k
ÃŃ l
l eik
Ġb ygg
Ġl jÃ³
her ra
Ġm iÃ°
ĠA l
Ġau k
Ġt el
ĠÃ¾ ur
v inn
il li
Ġhv ort
Ġk emur
ef ni
ning ar
Ã¦ tt
Ġf Ã³r
Ġl ey
Ġ 8
Ġ /
m iÃ°
o tt
Ġf ull
y ld
Ġm inn
on um
Ġen g
b l
Ã³ p
m a
r iÃ°
Ġe itt
ĠÃ¡ Ã°ur
ĠÃ¾ Ã¦r
r ei
var p
kvÃ¦m t
st i
ĠÃ¶ ll
Ġk l
Ġver Ã°
Ġs jÃ¡
Ġm arg
Ġokk ar
end a
Ġkom iÃ°
Ã³ la
Ġl ok
m i
f ar
ĠÃ ĵ
Ġv egar
s a
Ġal d
Ġk yn
ĠÃįsl ands
Ã¡ r
j ald
a un
st ur
an um
Ġger t
Ġd Ã³m
Ġv inn
Ġf Ã©
kja vÃŃk
Ã¶ m
ĠÃ¾ess a
ĠsÃŃ num
l iÃ°
Ġvar Ã°
Ġseg ja
Ġhaf Ã°i
v el
ĠRey kjavÃŃk
Ġg rein
en t
ei tt
Ġst Ã³r
m ynd
Ġheld ur
Ġen n
s dÃ³ttir
Ġhlu t
Ġmik iÃ°
Ġver Ã°a
ning u
Ġmik il
st jÃ³
Ġs n
c h
Ã³k nar
t iÃ°
e ins
ver k
er k
and ar
g a
st Ã¦
Ġs Ã¶g
ĠÃ¡r iÃ°
Ġfyrir tÃ¦k
Ġst Ã¶
Ġm Ã¦
Ġb ara
il a
Ġg ef
Ġ O
Ġb er
Ġgeg n
or Ã°
Ġ 9
A Ã°
Ġh ins
ĠsÃ© u
Ġh onum
ri st
Ġg reiÃ°
Ġfor se
Ġund an
Ã¾ ing
m Ã¦
Ġein hver
ĠÃ¾ann ig
aÃ° a
Ġm illi
kvÃ¦m d
Ġst efn
l ÃŃ
Ġf eng
ĠÃ¾ess i
s f
ĠÃ¡ tt
Ġsk u
Ġg Ã¦r
Ġh el
ĠlÃŃ f
l eiÃ°
Ġm ann
Ġh Ã¡
ĠmeÃ° al
Ġ1 0
Ġh Ãºs
Ġs inn
h ald
Ġo p
ileg a
ĠÃ¾ jÃ³
Ã° ir
kk ert
k ur
g r
k u
Ġs inni
yr Ã°i
Ġh Ã¡l
d eild
Ġhen nar
f erÃ°
Ġsl ÃŃk
Ġs um
Ġl eg
Ġt Ã³k
Ġr ek
il i
k Ã¦r
st ar
Ġm Ã¶r
Ġl ang
Ġf yl
Ã°a st
lu t
n ig
jÃº k
ĠsÃŃ Ã°an
s u
Ġf und
g ar
n ur
Ġend ur
ĠhÃ¦ gt
Ġb org
ir k
ĠlÃ¶g reg
Ã¶ lu
ĠlÃŃk a
yr ir
Ã¦ kk
em ber
Ã° v
Ã°i st
ĠSig ur
Ġsam ning
Ġ19 9
f Ã©lag
rÃ³ p
Ã¶r n
Ġv ÃŃs
ĠÃ¡ n
org un
Ġe kkert
a v
im m
t Ã¶k
r Ã©tt
Ġ W
Ġg eng
m und
H Ãºn
ĠJ Ã³n
Ġfyr r
Ġsam a
Ã¶r f
h Ãºs
E f
ĠÃ ½
Ġh eil
b org
l end
Ġfram kvÃ¦md
ĠÃ¾ jÃ³Ã°
Ġh ag
Ġaf tur
an ir
v rÃ³p
Ġv ik
v aÃ°
b and
f iÃ°
ĠÃŀ Ã³r
aÃ° ar
Ãŀ ar
m ann
ĠrÃ¦ Ã°a
el l
h af
l au
Ã¡ n
o s
e d
Ġge ta
al la
ĠâĢ ĵ
Ġd Ã¦m
Ġg Ã³
Ġsk Ã½r
u t
sk i
g ur
ĠÃ¡ ri
Ġbr eyt
Ġk aup
Ġl eng
Ã¶n num
Ġtek iÃ°
S am
f est
ei ta
g u
a tt
ĠÃ¾Ã¡ tt
Ã°u stu
au Ã°
ĠÃ¾ arf
Ġs Ãº
Ġann ars
ĠÃ¡ fram
Ġat h
ĠrÃŃkis st
Ġm ÃŃn
b Ã¦
Ġd r
sl eg
ĠÃ¡kv eÃ°
Ġl au
Ġfar iÃ°
Ġ U
Ġupp lÃ½s
Ġann aÃ°
ĠS k
Ġhver nig
Ġallt af
Ġeig a
s on
ta k
Ġf imm
g er
Ġm aÃ°ur
am Ã¡l
ĠaÃ° eins
Ġg l
ĠmÃ¡ nu
l af
ĠJ Ã³
Ġst ig
Ġfor s
Ġs Ã¡
h ag
ĠÃŃslen sk
sk yld
f er
ĠsÃ©r stak
ar innar
ĠorÃ° iÃ°
Ġst jÃ³rnar
ĠsÃŃ na
ĠÃ¡r um
a x
Ġsam kvÃ¦mt
u lag
Ġr anns
Ġl Ã©
Ġ 0
Ġn em
na st
ild i
ĠsÃŃ Ã°ustu
Ġhald a
k t
o nar
ĠÃ¡ kÃ¦r
o st
ĠâĢ ŀ
Ġfr um
eg i
Ġend a
Ġmill jÃ³
ĠÃ¾ Ãº
r ey
stÃ¶ Ã°u
d Ã³m
ĠE vrÃ³p
Ġm Ã³
Ġm at
Ġn ot
Ġforse ti
j an
g ang
Ġg ang
k yn
s em
Ġsv eit
Ġst efnd
ar l
ĠN or
Ġhen ni
Ġn r
Ã© l
o ta
rÃ¦ Ã°i
Ãº t
m anna
g erÃ°
ĠmÃ¡l i
r ÃŃk
e ss
Ġg etur
Ġmeir a
a kk
ĠS am
Ġu tan
sl a
ĠÃ¶Ã° rum
t ÃŃÃ°
Ġv it
Ġsk or
Ġ1 5
ĠK rist
Ġs m
Ġt eng
Ġg agn
v Ã¦g
Ġat vinn
Ġf Ã¦r
Ã³k n
t rÃº
Ġv ÃŃ
st v
Ġt Ã¦k
ĠÃ īg
am enn
Ġ1 2
Ġlag a
ĠÃ¶ll um
Ġkr Ã¶f
e x
ĠA r
Ġ yrÃ°i
tt u
em m
Ġg am
Ġfyr sta
ÃŃ f
Ġf j
h eim
andar ÃŃk
st arf
Ġm Ã³t
Ġst und
Ġr eg
sk ur
Ġ1 1
Ġinn an
m en
eir i
o g
Ġb yr
r Ã½
ĠÃŀ aÃ°
Ġr aun
Ġbr ey
b ur
stjÃ³ ri
Ãŀe ss
l andi
Ġm ig
Ġb Ã¦Ã°i
jÃ¶r n
Ġt rygg
Ġr Ãº
fl okk
ja st
Ġn efnd
ing ur
y kk
Ã¾ jÃ³
Ġmeir i
ĠkrÃ³ na
Ġh er
ar t
ĠsÃŃ Ã°ar
Ġv inna
Ã¶r Ã°
Ġt Ã³n
e tt
Ġg et
b oÃ°
ĠviÃ° skip
r ÃŃ
Ġ ung
sm enn
ĠV iÃ°
ĠÃ½ m
s n
Ġ1 8
j Ã¶
ĠB andarÃŃk
Ġer um
Ġf erÃ°
ĠÃ¡ g
nu stu
ĠhÃ¦ kk
d i
sk rÃ¡
r Ã©
Ġst ofn
Ġg Ã³Ã°
f u
Ġfl okk
Ġum rÃ¦
ĠÃ¡h rif
Ġh Ã¡tt
Ġsam Ã¾
k um
f t
v Ã¶ld
Ġeig in
j ur
ileg t
Ġe ld
ĠÃ¾ Ãºs
naÃ° ar
Ġhlu ta
Ġl Ã½
Ġh ana
ĠÃįsl andi
00 0
Ġald rei
Ġ and
Ġs jÃ³
Ġp rÃ³
Ġko st
t ek
stÃ¶ Ã°
sk Ã³la
Ġb est
Ġd eild
Ġsk rif
Ġl andi
Ġkv Ã¶ld
Ġsp ur
ag a
s Ã¶g
Ġs et
Ġal la
Ãº ar
st of
Ġ1 3
g um
Ġge ti
O g
Ã¦ tl
Ġm a
aÃ° ir
ni s
Ġal veg
U m
M eÃ°
f rÃ¦Ã°
i sk
Ġse tt
ver Ã°
Ġeig i
g j
jÃ³ l
Ġ ;
ar Ã°
Ã¶ Ã°
v ik
Ġb ank
Ġ1 6
Ġb Ã³k
f is
Ãº r
ar nir
Ã© f
Ġvinn u
ĠÃ¶ r
ĠÃ¾eir ri
Ġl ig
Ġg Ã¦
ĠI ng
Ãº l
ĠÃŃ bÃº
ĠÃ¦ tl
Ġsku ld
ĠEvrÃ³p u
Ġk ann
jÃ¶r g
ef na
ĠÃĵ laf
ÃŃ Ã°ar
k i
Ġf Ã¦
Ġh Ã³p
p t
s Ã½
o ll
Ġ1 4
i ta
Ãŀ egar
Ġm ÃŃ
a d
ĠÃ¦ t
b yr
ĠhÃ¦ stv
Ġsag t
Ġmikil vÃ¦g
h vaÃ°
Ġl it
Ã°a sta
j i
Ġann ar
ĠÃ¾ Ã³tt
Ġflu g
Ġt ak
v ald
Ġfyr st
Ġb Ã¶rn
Ġein stak
Ġsk emm
er s
Ġsum ar
ĠÃ¡ tti
ĠGuÃ° mund
Ġk on
Ġsvo na
rÃ¡Ã° herra
Ġn Ã³
v o
u Ã°ur
ĠG r
ĠÃ¡ f
ĠsÃŃ n
ĠAl Ã¾ing
Ġleg gja
Ġh or
ĠmÃ¡l iÃ°
ĠÃ¾ess ari
b ygg
en na
ĠfÃ© kk
y ni
Ã¶f n
Ġeitt hvaÃ°
y k
u Ã°u
h e
Ã¶l l
ti st
Ġm orgun
Ã¶n n
Ġfl eiri
ri g
m ark
ĠfjÃ¶l skyld
ĠstÃ¶ Ã°u
Ġm est
Ġnokk ur
ĠÃ¾ess ar
Ġs Ã¦ti
Ġf jÃ³r
Ġm is
ug a
ĠmÃ³ ti
Ġst Ã¦r
Ġv in
it aÃ°
Ġtil kyn
Ã¦r u
Ġsk oÃ°
st ri
ĠaÃ° al
ind i
un nu
jar Ã°ar
li st
sk Ã³l
Ġb ÃŃ
ning i
Ġau Ã°v
ĠsÃŃ Ã°asta
Ġfeng iÃ°
ĠÃ¾ m
Ġhaf t
Ġ1 7
ĠtÃŃm ab
Ġfr ek
p a
at n
Ġg jald
ĠÃ¶Ã° ru
ĠhÃ¶f um
ver t
Ãŀ eir
ĠBandarÃŃk j
Ġs jÃºk
Ġf inn
Ġfr v
Ġof t
Ġb ir
ĠÃ¾Ãºs und
est ur
Ġstefn anda
ĠhÃ¦ tti
u lega
Ã ĵ
Ã¶ng u
ĠmilljÃ³ nir
sl um
ĠsÃ©rstak lega
nd i
ĠÃģ r
v al
Ġl ist
Ġf al
Ġh and
ul eik
. .
sem i
mÃ¡l a
f Ã¦r
ĠH el
Ġs itt
ei dd
l ar
S k
y g
Ġall ir
ĠÃ¾e kk
ĠÃ ĸ
Ġer lend
Ã¶nd um
aÃ° s
b rig
Ġb etur
Ġf el
Ġfyr ra
ĠG unnar
ss onar
ĠReykjavÃŃk ur
Ġs ak
ar Ã¡Ã°
yrir tÃ¦k
end i
Ġm inni
ĠlÃ¡ n
af l
o ss
i c
au st
Ġst uÃ°
s en
ĠJÃ³ h
o Ã°a
o na
Ġlag t
ur nar
ĠhÃ¶f uÃ°
Ġg Ã¦ti
bl aÃ°
ĠÃįsl end
N Ãº
Ġk lu
nd ar
ĠÃŀ or
ĠÃ¾r iÃ°
Ġb or
ĠsamÃ¾ ykk
n efnd
v Ã¶r
t ÃŃm
l lu
ĠB jar
byr g
ĠÃ¡kv Ã¶rÃ°
ver andi
Ġst yr
Ġv Ã¦
Ġfr Ã©tt
ĠaÃ° st
Ġmik lu
Ġn auÃ°
s g
epp ni
al eg
ind a
t il
Ġop in
Ġall s
s um
l ands
ĠsÃŃ nu
h lu
d a
un in
Ġ3 0
Ġm gr
Ġv eit
ĠS v
b ank
dÃ³tt ur
Ġn or
ĠB r
Ġnem a
Ġg ott
end um
Ãº ss
Ã¡ t
Ġv Ã¶r
Ã¦Ã° inu
ĠÃ¾ Ã½
s st
Ġe Ã°
ĠnÃ¦ stu
ĠL ands
Ġau g
arf Ã©lag
Ġs Ã¦
Ġb ÃŃl
sm Ã¡l
h Ã¦
b Ã¦r
ĠnÃ¡ m
jÃ¡ n
f ur
Ġko s
y Ã°
Ġn Ã¦r
Ġef na
l jÃ³
r ir
Ġ2 5
Ġst anda
v iÃ°
b Ãºn
Ġv ald
Ã¾ jÃ³Ã°
Ġklu kk
Ġer f
Ġhef Ã°u
Ġb ak
Ġkv eÃ°
var t
e kk
ĠlÃ¶g um
Ġfrum varp
Ġbyr j
Ġm Ã¶g
sam t
Ġland inu
all ar
sl iÃ°
Ġ a
Ġl of
Ãº st
Ã ļ
T il
Ġv an
Ġe inu
ta st
Ġhlu ti
Ġb ein
t ug
Ġs ann
ĠrÃº m
Ġf Ã¶
Ġl Ã¦kk
Ġsk att
st Ã¦Ã°i
g reiÃ°
Ġmun i
Ġef ni
Ġ unn
Ġfyr stu
Ġv Ã¦ru
v in
an lega
Ġh eild
Ã³ f
k en
Ġ19 8
Ġal menn
n aÃ°i
Ġv on
E kki
ĠÃ¡ samt
Ġley ti
Ġf inna
Ġm et
d al
Ġv and
Ġland sins
ĠljÃ³ st
ĠlÃ¶greg lu
Ġal men
Ġger Ã°
ĠnÃ¦ sta
ĠkrÃ³ nur
ĠljÃ³ s
Ġv eiÃ°
n nur
ĠÃ¦t la
Ef tir
s yn
Ġheim il
ĠÃ¡ stÃ¦
Ġkr af
Ġv ill
ef nu
ĠÃ¾ur f
ĠÃ¡ st
Ġv iss
leg um
Ġf ast
Ġsp il
tal i
Ġvil ja
Ġt Ã¶l
Ġh eyr
ĠlÃ¡ ta
Ġse x
Ġfl est
Ġst endur
ĠC h
Ġtv eim
und i
Ã¦ p
Ġfinn st
s Ã³knar
sm anna
e inn
Ġhug s
Ġst Ã¶rf
aÃ°ur inn
Ã© tta
y st
Ġs Ã¶m
A ll
u k
ĠÃ¡kvÃ¶rÃ° un
l ÃŃk
jÃ¶l d
Ã°i s
an ka
Ġsk yld
Ġn Ã¡tt
ĠÃ³ sk
v Ã¦
Ġopin ber
l and
Ġm eg
Ġbr ot
Ġheim s
ss k
o p
Ġt rÃº
Ġbar na
stjÃ³ ra
sp yr
h lut
E r
ĠfjÃ¡r m
ĠNor Ã°ur
lu g
v eit
l ing
ÃŃ sk
ĠE in
ĠÃ¾ rÃ³
ĠgreiÃ° a
Ġ2 1
ĠauÃ°v itaÃ°
Ġhl jÃ³
ĠnÃº na
e tta
Ġgang a
jar Ã°
h Ã¦Ã°
Ã¶g um
a c
dag inn
Ã¾ rÃ³
y t
ĠV al
Ġst r
Ġk jÃ¶r
ĠÃįsl and
fer Ã°ar
Ġtv Ã¶
ĠfjÃ¡r mÃ¡l
fram t
Ġsk al
leg u
ĠP Ã¡l
vel li
Ġl aun
Ġefna hag
Ã© lÃ¶g
r Ãºn
Ġtveim ur
m Ã¶r
Ġum hver
Ġf isk
ei st
Ġr Ã¡
ĠmÃ¡nu Ã°i
Ġstefnd a
ĠH af
m ar
Ġger Ã°i
ning s
Ã¶ kk
und a
y f
ast jÃ³
m u
ning a
Ġvar nar
am anna
na tt
Ġheim ild
ning ur
ĠÃ¡ byrg
ĠÃ¶ llu
Ġgeg num
ĠnauÃ° syn
ag nar
as am
k r
ĠS uÃ°ur
ĠmeÃ° an
l an
il la
Ġbar n
Ġupp haf
k un
ĠmÃŃn Ãº
leg ur
h l
Ã¡ m
Ġb oÃ°
f Ã¶r
Ġsv iÃ°
Ã³ ta
Ġ2 2
Ġkann ski
Ġnokk uÃ°
Ġhald iÃ°
s b
Sam kvÃ¦mt
j andi
ĠmÃ¡l inu
leg ar
ĠÃ¦ tti
ĠbÃº iÃ°
Ġhug mynd
Ã³ ber
ir nir
br Ã©f
Ġset ja
ĠM agn
enn an
Ġl ands
re k
A f
aÃ° ila
kom ulag
Ġtil lÃ¶g
Ġl eit
b o
sl it
Ġgr und
ĠhÃ¶f Ã°u
ir nar
Ġtek ur
ning um
Ġsam starf
Ã¶k um
ĠupplÃ½s ingar
ĠÃ¾ Ã©r
f yl
Ġm anns
Ġjafn vel
Ġunn iÃ°
Ġfyl g
ĠÃº ti
Ġbreyt ingar
Ã¡ s
ĠliÃ° iÃ°
f all
ĠÃ¾jÃ³ Ã°ar
re ind
ĠrÃŃkisst jÃ³rn
Ġb et
ra ut
ĠS p
Ġvir Ã°ist
ĠhvaÃ° a
ĠÃ¡r inu
ĠF ram
Ġr eik
ol t
Ġfram leiÃ°
jar Ã°a
Ġlag i
Ġtel ur
Ã¦ti s
all aÃ°
Ġsk ap
Ġj an
Ġsam fÃ©lag
uÃ° um
ĠJÃ³h ann
ÃŃ a
h ug
Ġrey na
Ġfor maÃ°ur
ĠsÃŃ Ã°ast
Ġsk Ã³l
f lut
H Ã©r
ĠsÃ¶g n
v i
lag a
b b
ĠnÃ¦ st
Ġdag a
af Ã©lag
Ġhver ju
ĠmÃ¡l sins
ĠAlÃ¾ing i
Ġgeng iÃ°
b andi
ĠviÃ° ur
rÃ¦ n
r h
Ġsam rÃ¦
Ġs el
ĠÃ¾ar na
ĠÃ¾ ennan
sv eit
1 9
o pp
Ġer fiÃ°
Ġf ann
Ġmynd i
ef num
ĠrÃ¡Ã° herra
sk rif
eyr i
Ġbl aÃ°
Ġmarg ir
Ġm anna
Ġfyr ri
ĠsÃ¶m u
ey ti
yg li
Ġgef a
Ġsv ar
Ġverk efni
Ġs jÃ¶
ĠÃ¶ nnur
s et
Ġd es
Ġv eÃ°
Ġr af
Ġs Ã¶lu
irk j
l Ã¡
l ur
Ġfrek ar
ust ur
ĠÃ¾ akk
au t
Ġ iÃ°
ĠA kur
Ġo kt
Ġheim a
Ġj Ãºn
ing in
Ġerf itt
er fi
Ġ Y
j al
Ã ĸ
u s
ĠfjÃ¡r fest
ĠfÃ©lag sins
Ġv ax
ĠstaÃ° fest
ĠÃ¡r s
F or
st aÃ°a
Ġf ang
Ġe l
Ãŀ ann
mÃ¦ li
ri t
Ġkom i
riÃ° i
Ġl Ã¦k
eg gja
Ġjan Ãºar
E inn
Ġsku li
st r
ĠÃ¾jÃ³ nustu
ĠÃºt g
ĠrÃŃk iss
Ġse pt
und ur
ĠÃ¾ur fa
Ġ jÃ¡
ĠÃŀ etta
sl ur
Ġma ÃŃ
h n
Ġh Ã³f
Ġvik u
3 0
Ġb jÃ³
n aÃ°ur
ĠjÃºn ÃŃ
Ã½ st
st jÃ³rn
Ġsig ur
Ġkom u
ta ka
ĠB re
ĠstaÃ° ar
Ġtal a
Ġhr ing
ĠÃ¡kv Ã¦Ã°i
st Ã¦Ã°
r ÃŃl
Ġall ar
ĠrÃŃkis ins
Ġflu tt
Ġst u
o v
d r
af a
ir Ã°i
ĠmÃ¶r k
Ġ2 4
ĠfÃ³lk i
Ġall ra
st aÃ°
Ġ19 7
ÃŃ na
Ġn ota
Ġk epp
h or
g eng
jar n
ofn un
f r
am Ã³t
Ġb orÃ°
am m
is ins
Ġheil brig
ĠÃ¡h uga
ĠfjÃ¶l miÃ°
Ġh jÃ¡l
al ld
stÃ¦ Ã°ur
ĠeÃ° l
Ġrey n
Ġj Ãº
Ġkom ast
o d
Ġt ÃŃÃ°
Ġ ap
Ġhl iÃ°
ĠÃ¡ her
Ġokt Ã³ber
Ġsk Ã³la
f or
Ġ !
Ã¶g n
ĠnÃ³ v
Ã°u st
ĠsÃ¶g u
ef Ã¡n
n Ã¦Ã°i
s Ã¡
end ir
spyr nu
l ey
Ġmik la
leik a
Ġtal iÃ°
Ġmun u
ĠÃ¾ur fi
e w
Ġf ag
Ġath ygli
Ġs Ã³knar
Ġein a
Ġv ak
Ġlang t
ra kk
ss yni
Ġh inn
ĠÃ¾ ig
na s
Ġskemm t
Ġreg lu
n es
o ka
b Ã³t
sm aÃ°ur
Ġk af
Ġm ars
Ġ2 3
Ġv ann
Ã¦m i
Ġath ug
Ġein f
Ġsept ember
Ġlig gur
Ġseg ist
G uÃ°
Ġborg ar
Ġt ap
r un
ĠKrist jÃ¡n
rÃŃk is
Ġh in
Ġk en
jÃ³n varp
Ġdes ember
Ġau Ã°
Ġm erk
ĠÃ¡ Ã¦tl
Ġhv or
as on
ĠÃŃslen ska
ĠÃ³ h
Ġ5 0
Ġver sl
ĠÃ¾ jÃ¡lf
ĠaÃ° ra
Ã¦ ra
ĠfyrirtÃ¦k i
Ġmik ill
Ġskor aÃ°i
ĠH Ã¡
Ġst ra
ĠB er
ĠnÃ½ ja
ĠaÃ° ila
Ġfull trÃº
c k
ar d
al a
o w
ĠlÃŃ tiÃ°
S ig
Ġstefn andi
Ġklukk an
F ram
Ġeng in
Ġf e
an efnd
Ġd Ã½r
Ġg ild
sam band
S vo
o u
ĠnÃ½ tt
ĠS jÃ¡lf
ĠstaÃ° iÃ°
ĠgreiÃ° slu
Ã½ ra
Ã¶ t
Ġ200 8
ĠsjÃ¡ var
b ol
Ġtel ja
Ġundan far
a ss
ĠÃ¡r ang
n e
Ġv ildi
ĠM ar
Ġ inni
ĠÃ¡kveÃ° iÃ°
Ġnokk rum
ĠB jÃ¶rn
ska p
ĠkrÃ¶f u
Ġatvinn ul
ĠviÃ°skip ta
Ġjafn framt
if reiÃ°
Ġsv ip
Ġn Ã¡Ã°
Ġkv ik
Ġl es
Ġein k
ĠnÃ³v ember
kv Ã¦Ã°i
Ãŀann ig
Ġger ir
al iÃ°
Ãº ru
F yrir
li star
am ma
kom andi
ĠnÃ½ ju
Ġeinstak l
Ġland sliÃ°
Ġfyl gja
ÃŃ r
Ġvir k
Ġfor eld
hlu ta
Ġap rÃŃl
Ġsveit arfÃ©lag
ri k
Ġt Ã¦p
el s
ĠbÃ¦ jar
Ġau ka
Ġst erk
Ã³l f
Ġhver su
ĠD an
Ãŀess i
Ãŀ vÃŃ
sp ur
sleg a
Ġ1 00
ĠÃ¡ l
ĠÃ¶ rygg
Ġv ita
r n
al ag
st jÃ³r
ĠhÃ¶fuÃ° borg
Ġl eig
Ġk jÃ¶l
ĠÃ¡ tta
ĠtÃ¦k if
Ġall an
v eiÃ°
Ġeng inn
Ã³ ra
an t
ĠsÃ© Ã°
Ġf jar
al t
Ġv ef
Ġ '
em st
Ġg ildi
h am
Ġk Ã¦r
Ġfram hald
Ãº Ã°
ĠÃ¾ess ara
ra un
ef la
ĠvÃ¦ nt
Ġhl Ã½
Ġe m
h f
alld Ã³r
Ġs inna
Ġannar ra
Ġp en
eld i
n Ã½
ĠÃ¡n Ã¦g
Ġl Ã½s
e p
astjÃ³ ri
ĠÃºr skur
ĠÃ¾r Ã¡tt
sm iÃ°
ĠÃ¡byrg Ã°
tal s
Ġt Ã¶lu
ur Ã°u
, ,
Ġ2 6
ey p
orgun blaÃ°
Ġsam t
Ãŀ au
v en
Ġleng i
Ġal var
h Ã¡
s ar
ĠrÃ¡Ã° st
ĠÃ¡g Ãºst
ÃŃm a
aÃ°s dÃ³m
Ġfe br
Ġsp ila
Ġmill jarÃ°a
ast a
Ã©tt ar
l e
ĠnÃ½ r
jÃ¶g ur
ĠjÃº lÃŃ
ĠmiÃ° aÃ°
ĠbÃº a
jÃ³ ta
Ġsam bandi
Ġfors Ã¦tis
Ġe y
leg ri
Ġ2 7
L Ã¶g
g jÃ¶r
un eyt
Ġe hf
ĠkjÃ¶l far
Ġh und
Ġh f
Ġtv eggja
Ġfann st
Ġgr unn
Ġtrygg ja
Ġn Ã¡l
s flokk
Ġhlut verk
Ġs it
Ġgagn rÃ½
Ã¶ p
re pp
Ã¶ tu
c el
ĠstjÃ³rn mÃ¡l
au k
ĠSt efÃ¡n
ĠE y
vÃŃ s
Ġdr aga
Ġforse ta
irk ju
ĠaÃ° rir
Ġko nar
ĠvarÃ° andi
sk oÃ°
ĠtÃŃmab il
ĠJÃ³n sson
ĠmÃ¶g uleik
Ã¶nn un
f ell
Ġs Ã¦k
ĠH r
ĠSigur Ã°
ĠsÃ½ na
ÃŃ nu
ÃŃ tal
Ġ jÃ³
ĠumrÃ¦ Ã°u
ei tir
s ent
Ġsm Ã¡
skip ti
M Ã©r
Ġn ey
Ġsl y
Ġfebr Ãºar
Ġp Ã³
ĠH ar
br eyt
Ġst of
Ġm iss
re ina
Ġd reg
mÃ¦ l
stÃ¶ Ã°um
un eyti
E ins
Ġum s
Ġk natt
Ġum f
Ġ19 6
ĠEin ar
dd i
Ġ2 8
Ġ4 0
ĠmikilvÃ¦g t
Ġs br
f el
Ġf jÃ¶gur
Ġh vÃŃ
Ġfr Ã©tta
v a
ĠgÃ³ Ã°a
efla vÃŃk
Ġf Ã³t
Ġber a
Ġkom in
Ġr it
Ġm egi
nd a
Ġstarf semi
n iÃ°
Ġaf ar
i d
v ang
y ng
Ġfor m
Ã© tur
ĠD a
Ġfl yt
Ġ jarÃ°
Ġv atn
ĠM orgunblaÃ°
ĠaÃ° il
tÃ¶k u
fl eik
ĠM an
Ġm inna
Ġmeg in
am ann
ĠmÃ¶r g
A l
eÃ° la
Ã¡tt ar
ĠÃ¾riÃ° ja
Ġv eik
Ġsk oÃ°a
eng i
r ÃŃm
Ġl yf
Ġh endur
s dÃ³ttur
e ina
Ã³ nu
ars v
ĠÃ¡ra tug
ĠmÃ¡l um
Ġmenn t
br ot
ĠÃ¾ yr
Ġupp i
und ir
Ġumhver fis
Ġf ari
Ġeig nar
ĠhÃ¡l fleik
Ġr Ã¶k
Ġst Ã³Ã°
Ġge kk
Ġt ÃŃu
ĠstjÃ³rn vÃ¶ld
E in
vinn u
ĠbÃ¦ ta
arÃ¡Ã° herra
aÃ° ist
Ġd eil
Ġsn Ãº
am aÃ°ur
Ã¡ ra
ĠÃ¡r sins
V ar
ĠÃ¾r jÃº
Ġh aust
b und
l un
f inn
ĠV est
Ġof an
Ġl eita
fir Ã°i
Ġtek in
ĠE l
y ll
Ġver u
h r
f inu
ĠS n
ĠsamÃ¾ykk t
ĠÃį s
Ġl if
1 0
Ġsp yr
Ġheim ili
br ey
el si
Ġstra x
Ġhag sm
sk il
Ġv eitt
ĠÃŃslen sku
nd ur
ĠdÃ¦m is
Ġk jar
Ġlau gar
ĠM o
Ġgef iÃ°
Ġkaup a
ĠE r
Ġmark aÃ°
li ti
au s
ĠSjÃ¡lf stÃ¦Ã°i
H ver
H er
ĠRey k
m Ã¶nnum
Ã¶ x
ĠnÃ¡tt Ãºru
Ġsam band
Ġst efnu
Ġ c
ald ur
Einn ig
Ġk ar
Ġs jÃ³nvarp
jÃ³Ã° s
Ġh n
Ġleik inn
Ġb jar
ĠprÃ³ sent
b Ã¦tt
ĠL and
ĠhÃ¡l fu
Ã Ĳ
Ġgam an
d ÃŃs
Ġfast eig
a pp
ĠÃºr slit
Ġb Ã¡
Ġmark miÃ°
Ġfr iÃ°
af i
Ġkvik mynd
Ġum ferÃ°
ĠA nd
m un
m er
Ġundir bÃº
jÃ¶r Ã°um
t ÃŃÃ°ar
Ġn Ã³tt
ĠK eflavÃŃk
ska tt
ĠÃ¡kÃ¦r Ã°a
ĠtÃ¶l v
Ã¶k u
ef tir
ĠBandarÃŃkj unum
Ã¾jÃ³ nustu
est er
5 0
ĠJ o
ĠB ir
kv Ã¦Ã°
la un
Ġhver s
stof u
Ġsk ot
ĠsamrÃ¦ mi
ĠmÃ¦ tti
Ġhug a
la st
Ã¦ Ã°um
ĠdÃ¦m i
Ġsam k
dd ur
Ġskip ulag
ind um
F yr
ĠÃ¾r emur
ĠS el
a y
m bl
ĠAkur eyri
ĠG ÃŃ
ĠsÃ©r st
j af
Ġranns Ã³kn
ĠhÃºs nÃ¦Ã°i
h Ã³p
ĠsjÃºk ra
Ġkr ef
Ġvor um
ni t
Ġkv enna
Ġ illa
Ġb re
kv Ã¶ld
ĠK aup
ĠtÃ¦kif Ã¦ri
ĠmÃ¶r gum
ĠaÃ° ild
yk ir
ey m
ĠB en
Ġ2 9
ĠfÃ³lk s
ĠvÃŃ Ã°a
Ġstyr k
Ġg est
Ġfyrr verandi
ĠB ar
ĠÃ ļ
ei star
sl i
Ġeftir lit
Ġtv Ã¦r
Ġvar Ã°ar
d ir
Ġskip ti
Ã¦ tti
Ġma ti
Ġb andar
Ġstarf a
Ġk arl
ei f
ung is
Ġf all
ĠforsÃ¦tis rÃ¡Ã°herra
ĠskÃ½r slu
ĠaÃ° gerÃ°
ber g
er fiÃ°
Ġstund um
Ġ19 4
Ġmill j
g Ã¶ng
Ġbet ri
Ġfl jÃ³
Ġr ef
Ġhver t
aÃ° ili
ĠfÃ©lag iÃ°
i b
Ġb iÃ°
Ġfram tÃŃÃ°
ĠA ustur
Ġ [
Ġgagn vart
ri p
ĠR o
Ġb ifreiÃ°
Ġs Ã¶ng
as em
ĠÃ¾ ri
ĠH alldÃ³r
Ġbrey tt
Ġsam komulag
yr k
ĠmeÃ° ferÃ°
Ġm en
f rÃ¦Ã°i
Ġh itt
2 0
greiÃ° slu
ĠsÃŃ Ã°ur
ĠÃŃ Ã¾rÃ³
Ġh Ã©l
k on
Ãºt veg
o gi
br Ã¶g
Ġp ers
s ÃŃ
ĠslÃŃk t
Ġn Ã¦g
ra ust
A n
v il
Ġs ek
afl okk
Ġl Ã¦g
Ġv eita
Ġg af
Ġh endi
ĠsÃŃ nar
Ġleik ur
ing aÃ°
i a
Ġ200 9
fyl k
Ġundan fÃ¶r
al eik
sk ar
ĠÃ³ g
Ġtv o
ĠB org
r aÃ°
ull trÃº
l Ã¦g
ĠSjÃ¡lfstÃ¦Ã°i sflokk
ĠrÃŃkisst jÃ³rnar
o la
Ġkom inn
Ġkv aÃ°
e inu
Ġstefnd i
Ã¦ Ã°a
h el
Ġn Ã©
Ġbr Ã©f
ĠsÃŃÃ°ast liÃ°
Ġv Ã©l
ĠHaf nar
jÃ¶r Ã°
na son
ĠL i
Ġbygg ja
ĠmÃ¡l s
Ġkr ingum
ĠÃ¾ ykir
ĠhjÃ¡l p
nu Ã°
Ġs Ã³l
Ġn eÃ°
b a
t rygg
sk um
Ġ200 7
ÃŃ ska
Ã¡tt u
ĠH Ã¦
l aÃ°
nar i
Ġstarf i
ofn unar
Ġfr emst
Ġhel g
Ġley fi
Ġg at
und ar
ra u
z t
r eng
ĠrÃ¦ tt
Ġknatt spyrnu
ĠG ar
Ġupphaf i
ĠÃ¡kÃ¦r Ã°i
ĠfÃ¶ stu
Ġein ungis
ĠP Ã©tur
Ġyfir lÃ½s
ĠhÃ©l t
Ġkon ur
ĠstuÃ° ning
Ġ19 5
ĠfÃ³r u
Ġleng ur
Ġbrey ta
Ġsv Ã¦Ã°i
e ta
Ġh jar
Ġlag Ã°i
ag na
Ġn afn
Ġmarg t
st ein
end ingar
ett vang
Ġeinf ald
rÃ¦ Ã°ur
vÃŃ Ã°
t in
Ġ w
r eik
Ġranns Ã³knar
ĠO r
rÃ© tta
h Ã¶f
ĠÃ¶ f
ag i
Ġv al
Ġ201 0
c e
ĠÃ¾ Ã¶rf
Ġbein t
ĠMagn Ãºs
ĠupplÃ½s ingum
um Ã¡l
ingar innar
Ã³k nir
Ġleik num
ĠN ew
ĠlÃ½ st
arf Ã©lÃ¶g
gg ja
Ġflyt ja
ĠR agnar
ĠF r
ĠniÃ°ur stÃ¶Ã°u
Ġs Ã³tt
Ġ3 1
kom u
Ġf Ã¦ri
ĠL au
ĠhÃ¡l f
Ã¦ tur
E ng
ĠH ann
Ġ urÃ°u
deild inni
Ġfund i
M Ã¡l
ĠV estur
eyr iss
lÃ¶g um
ik t
Ã¦ n
gj Ã¶f
Ġsk rÃ¡
ĠA Ã°
ĠsjÃ¡var Ãºtveg
ĠhÃ¶fuÃ°borg arsv
Ġhver jum
sÃ¶g n
Ġger Ã°ar
Ã³Ã° ir
ĠF or
ĠsjÃ¡lf ur
Ġs unnu
Ġget um
sl an
Ġrey ndar
Ġh inum
ĠT he
Ġfr est
jÃ³ s
ĠÃ³ lÃŃk
enn t
ĠÃºr val
ĠSigurÃ° sson
ĠaÃ° stÃ¦Ã°ur
ning in
ÃŃÃ° an
ĠlÃŃk am
st jÃ³rnar
Ġ &
j aÃ°
Ġatvinn u
Ġh iÃ°
ar ar
m itt
nu st
en ti
Ã¦tt u
Ġh ingaÃ°
o kki
ĠÃŃslensk ra
y fir
Ġt on
V er
f jÃ¡r
ĠhÃ¦ tt
ĠAlÃ¾ing is
Ġst Ãºl
aleg a
1 1
mund ur
sk eiÃ°
Ã¡ Ã¦tl
ÃŃk is
H v
o Ã°ar
ĠÃ¶r ug
Ġtv eir
M ik
ĠhÃ¦ tta
ĠÃ¡h ygg
ins Ã¦
ĠA n
ĠfrÃ¡ bÃ¦r
eftir lit
Ġat riÃ°i
al li
St efn
ĠfÃ¡ i
Ġlof t
Ġt vÃŃ
Ġal Ã¾jÃ³Ã°
Ġd rei
Ġv en
vald a
Ġt ald
Ġsam h
s ir
ĠR e
Ġsam eig
ĠlÃ© k
ar inn
Ġgr ÃŃÃ°ar
rÃ¦ Ã°um
Ġl a
ĠS vÃŃ
kk ur
m anns
nit ed
ĠhÃ¦ ttu
b Ã½
ĠsÃŃ st
Ġt he
ing i
Ġn et
Ã¦ t
ĠframkvÃ¦md astjÃ³ri
ĠprÃ³ f
p o
ĠEvrÃ³pu samband
ang aÃ°
ĠGuÃ°mund sson
ĠliÃ° sins
af na
Ã¶m mu
ĠlÃŃ fi
se ti
Ġp l
ĠtÃ³k u
Ġg Ã¶m
ĠlÃ¶g Ã°
Ġh Ã©
Ã¦Ã° iÃ°
ĠÃ¾rÃ³ un
ĠlÃ¶greg l
ger Ã°ar
i ch
ĠpÃ³ lit
A R
Ġsk amm
en s
Ġaf h
Ġ Z
F l
k ost
ĠÃ¾ri ggja
ĠsjÃ¡lf sÃ¶g
ĠSigur Ã°ar
ĠaÃ° rar
Ġleik maÃ°ur
Ġbest a
Ġein mitt
ĠÃ³ s
ĠÃ¡r in
jarn an
p ur
Ã³ g
Ġh Ã¶nd
ang a
l inum
ch ester
Ġann an
ĠÃ¡ v
Ġtek ju
sf Ã³lk
Ã¶ld um
ĠÃįslend ingar
Ġsam tali
ĠÃįslend inga
ĠÃĵlaf ur
b anka
re ss
au ka
or k
Ġgrund v
o b
Ġutan rÃŃkis
ĠF riÃ°
Ġs jÃ³Ã°
Ġflu t
ĠfjÃ¡r hÃ¦Ã°
ĠSam fylk
ĠviÃ° bÃ³t
eÃ°la bank
ĠsÃ½ nt
Ġ201 1
ĠR Ãºss
Ġveg um
n in
es i
ĠstÃ¶rf um
ĠÃ¾ or
Ġkar la
b ÃŃ
ĠsjÃ³ nar
Ã½ sk
ĠviÃ° komandi
Ġgr eidd
v Ã©l
Her ra
ing unni
Ġleik menn
Ġh rein
rÃŃ Ã°ur
ĠgÃ¦r kvÃ¶ld
af ar
Ġh Ã³t
ĠK Ã³p
Ġh Ã¦r
au g
af ni
ĠlÃ¡ tiÃ°
sm ynd
sk ost
Ġeld ri
Ġ200 1
ĠleiÃ° ir
t on
Ġb endir
s ag
ĠÃ¾urf ti
i ti
Ġalmenn t
ĠfjÃ¶lskyld u
ĠU nited
Ã¾ Ã³r
Ġko sti
Ġtilkyn ningu
Ġn eitt
ĠH er
ĠmÃ¦ l
Ġh ygg
Ġeng u
n inni
ĠfjÃ¡r hag
an leg
Ġgeng ur
b ar
k aup
ĠmÃŃ num
Ġstarf smenn
ĠÃ¦ f
ĠE ng
Ġland iÃ°
Ġrey nd
Ġ un
c o
Ġtil efni
ĠrÃºm lega
Ġgr un
Ġkom st
h jÃ¡l
Ġb Ã¡Ã°
Ġskip ta
Ã¾ eg
d eg
ra k
Ã¾ Ã¡
t ill
LÃ¶g reg
eist ara
Ġlig gja
Ġmik lum
r o
ĠstjÃ³rnar skrÃ¡
lau st
Ġs Ã¡tt
Ã¦g t
Ġ yr
Ġr eiÃ°
t ingu
ĠsviÃ° i
M arg
ĠÃŃ t
ĠhÃ©r na
ĠÃ¡her slu
ĠAl Ã¾
ĠsjÃ¡lfsÃ¶g Ã°u
Ġr if
ĠskoÃ° un
Ã°ur inn
l eitt
ĠljÃ³ si
ĠbjÃ³ Ã°a
ĠÃ¾yr f
ĠkrÃ¶f ur
ĠAr nar
ĠmÃ¡l a
Ġ6 0
ĠÃ¦ tt
Ġs endi
ĠsÃ¦k ja
ĠA f
Ġdag inn
ni st
ĠBre tl
Ġfr emur
ĠÃ¾ing maÃ°ur
ĠlÃŃk lega
m ur
Ġfer Ã°a
ĠE g
Ġo l
Ġlok iÃ°
am ark
r y
Ġgang i
b Ã³k
ĠKÃ³p av
brÃ¶g Ã°
mann i
Ġathug asem
g Ã¦
n n
or ku
ss am
Ġd Ã³tt
Ã¡ fu
brey tt
ĠnauÃ°syn legt
Ġv ek
H vaÃ°
H ins
v it
Ġt ÃŃ
Ġber i
ĠSt ein
Ãº sson
Ġl oka
Ġv ettvang
st rar
Ġein um
Ġn efna
ĠÃ¾ angaÃ°
Ġpers Ã³nu
ĠB jÃ¶rg
g rein
ĠdÃ³m i
1 2
ex ti
Ġ200 6
ĠhljÃ³ m
Ġland bÃºn
Ġf ÃŃk
Ġsk aÃ°
ĠF rakk
ĠnÃ¡ nast
Ã½ Ã°
ĠÃ¾akk a
f um
Ġhv ar
Ġjafn t
leg i
Ġeig um
stÃ¶Ã° var
r ef
aÃ° an
o nd
ĠlÃŃ ta
Ġstu tt
sl unni
ĠReyk jan
bol ta
ĠE f
it y
ĠnÃ¡ Ã°i
frÃ¦Ã° ingur
Ġlau k
ĠrÃŃkisst j
sk Ã½r
Ġr Ã¦k
Ġhug sa
Ġb anka
ĠÃ¶ ld
g ir
Ġein kum
Ãŀ Ãº
Ġf Ã¶r
Ġdag skrÃ¡
ĠtÃ³n list
ra um
1 5
Ġv insÃ¦
a h
Ġhef st
E l
Ġg reina
jÃ³ Ã°i
se tt
Ġl jÃº
L eik
Ġ201 2
Ġsel ja
ĠgÃ¦ tu
ĠfjÃ¶l da
ĠbÃº inn
v irk
ĠmÃŃ nu
y kt
ild ur
lau s
ĠK R
ĠSt e
ĠÃ³ Ã¾
ĠtÃ³n listar
lau g
Ġtak i
po ol
ĠgÃ³ Ã°u
Ġminn sta
Ġtil tek
ĠV ÃŃk
ĠÃ¡tt u
ĠÃŃslensk um
ĠsÃŃÃ°ar i
sm Ã¶nnum
U pp
b jÃ¶rn
ĠÃ¡h ug
ĠÃºrval s
ĠHÃ¦ star
Ġhr ey
Ġd Ã¶gum
Ġsvo k
Ã½sk al
Ġhelg ina
ar lega
st einn
Ġupp bygg
Ġsameig in
ĠÃ¾urf um
ĠvÃŃs aÃ°
ĠÃ¾ing menn
Ġr a
Ġaug lÃ½s
ĠÃ¾r jÃ¡
ĠliÃ° inu
h eiÃ°
Ġd egi
Ã¡ k
ĠÃ¾ ung
Ġmarg ar
ĠDa vÃŃÃ°
Ã¶r num
d ur
Ġfeng u
Ġver ulega
Ã¶l lu
Ġreyn slu
Ġh Ã¶ndum
R ey
Ġt r
ĠÃ¡r Ã¡s
Ġb il
Ġrey nt
Ġtal aÃ°
ei ti
ir Ã°u
Ġkyn n
br Ã©
Ġger i
ĠÃ¡stÃ¦ Ã°a
Ġkom ist
Ġn ein
Ġk alla
ĠÃ½m sum
sleg t
ĠfyrirtÃ¦k ja
Ġumf jÃ¶l
Ġh jÃ³
tu st
er finu
Ġaf leiÃ°
Ġb Ãºn
ag reiÃ°
yrirtÃ¦k i
ĠrÃ¡ Ã°a
ĠlÃ© st
am Ã¶nnum
Ġbygg ingar
ĠE S
Ġvand amÃ¡l
ing una
Ã¶g g
St efnd
ĠM arg
Ġ201 3
m an
deild ar
ĠMan chester
ĠH am
ver pool
Ġyr Ã°u
ĠÃ¾eir rar
Ġb aka
ĠlÃ¡ g
Ġmann i
ey si
ĠrÃŃk i
ĠfÃ¦ dd
Ãŀ Ã¦r
Ġst yÃ°
Ġm Ã¶nnum
B r
ĠBer g
ĠbÃº in
b Ã³l
A uk
j ir
Ġy ng
Ã¡l d
Ġreg lur
Ġg rÃ³
Ġv est
ing ast
Ġgrund velli
ĠV il
Ġbyrj un
Ġein ka
Ãģ kÃ¦r
Ġsamk eppni
Ã¶ st
J Ã³n
ĠaÃ°st oÃ°
Ġr ak
ĠÃ¡st and
Ġem bÃ¦tt
sku ld
Ġt rey
Ãŀ r
ĠmÃ¦ ta
Ġm ar
s Ã¦
Ġk enn
Ġm Ã¡tt
ĠGuÃ° jÃ³n
Ġaf la
ĠboÃ° iÃ°
Ġfr jÃ¡l
j anna
ri d
ĠfÃ¦ ra
p ÃŃtal
li k
Ġsam mÃ¡la
Ġ Â
ĠrÃŃk iÃ°
sg eir
ĠviÃ°ur ken
v ist
ĠB reiÃ°
Ġein st
Ġ. ..
f oss
ĠfyrirtÃ¦k iÃ°
ĠfÃŃk ni
Ġfrek ari
ĠÃŀ jÃ³Ã°
Ġtil vik
ĠfyrirtÃ¦k isins
u stu
au Ã°a
Ġeinhver n
Ġkyn na
t inn
Ã¶n nu
ĠsagÃ°i st
ĠfjÃ³r um
ĠmÃ¶guleik a
ein t
g an
ĠhÃ¶fuÃ°borgarsv Ã¦Ã°inu
ĠK arl
d Ã¦m
Ġs end
ĠlÃ© t
ĠstÃ¶ Ã°
Ġkost naÃ°
J Ã³
Ġmest u
r Ã¶f
Ġse inni
ĠnÃ¡ gr
Ġh eiÃ°
Ã¶g u
ĠnÃº verandi
Ġstofn un
e z
ed ikt
sv iÃ°
h v
ber t
ĠnÃ½ ta
Ġvil ji
ĠÃŀ Ã½skal
Ġm itt
j un
ld u
Ġteng d
j Ã¶f
Ġlok um
Ã³ li
af or
Ġmynd a
ĠrÃ¦ Ã°u
v egar
Ġleik i
Ġv etur
Ġmis mun
Ġb o
ĠÃ¦tl aÃ°
Ġp r
ra s
nd ir
Ãŀ Ã³
Ġlit iÃ°
ĠÃ¦tl ar
ĠmÃ¡ naÃ°
e sk
ĠBandarÃŃkj anna
eir a
ĠH all
Ġleik a
ĠgÃ³ Ã°ur
ĠS m
ĠÃ³ trÃº
Ġtek jur
Sig ur
und um
ĠstÃ¶ Ã°v
y kki
ĠbÃŃ la
Ġm iÃ°ur
v irkj
hÃºs inu
Ġfj allaÃ°
ĠF l
ĠÃĸ rn
Ã° ingu
K rist
liÃ° a
Ġs afn
o li
leg an
Ġerlend is
Ġskyld i
Ġstarf smanna
ĠGuÃ°mund ur
ĠSigur Ã°ur
ĠL e
Ġ7 0
ĠÃ¾riÃ° ju
ĠleiÃ° a
ĠÃ¡rang ur
l Ã¦k
Ġ200 5
Ãļ t
ĠlÃŃ til
Ġd ug
Ġr Ã³
Ġsam ein
Ġt jÃ¡
l Ã¶nd
ĠhÃ¦ g
Ġb enda
aÃ° il
Ġtal s
Ġsveit arfÃ©lÃ¶g
Ġor ku
sm ann
t un
or m
st Ã³l
Ã¦kk un
Ġ199 1
ĠeÃ°l ilegt
ĠmÃŃnÃº tur
o ld
un i
ĠÃ¾jÃ³Ã°ar innar
ĠR Ãº
efn iÃ°
S ÃŃÃ°an
ĠHel ga
Ġf alla
Ġsk o
Ġe v
Ġum r
ĠFram sÃ³knar
eyr is
Ġsp enn
Ã¶g num
s al
ĠtÃ³n leik
ning unni
Ġsn er
F rÃ¡
ĠaÃ°st oÃ°ar
Ġn ÃŃu
Ġhl jÃ³Ã°
bÃº Ã°
Ġf ul
ĠorÃ° in
Ġ200 0
dd u
Ġraun ver
H el
Ġsinn um
Ġskemmt ileg
ing s
eld ur
Ã Ĩ
Ġ9 0
sk ir
Ġal gjÃ¶r
u pp
Ġskip tir
Ġskuld a
Ġ3 8
Ġ200 2
All t
ĠlÃŃk t
ĠaÃ°il ar
s var
Ġhvor ki
Ġendur skoÃ°
hÃ¦ f
b raut
flut ning
Ġ201 4
H Ã¦
Ġgef ur
se a
Ġsv Ã¶r
bÃ¦ jar
en ni
ĠE n
Ġlag anna
Ġhef Ã°
Ġen sku
Ġum ferÃ°ar
h eyr
Ġn jÃ³ta
Ġat vik
ĠÃ¶rygg is
Ġeinfald lega
Ġn efn
Ġaf stÃ¶Ã°u
lÃŃ tiÃ°
ĠnÃ¡ kvÃ¦m
er fis
ĠfÃ©lag inu
uÃ° v
Ġsp ar
Ġheilbrig Ã°is
ĠÃ³ v
Ġsv Ã¦Ã°inu
ac e
Stefn andi
Ġhel st
ĠGunnar sson
ĠHÃ¡ skÃ³la
ĠmilljÃ³ num
Ġb eÃ°
ĠG unn
Ġsk yn
ĠÃ¾ ÃŃn
ag er
Ġdr eng
ĠsÃŃ Ã°
Ġtil bÃº
Ġ3 5
ÃŃ Ã°a
Ġhl aup
ĠfjÃ¡rm agn
ĠmÃ³ Ã°ur
ĠkvaÃ° st
Ã¶l um
Ġskil yrÃ°i
Ġmynd ir
Ġ3 6
Ġfram an
Ġhor fa
Ġtil l
ĠS Ã³l
Ã© Ã°
ist a
ĠmÃŃnÃº tu
Ġt o
af irÃ°i
l Ã½st
f lug
Ġ200 4
or f
ĠÃŃÃ¾rÃ³ tt
ĠrÃ¡Ã° her
ĠtÃŃmab ili
skip ta
ĠG eir
Ġ200 3
ĠK at
Ġbor iÃ°
Ġven ju
m rh
ti on
nar a
Ġleig u
F jÃ¶l
ĠfjÃ¶l g
bÃ½ li
Ġger ist
l y
dd a
ĠmÃ¦ li
unar innar
er a
b i
Ġundanfar in
ar m
Ġgam la
Ġleg gur
l ir
eÃ° ur
Ġhel m
Ġef num
Ã¡Ã¦tl un
ĠhÃ¦ f
bÃ¦ tur
ĠES B
l inga
Ġr Ã¶Ã°
Ġ8 0
Ġof b
ĠliÃ° i
ĠaÃ° ger
Ġh am
Ã¾jÃ³ Ã°a
Ġteng slum
Ġ201 5
Ġbr ota
r af
Ġrek stur
a tta
ĠnÃ¡tt Ãºr
V irÃ°u
Ġdeild inni
ĠframleiÃ° slu
ars am
Ġmen ningar
Ã¡ ri
rÃ© t
ĠLi verpool
ĠsjÃ³nar miÃ°
Ġm undi
Ġget aÃ°
u tt
S Ãº
Ġmik lar
Ġlaugar dag
Ġfull yr
Ġk anna
Ġgeng i
m ik
Ġmill jÃ¶rÃ°um
Ġs yst
ĠÃ¡ lit
Ġnor Ã°ur
n Ã¡m
Ġger Ã°u
Ġ jÃ³l
ĠhÃ©r aÃ°sdÃ³m
jÃº p
Ã¶ng um
N Ã½
Ġb e
ĠbÃ¦ tt
Ġor Ã°um
vÃ¶r u
ĠÃ¾yrf ti
Ġfimm tu
Ġstarf sfÃ³lk
Ġleik jum
Ġmik inn
ĠaÃ° gang
or n
rÃ¡ s
Ġrek stri
ĠtÃŃm i
Ġg rÃ¦n
k l
Ã¶l lum
ĠPÃ¡l l
Ġnot kun
ef ur
Ġfram tÃŃÃ°ar
ĠtÃ³k st
ĠH oll
ĠÃ¦ ttu
ĠlÃŃf iÃ°
j all
Ġfylgja st
Ġb Ã¶rnum
mÃ¡l um
Ġb ann
ĠH Ã©r
Ġbr Ã¡
e ti
ĠveÃ° ur
ĠbÃ¶rn in
ĠA t
Ġ3 2
g reind
Ġkyn nt
Ġald ur
Ġkos ning
ĠjÃ³ la
Ġstyr kja
Ġe ing
ĠhÃ¦kk un
ĠBen edikt
m et
j unum
Ġvit aÃ°
Ġsk ref
leg ra
ĠF inn
D Ã³m
Ġb ur
Ġr ang
ĠÃ¾Ã³tt i
ĠSv ein
ing rÃŃm
Ġeinhver jum
Ġol ÃŃu
hald i
Ã½ ri
Ġh eg
ĠtÃ¶lv u
Ġhv e
ĠhÃ¦kk a
Ġsk v
h Ã¶fn
ĠsveitarfÃ©lag a
Ġs enda
ey pt
ĠÃ³ vart
f ang
U R
ĠmÃ³t mÃ¦l
Ġ _
st ir
Ġst y
s Ã¾
Ġs Ã¡l
ĠÃŃbÃº Ã°
Ġhel stu
M ynd
Ġver Ã°um
tÃ¶k um
Ġstr ÃŃÃ°
af Ã³lk
Ġn eit
Ġheilbrig Ã°i
heim ild
Ġhand tek
Ġlau s
Ġk ÃŃl
Ġtil gang
ĠS h
uneyt iÃ°
Ġeig u
Ġtald i
ild u
Ġv ÃŃÃ°
gr ÃŃm
d Ã¦mi
ĠÃ¾ iÃ°
Ġm eiÃ°
heim il
ĠI cel
ĠLands bank
ĠÃĵlaf sson
ĠlÃ¶greg lum
Ġ ak
Ġfr ÃŃ
Ġmill jarÃ°ar
stÃ¶ Ã°ur
Ġko na
Ġrek strar
Ġsl Ã¦m
Ġfang elsi
Ġk all
Ġstefnd u
sl ag
Ġles a
m Ã¦ti
ek t
ĠneÃ° an
ĠnÃ½ jum
Ġv et
ĠmÃŃ na
Ġtak mark
b ands
tÃŃm a
Ġskil a
ĠhÃ³f st
bygg Ã°
Ġvil jum
ĠmaÃ°ur inn
Ġbest u
ag erÃ°
sam ning
Ġyfir leitt
Ã¶g unum
Ġsunnu dag
ey s
Ġ201 6
ey jum
ĠsÃŃ m
Ġh Ãº
Ãºss ins
l ind
Ġref s
sk ra
Ġh re
Ġg arÃ°
ĠlÃ½ Ã°
Ġsit ja
Ġbr eg
Ġg Ã¶gn
ĠÃ¾jÃ³Ã° fÃ©lag
Ġheyr a
Ġk eyp
Ġsveit ar
Ġt opp
sen al
Ġlist a
Ġ in
ĠLands pÃŃtal
ĠsÃŃn s
inda vÃŃk
J afn
ĠÃ¡stÃ¦ Ã°u
ĠrÃ©tt ar
ĠÃ¾ur ft
d egi
ĠÃ¡kv aÃ°
ĠmÃ¡nu Ã°um
ĠstaÃ° rey
Ã° ingar
ĠvÃ¶r u
Ġl Ã©tt
ĠSel foss
Ġeing Ã¶ngu
ĠM ad
Ġheild ar
Ġum boÃ°
Ġbygg Ã°
uneyti sins
li f
ĠCh el
nd u
kr an
Ġh est
ĠlÃŃf eyriss
r an
jÃ¶rg unar
Ãį sl
reg lu
ĠÃģ sgeir
Ġhjar ta
T v
ĠDan mÃ¶r
Ġs al
p u
jÃ³ Ã°ur
ĠnÃ³ g
ĠtÃ¦p lega
H eim
d Ã½r
ĠÃģ g
Ãģ r
ĠgÃ¦rkvÃ¶ld i
ĠÃ¡hygg jur
ey ma
skip tum
stÃ¶ Ã°v
t Ã¡n
Ġsv ara
al aust
ĠChel sea
ur Ã°
Ġ X
ĠH ver
ĠK jar
ĠnÃ¡ nar
Ġbr Ã©
Ġflest ir
n et
Ġeinstakl inga
ĠC ity
ĠF H
b or
Ġst rÃ¡
v ara
ĠsÃ©r frÃ¦Ã°
ĠsÃ½ nir
Ġbyr ja
Ġ ]
em ma
Ġ3 3
ĠÃ¶ m
ri s
Ġm unum
ÃŃ g
akk a
Ġbank ans
ĠReykjan es
Ġton n
i e
ĠM Ã¡r
ĠsÃ½ k
m erk
Ġs y
Ġs la
ĠIng i
m agn
p h
Ġh jÃºk
I N
Ġmark a
ĠstaÃ° inn
Ġvinn um
Ġs Ã¶k
g ef
Ã¡ f
tan um
Ġspyr ja
Ġeinhver ju
Ġl Ã¦r
t s
Ġsn jÃ³
Ġsk atta
ĠS ch
Ġtil finn
ĠgÃ³Ã° an
Ġs ent
Ġb eiÃ°
Ġhlut fall
Ġl yk
ĠS eÃ°labank
rey f
Ġm ist
l unar
Ġsam tals
a um
stÃ¦ Ã°um
Ã¾ing i
Ġs Ã¡r
ĠV in
ĠbÃŃ Ã°a
an legt
Ġlang ar
Ġm eta
Ġg eÃ°
ĠundanfÃ¶r num
t ra
sl unnar
ÃŃ Ã°u
ĠfjÃ¡r lag
ĠÃ¡r amÃ³t
b ir
tÃ¶k in
arg erÃ°
ĠÃ¾Ã½ Ã°ir
Ġfj alla
Ġvik ur
Ã³ Ã°ur
Ġs enn
Ġsly s
Ġb ol
il s
on ur
ĠT rygg
ĠgÃ³ Ã°um
Ġger ast
ĠÃºt varp
ĠrÃŃkisstjÃ³rnar innar
Ġnot aÃ°
Ġfram l
Ġvar st
Ġm an
Ġv o
Ã° ung
Ġheims Ã³kn
sk or
b ind
Ġbr ott
in i
kk a
Ġheil su
t o
Ġ19 3
staÃ° an
and inn
v Ã¶ll
ĠA kran
ĠtÃ¦k ni
Ġviss ulega
Ġsp reng
ir ÃŃk
ĠtillÃ¶g ur
Ġst andi
ĠFramsÃ³knar flokk
Ġtil raun
ĠR ÃŃkis
St jÃ³rn
Ġgr eitt
ĠmÃ¡naÃ° a
r uÃ°
Ġdrei f
E S
ĠverÃ° bÃ³l
1 4
Ġb Ã³
b ÃŃl
Ġt raust
vik u
bÃ¦ tti
Ġfyl gi
Ġs uÃ°ur
Ġgrundv allar
1 8
Ġtek ist
Ã¦ s
ol f
ĠviÃ°ur k
Ġbak i
Ġt eg
nu sta
ĠtillÃ¶g u
ĠstjÃ³rn valda
Ġnokk ra
ĠaÃ°gerÃ° ir
Ġl eitt
Ġflu tti
ĠÃ³ lÃ¶g
ĠvÃ¦nt anlega
d u
bur Ã°i
ar Ã°an
t ÃŃu
ver ndar
ĠsjÃ¡lf stÃ¦Ã°i
Ġflokk sins
Ġ4 5
ĠÃģr ni
Ġst Ã³ra
Ġbet ra
k jÃ¶r
Ġgr ÃŃ
m at
ĠmÃ¡l skost
Ġhel gi
Ã¡tt ur
sk vÃ¶ld
ĠeÃ° li
j anda
Ġbreyt ingum
Ġat kvÃ¦Ã°i
Ġminn ingar
En n
Ġheimil t
Ġt jÃ³n
I I
ÃŃ num
ĠNor egi
hÃ¡ tÃŃÃ°
ĠgÃ³ Ã°ar
n ot
eÃ° ferÃ°
tta st
1 3
ld a
an ska
ÃģkÃ¦r Ã°i
borg ar
Ġkaf la
b orÃ°
ang reind
f Ã¦ri
A t
MeÃ° al
ĠSuÃ°ur nes
Ãģ riÃ°
Ġveg inn
e c
ĠÃ¶ kum
ĠÃ¡rang ri
ĠH auk
Stefnd i
ĠY ork
Ġkon u
l in
ĠdÃ³tt ur
ver nd
Ġf ell
st ig
S Ãį
ĠsÃ³knar aÃ°ila
Ġb Ãºs
ĠBjar ni
Ġb ent
veg i
ĠauÃ°v eld
ĠMagn Ãºsson
Ġv op
eld is
g Ã¶ngu
Ġatvinnul ÃŃf
Ã¾jÃ³ nust
ĠSjÃ¡lfstÃ¦Ã°isflokk sins
ĠfÃ¶stu dag
ĠÃ¾essar ar
Ãºt varp
Ġborg inni
ĠJÃ³ na
ĠkjÃ¶lfar iÃ°
ĠÃŃt rek
Ġeng an
n ina
Ġ3 4
ĠslÃŃk um
Ã¾ r
ĠÃ¡f rÃ½
Ã¶r Ã°ur
ĠAr n
Ġla una
ĠGr indavÃŃk
ĠÃ¡ Ã°an
o od
ĠSn Ã¦
kvÃ¦Ã° agreiÃ°
.. .
ĠviÃ°bÃ³t ar
Ãŀr Ã¡tt
Ġum rÃ¦Ã°
A r
ĠÃ¶m mu
ĠG u
ĠnÃ½ jan
ĠfÃ© ll
ĠF jÃ¶l
amÃ¡l a
Ġskap a
Ġk eppni
ak i
ĠÃ¡Ã¦tl un
Ġn eyt
Ġtil boÃ°
ĠÃ¡kÃ¦r u
Ãŀ Ã³r
h ildur
g eir
k ar
Ġnokk rar
k Ã¶st
ĠDanmÃ¶r ku
ik ar
ĠÃ¡ lag
Ġmet ra
brÃ© fa
ĠÃ¾ess ir
j unni
hÃºs iÃ°
ĠstjÃ³rnar and
ĠsjÃºk dÃ³m
Ġheim inum
p Ã³
ĠÃ¡ k
Ġald ri
bo ok
Ġbir t
rum varp
Ġtilkyn nt
Ġseg i
hÃºs i
Ġmill jÃ³n
Ġbygg t
Ġger st
ĠlÃ¦kk a
mÃ¶r k
rip iÃ°
Ġkref st
ĠJ Ã¡
am a
ĠskÃ½r t
Ġb eita
rÃŃk i
Ġhald i
ĠâĢ Ŀ
Ġaf l
Ġskil ja
ĠkrÃ³ num
ĠÃ¾jÃ¡lf ari
ĠFriÃ° rik
und iÃ°
Ġleit aÃ°
Ġmynd u
ĠlandbÃºn aÃ°ar
ĠhÃ¶f Ã°
einu Ã°u
VirÃ°u legi
S p
Ġsam vinnu
Ġ amma
ĠfÃ¦dd ist
ĠÃ³ f
Ġh inu
Ġfor stjÃ³ri
Ġh anda
Ãĵ laf
Ġp ab
Ġau stur
Ġsl Ã¶kk
ĠbÃ¦ tir
l Ã¦ti
Ġf i
Ġg if
ĠAr senal
k ona
s Ã¶k
Ġy kkur
Ġb Ã½r
e Ã°i
M enn
Ġnokk ru
ĠtÃŃm ann
Ġk Ã¦mi
lÃŃ f
ĠhÃ³t el
r aÃ°i
ĠfljÃ³ t
Ġskrif a
Ġhugmynd ir
Ġforeld ra
v Ã¦Ã°
Ġum fram
Ġskip t
Ġmarg a
Ġbrota Ã¾
var Ã°
Ġnem endur
ĠmÃ¶g u
ĠrÃŃkisstjÃ³rn in
Ġgrein ir
Ġkos ningar
far andi
ĠSvÃŃ Ã¾jÃ³Ã°
g jald
ĠÃ¶rug g
yl t
Ġhl aut
ĠskaÃ° ab
r unar
Ġ199 9
Ġh Ã¡r
h o
Ġ3 7
ĠhÃ¡ skÃ³l
bur Ã°ar
un k
Ġsp Ã¡
Ġl Ã¶ndum
ĠhlÃ½ tur
Ġsk rÃ¡Ã°
yÃ° ju
ver sl
Ġ, ,
Ġd re
ĠhÃ¦r ri
Ġkyn fer
sn efnd
Ġfram boÃ°
ĠhÃ³p i
ra el
ĠHafnar firÃ°i
f jarÃ°ar
Ġsl Ã¡
sÃ½ slu
ace book
dd ir
maÃ°ur inn
ĠÃ¾ Ã¦tti
ĠyfirlÃ½s ingu
Ġvarnar aÃ°ila
Ġaug ljÃ³
fram leiÃ°
Ġdreg iÃ°
Ġhrey f
on s
Ġ199 8
ĠhÃ¦kk aÃ°
ĠniÃ°ur staÃ°a
ĠgrÃŃÃ°ar lega
t er
An nar
il egar
Ġk unnu
at riÃ°i
ĠaÃ°al lega
Ġef nis
um st
Ġfj all
ĠÃ¡kveÃ° in
Ġmar kv
1 6
Ġskip a
ĠhefÃ° bund
Ġg rÃ¦
Ġhv en
Ġyng ri
ĠKeflavÃŃk ur
Ġfull kom
ileg um
Ġmark i
ĠhÃºs iÃ°
JÃ³ h
ĠHÃ¦star Ã©ttar
ĠBorg ar
Ġ jÃ¶rÃ°
Ġhven Ã¦r
ĠÃ¾r jÃ¡r
Ġbr jÃ³
Ġhef ja
iss a
ĠÃ¾ing i
Ġf Ã¦kk
liÃ° i
Ãº d
a ta
ĠGuÃ° rÃºn
Ã³ ll
ĠmÃ¡l efni
ĠBr yn
Ġkraf ist
ĠljÃº ka
l t
Ġv anda
l ingar
Ġv ona
ĠLau gar
ĠÃ³ k
Ġtil fel
sl una
ĠJo hn
deg is
gj andi
Ġs iÃ°
Ġupp hÃ¦Ã°
Ġtil lit
Ġd Ã¡
ĠVest manna
sl eik
Ġauk i
Ġh jÃ³n
Ġleg g
ĠfjÃ³r Ã°a
ĠhljÃ³m sveit
Ġborg a
sk ot
2 5
1 7
Ġeng ar
Ġg jarnan
Ġful lu
Ġh ra
all t
ĠM iÃ°
S v
tÃŃm ab
Ġh arÃ°
Ġnefnd arinnar
ag ni
V eg
ĠÃ³ l
Ã¶nn unar
Ġgam all
Ġhluta brÃ©f
ĠP al
ĠT h
ars dÃ³ttir
Ġmismun andi
ĠfÃ³lk iÃ°
ĠdÃ¦m dur
ĠHel gi
ĠsÃŃÃ°astliÃ° inn
Ġaf greiÃ°slu
Ġs yng
Ġh eit
Ġfr Ã¦Ã°
astjÃ³ ra
Ġsamstarf i
Ġh epp
nu Ã°u
ĠnÃ¡l g
a z
ĠstyÃ° ja
Ġflut ning
Ġfisk veiÃ°
ĠhÃ¡ tÃŃÃ°
Ġb eitt
Ġv ei
Ġleik iÃ°
est a
ĠBretl andi
st efn
Ãº g
ĠviÃ° tali
epp nis
Ġl eidd
am iÃ°
bo Ã°i
Ġley sa
Ġbr Ã½
Ġ3 00
uneyt inu
k ast
ĠB jÃ¶r
sf Ã©lag
un na
Ġl Ã¶ngu
ra bb
I R
ĠkrÃ³ n
ĠframkvÃ¦md ir
ĠumfjÃ¶l lun
ÃŃ tiÃ°
ĠfÃ©lag a
haf a
e v
st an
ĠN orÃ°
ĠB o
anefnd ar
d um
Ġleik sins
Ġauk ist
m arg
ĠfjÃ¶gur ra
Ġl os
Ġs eld
Ġfors et
ĠnÃ¦r ri
Ġsk Ã³
Ġverk um
Ġbygg ir
ĠH eim
Ġnokkur n
ĠorÃ° inn
Ġbreyt ing
ey ja
ĠlÃ¶gregl unnar
ĠverÃ° lag
ver ka
Ġsvo lÃŃtiÃ°
Ġh Ã¶r
S eg
el li
ĠstÃ³r t
Ġtal in
of t
M ark
ĠmiÃ° viku
ĠvÃŃs ind
v atn
Ġse tti
ĠÃ¾r ÃŃr
re tt
Ġhr yÃ°ju
p rÃ³
ĠvÃ¦ n
Ġb raut
... ]
Ġdeild arinnar
Ġdag sins
dag a
Ġsk Ã¶mmu
Ġr Ã¦Ã°
ĠfÃ¶ Ã°ur
Ġg Ã¡
E ig
ĠstaÃ° a
b jÃ¶rg
Ġvir Ã°is
h ol
ĠÃ¶rygg i
Ġaf mÃ¦li
Ġvar a
Ġkjar asam
d ar
on g
ĠVil hjÃ¡l
ĠÃģg Ãºst
Ġd ans
Ġr iÃ°
ĠstÃ¦r ri
ing urinn
ĠhÃºs inu
b jar
Ã¶ Ã°um
Ġversl un
Ġst efna
o ti
S um
Ġem bÃ¦tti
p i
ĠÃ¡r unum
Ġupp Ã¡
S Ã¡
at ni
ĠbÃ¦ num
ĠSam einuÃ°u
ur um
ef nir
ĠP ar
r ÃŃn
re st
Ġvettvang i
Ã³ s
Ġl ax
s Ã³kn
Ġdag s
Ġ[ ...]
S ÃŃ
al aga
ĠstÃ¶ Ã°um
Ġbreyt ingu
Ġnefnd ar
Ġbir tist
Ġhr un
Ġeng a
ĠV ig
Ġh e
y ss
ĠfÃ©lag s
Y fir
T A
Ġvik unni
Ġs innar
ĠaÃ° ferÃ°
ĠfulltrÃº a
ĠiÃ° naÃ°ar
ĠU m
Ġd Ã¶gunum
ĠH eiÃ°
Ġn am
Ġstig um
ĠKÃ³pav ogi
ĠB u
Ġt ung
leg ir
Ġt ex
kk ar
Ġfall iÃ°
Ġvald iÃ°
Ġsam gÃ¶ng
Ġk eyr
Ġfram lag
Ã¶ tt
Ġh eitir
Ġsl epp
ĠlÃ¶greg lan
lu gg
er n
Ġger Ã°ist
ĠÃ¡f eng
ĠhÃ¦ Ã°
Ġranns Ã³knir
Ġbo Ã°i
Ġranns Ã³k
ĠlÃ½ sti
n un
ĠÃ¡kv arÃ°an
ĠÃį rak
Ġalmen nings
Ġop na
ĠsjÃ¡lf um
Ġundir rit
ĠfjÃ¶l di
Ġk jÃ¶
sag t
Ġr ei
g is
Ġheim as
ĠembÃ¦tt is
gerÃ° ir
Ġreg lum
Ġv exti
al Ã¶g
Ġmik illi
ĠÃ³sk aÃ°
b ein
ĠF re
ĠF Ã©lag
Ġb rÃ³
ĠtÃ¦k i
n ni
ĠS ver
er i
ĠÃ¡g rein
ver Ã°i
ber gi
ĠÃŀÃ³r Ã°ar
sl Ã¶g
ĠbeÃ° iÃ°
ĠliÃ° in
rÃ¦ kt
nefnd ar
ĠstaÃ°rey nd
ĠvirÃ°is auka
Ġf Ã¦Ã°
Ã³ Ã°u
4 0
Ãĵlaf ur
Ġhor f
ĠnÃ¡kvÃ¦m lega
ĠVin stri
ĠÃŃbÃº a
ĠfjÃ¶lmiÃ° la
Ġdag ana
ĠGr ÃŃm
El sku
ĠjÃ¡ kv
Ãº la
ĠFor seti
Ġfjar lÃ¦g
ĠÃ¾ Ã©tt
Ġm jÃ³l
ĠÃ¾ing inu
Ġb jÃ¶rgunar
ĠkrÃ¶f um
Ġsann arlega
Ġr Ã½
Ġvinnum ark
Ġsig ri
Ġef la
sh Ã³p
Ġleng ri
Ãį slen
Ġm Ã¦tt
af yrirtÃ¦k
f yrirtÃ¦k
vil iÃ°
Ġk irkj
av e
Ġfj allar
ĠstÃ¦r Ã°
LÃ¶greg lan
ĠJÃ³n sdÃ³ttir
Ã¶x tum
ĠKristjÃ¡n sson
ĠÃ¡v allt
Ġspur ning
ĠÃ¾aÃ° an
w w
sv Ã¦Ã°i
ĠskoÃ° unar
Ġsam bÃ¦r
ĠL Ã¡
Ġvil jaÃ°
ĠKrist ÃŃn
Ġheil s
HÃ¦ stv
ĠnÃ³ gu
ĠÃį tal
ĠvÃŃs a
A N
q u
Ġ7 5
Ġs at
ĠÃįsland sm
Ġbyrj aÃ°i
il eik
ĠK ÃŃna
ĠRÃº nar
Ġg Ã¶gnum
ĠI nd
ĠBjar nason
ug u
Ġt Ã³lf
Ġkl Ã¡r
set ningu
ĠvÃŃs u
t or
Ġsamning a
Ġe inni
eist ari
2 2
Ã¶ld u
ÃŃ t
ĠfrÃ©tt ir
Ġb ekk
Ġt Ãºl
Ġ4 3
ĠH Ãºs
Ã¶ Ã°u
Ġuppbygg ingu
ĠÃģ s
Ġsk Ã¡ld
Ġumhver fi
Ġse inna
ĠS Ã¦
am b
ĠE irÃŃk
ĠlÃ½s a
ĠÃŃ sl
Ġsn emma
Ġst el
Ġbr tt
Ġv estur
Ġt oll
st and
Ġeigin lega
ĠÃ½m is
Ġvit ni
ĠSigurÃ°ar dÃ³ttir
ĠF acebook
ĠAÃ° al
Ġmarg ra
est ir
ÃŃ sku
H afi
Ġerlend um
ĠÃģr na
Ġun nt
ĠH v
eig u
I ng
on e
Ġvin stri
stein sson
ĠlÃ½Ã° rÃ¦Ã°i
ĠÃ¡tt um
Ġ unnu
Ġ *
ĠnÃ½r ri
Ġopinber a
as h
F Ã©lag
skÃ³l anum
ĠsnÃº a
Ġm ein
S K
Ãº Ã°ar
ĠSte ingrÃŃm
ĠslÃŃk ar
ĠH Ã³l
ĠSamfylk ingarinnar
Ġb Ã¦k
ĠM ark
af ram
ulltrÃº i
Ġfr Ã¦
d e
ĠAn na
ĠprÃ³ sen
Ġb Ã½
g rei
Ġk jÃ³
Ġfylg ir
ey fi
Ġley fa
ĠrÃŃkiss jÃ³Ã°s
ĠnÃ½ lega
ĠIng ib
Ġmann rÃ©tt
spur n
ĠÃŀÃ½skal andi
Ġr Ã©tta
ĠpÃ³lit ÃŃsk
ĠfjÃ¶lmiÃ° lum
ĠljÃ³ smynd
ĠlÃ¡g mark
Ġspil aÃ°
rÃ©tt i
vÃŃ si
F Ã³lk
Ġh i
Ġe ll
S em
Ġk allaÃ°
Ġbr ug
in e
Ġk eypt
ĠD V
ĠÃ¾jÃ³Ã° anna
Ã¡ h
Ġf ars
tak anna
ĠBjar na
Ġklukk ust
ark ost
Ġhver n
Ġsem ja
sk Ã¶p
Ġst ol
il ja
Ġmark aÃ°i
ĠslÃŃk a
ĠÃ¦tl aÃ°i
ĠlÃ¶g in
Ġfal li
Ġhald in
Ġflest um
ĠM att
jÃ³ ra
Ġrek ja
Ġfyrir hug
ĠÃºrskur Ã°
Ġfull t
Ġvinn ur
Ġt agi
ĠAkur eyr
B C
ĠÃ¡h orf
amÃ¡l um
Ġt it
ĠEinar sson
ag Ã°
cel ona
ĠMorgunblaÃ° iÃ°
Ġlig gi
ĠH ag
ĠE m
Ġlit la
y s
Ġ5 00
in sson
bur Ã°
Ġlau sn
ĠÃĵlaf s
Ãļ r
ĠstÃ¦r sta
ĠV eg
t aÃ°
c i
Ġst jÃ³r
Ġfl eira
ĠO dd
All ir
N iÃ°ur
s ak
ĠÃºtg Ã¡fu
ĠliÃ° a
Ġgrein t
ĠrÃ¡Ã°st af
end ingu
Ġvek ja
ĠÃºrvals deildinni
Ġhr aÃ°
ĠstÃºl k
Ã¡ ni
V erk
rÃ¦ k
ĠM a
skip ulag
f Ã³lk
ĠG e
Ġhugs anlega
Ġr is
ĠhÃ¡ mark
ĠH l
Ġb olt
Ġh inna
p er
Ġk m
Ġkom nir
hlu ti
Ġtel ji
j ung
ak ob
eig n
Ġfund ar
c a
Ġat kv
ĠtÃŃmabil inu
eld rar
ĠsÃ¦ n
Ġv ist
Ġlif a
Ġeig nir
ĠMad rid
t Ã¶l
Ã¾eg a
ef li
ĠaÃ°ild ar
Ġvir Ã°ast
Ã©tt i
ĠstÃ³r um
ĠundanfÃ¶r nu
ĠlÃŃ Ã°ur
ĠbrÃ¡ Ã°a
St arf
Ġpen ing
Ã³ Ã°um
ĠumrÃ¦ dd
at riÃ°
Ġskor a
Ġinn heim
Ġer t
ĠK r
rabb am
Ġk Ã¶nnun
skip t
ĠgÃ¦ ta
Ġv Ã¶rn
Ġs Ã¶kum
Ġannar ri
l Ã¡t
ĠhÃ¡ skÃ³la
ĠH M
Ġt ug
Ġveg a
Ġhaf nar
v e
Ġbandar ÃŃsk
Ġf ug
Ġspur Ã°i
kom a
l Ã¶ndum
j ug
p ar
ĠB e
Ã¡Ã° herra
Ġaf a
ĠÃ½ mi
Ġ199 7
4 5
Ġv ÃŃk
Ġn afni
ver Ã°u
S Ã©r
ingar nar
Ġh ar
ĠbÃ¡Ã° ir
ĠlÃŃk ur
Ġvel ja
Ġstig a
ĠfÃ³r um
ĠsÃŃ ma
Ġstarf aÃ°i
ĠÃĵ sk
vinn slu
Ġfar in
Ġvald i
ĠbÃ¦ tti
ĠMarg rÃ©t
Ġbl Ã³Ã°
ĠC o
ĠF rÃ©tta
B Ã¶rn
af rÃ¦Ã°
Ġefnahag s
ĠleiÃ° in
r inum
Ġskrif aÃ°i
ĠHÃ©r aÃ°sdÃ³m
Ġaf i
Ġver ja
Ã¾ing s
Ġeinhver s
ĠRe al
v ir
ond on
Ġvar la
B V
Ġhund ruÃ°
ĠmÃ¡ naÃ°ar
ĠviÃ°skip ti
hr ing
Ġal ger
m inn
ĠgÃ¦ slu
ĠM il
Ġf yll
Ġenn Ã¾Ã¡
ĠmÃ³t mÃ¦
Ġdr Ã¡ttar
Ġst ÃŃ
Ġfrumvarp inu
S ag
Ãļ V
skyld u
kon u
ĠÃ¡nÃ¦g ju
Ġ201 7
ĠH u
b jÃ³Ã°
Ġkaf fi
ĠV ald
Ġnor Ã°an
ĠHr afn
Ġstund a
5 00
ĠstÃ³r u
ĠkveÃ° iÃ°
Ġh ina
v ax
Ġs org
S lÃŃk
ast i
ĠnÃ¡m skeiÃ°
r anns
ileg ur
ĠVest f
Ã°ar innar
ĠbÃ¡Ã° um
Ġt Ã³m
ĠP ort
Ġf jÃ¶r
ĠupplÃ½s ing
s jÃºk
k erfi
b Ã¶rn
ĠÃ¡l ykt
ĠsÃ³l ar
ĠlÃ¡ t
Ġd Ã¡l
ĠniÃ°ur stÃ¶Ã°ur
re stur
ĠAl ex
n ey
Ã©tt ur
u leg
skrif t
Ġsamning i
All s
ĠsÃ© st
ÃŃn ver
Ã¦ slu
la una
ĠbrÃ© fi
ĠnÃ½ jar
Ġvik um
Ġt eik
Ġkost naÃ°ar
ex tir
Ġm una
jÃ³ nar
S jÃ¡lf
h olt
brig Ã°i
Ġsam iÃ°
Ġhring ir
ĠfyrirtÃ¦k jum
Ġ3 9
vÃŃk ur
Ġkenn slu
Ġb ot
ĠÃ¾ing sins
ĠGÃŃ sl
l f
Ġk erfi
smÃ¡l um
Ġb aÃ°
Ġversl unar
ĠÃ³ breytt
ĠH a
ess or
ĠÃįsl en
ĠmÃ¡nu Ã°
ĠD ag
ĠStefÃ¡n sson
Ġheim i
nd um
ĠH il
ess i
b il
Ġborg arinnar
ul eiÃ°
av id
f Ã©lÃ¶g
ĠSigur jÃ³n
bir g
ĠrÃ©tt indi
Ġf at
F jÃ¡r
Ġfyr rum
Ġbor ist
n Ã¦g
Ġrek a
ĠmÃ¶r kum
N okk
ĠF jÃ¡r
E itt
ĠveiÃ° i
Ġn emur
ĠÃ Ĩ
Ġj afna
Ġkraf a
hlut verk
Ġleng ra
Sigur Ã°ur
Ġau gum
ĠfjÃ¡rmÃ¡l arÃ¡Ã°herra
g ild
Ġbl Ã³m
Ġviss i
Ġbar Ã¡ttu
ĠvÃŃ st
vel t
Ġheim sm
ĠÃ¦ vin
N or
Ġvit um
sÃ½ n
2 4
ĠtÃ¶lu vert
Ġsum ir
ĠutanrÃŃkis rÃ¡Ã°herra
el la
ĠÃ¡nÃ¦g Ã°ur
ĠI n
Ġh ita
Ġminn st
O r
ĠviÃ° brÃ¶gÃ°
fÃ¦r slu
Jafn framt
Ġhaf naÃ°
Ġsk er
ĠstaÃ° an
Ġbreg Ã°ast
ĠJÃ³n s
ĠK ol
ĠG yl
tur inn
ĠsamÃ¾ ykki
em a
m um
Ġeinstak ling
ĠfrÃ¡ kÃ¶st
Ġfor gang
Ġvar Ã°a
Ġbjar t
Ġtals vert
j ist
kv eÃ°
ĠstÃ¦r stu
erfis ins
k iÃ°
stjÃ³r inn
GuÃ° mundur
Ġspenn andi
H Ã¶f
Ġk jÃ³s
Ġumf ang
ang ur
ĠfjÃ¡rfest ingar
Ġhlut af
Ġreik ning
ĠB aldur
Ãº bb
Ã¡ mi
ĠÃ¡kvarÃ°an ir
Ġreglu gerÃ°
Ġeinstakl ingar
kr Ã¶f
Ġtilvik um
band alag
2 3
ĠL ondon
Ġsyst k
Ġofb eldi
c es
Ġra unar
h Ã¶ll
ar it
ĠliÃ° s
Ġein ken
Ã¶k ul
ĠsÃ½ ndi
ĠÃºt hlut
ĠT hor
ĠhjÃ¡l pa
ĠverÃ° trygg
ĠalgjÃ¶r lega
ĠsÃ¶g Ã°u
Ġstarf s
Ġminn ast
ĠmilljÃ³ na
Ġvax andi
Ġ6 5
sÃŃ Ã°u
o ut
ĠT Ã³m
ĠN Ã½
fell t
Ġum tals
Ġl Ã¦ra
Ġminn k
Ġlit lu
uÃ°v itaÃ°
Ġskil iÃ°
ĠhÃ³p ur
Ġfor y
ĠM c
Ġhv et
ĠSk ag
Ġfel st
Ġathugasem dir
Ġl Ãº
Ã³m et
ĠlÃ¡ na
j alla
stÃ¦ Ã°a
Ġv Ã¶ldum
Ġland am
ĠÃŃ tar
Ġspil aÃ°i
Ġgjald Ã¾r
b Ã³ta
rÃº m
H ug
ĠÃ¡kv Ã¦Ã°um
Ġskuld bind
ĠSig f
Ġs eint
ll inn
2 00
Ġal geng
Ã¶r k
m p
B jar
Ġframhald ssk
ĠframkvÃ¦md a
ĠÃ½m su
ĠsjÃ¡lf u
Ġs leg
h all
Ġ4 4
Ġsam skipti
ĠfulltrÃº ar
Ġmeiri hluta
Ġs und
ĠA tl
ĠÃ¡feng is
ĠÃĵ skar
Ġskil aÃ°
ĠBjÃ¶r k
Ġfel ld
Ġalvar lega
on ald
ning una
G unnar
Ġgrein argerÃ°
Ġko stur
ĠÃ½m sar
al Ã½Ã°
ĠMorgunblaÃ° inu
Ġg eym
nt er
l Ã³
Ġfram angreind
Ġfag na
Ġh agn
Ġk g
skÃ³l ann
ĠR ÃļV
ĠÃ³ m
Ãŀ Ã³tt
Ġsk eiÃ°
Ġsamh engi
Ġ |
Ġgef in
ĠupplÃ½s inga
Ġhra tt
ĠS and
Ġgl Ã¦s
Ġheimil is
Ġs endir
L ÃŃk
heiÃ° ur
V erÃ°
Ġef stu
Ġhund raÃ°
r ann
Ġkunnu gt
ĠD e
ĠVal ur
For eldrar
M iÃ°
Ġv ildu
ĠviÃ° tal
Ã³l fur
ĠfÃ© lÃ¶g
ĠBar celona
Ġtilkyn n
eig andi
ĠJÃ³hann es
Ã¦ f
rÃ¡ Ã°i
l ÃŃn
yfir vÃ¶ld
Ġeinhver ja
ĠgÃ¶m lu
Ġtak ast
Ġforeld rar
ĠÃ¡hrif um
Ġtrygg ing
Ġm eistar
Ġfyrir komulag
vÃ¦ nt
ĠMar ÃŃa
p s
Ã½ Ã°u
Ġbrot iÃ°
Ġkost naÃ°ur
rÃ¡Ã° s
ĠÃ½mi slegt
sl ok
ĠM art
Ġsann fÃ¦r
Ġbar Ã¡tt
ĠnÃ¡l Ã¦gt
dag ur
Ġst oÃ°
Ġpen inga
nes i
ĠHel g
unn an
Mik il
Ġt utt
Ġfl Ã³tt
ĠframtÃŃÃ° inni
ĠbÃºn ir
Ġskyld u
hor f
ann i
H inn
Ġgrein ar
la k
ĠvÃŃs ar
sÃ¶g u
b ak
Ġg re
Ġbr Ã¡Ã°
skÃ³l ans
Ġstefn t
ĠsÃ½ ningar
sk j
Ġ15 0
ĠÃ¶rugg lega
B ar
Hver nig
und u
ĠvÃŃs it
ven ju
Ġfyr sti
ĠEvrÃ³pusamband sins
im ar
Ġrek str
Ġd oll
Ġmist Ã¶k
Ġtil liti
Ġendur nÃ½
ĠrÃ¡Ã° h
virkj un
Ġfl okki
Ġdeild ar
t aÃ°i
Ġgrein ilega
ĠgagnrÃ½ ni
o ni
ĠÃģr nason
m ist
Ġmat vÃ¦
Ġn eik
ĠHall grÃŃm
Ġ `
2 6
Ġd rÃ³
Ġgild a
ĠfÃ¡ um
ĠhjÃ³ na
Ã¶ tur
ĠÃ¦tl um
Ġst efnum
ĠÃ¾Ã¡tt tÃ¶ku
Ġg Ã¶ng
ĠÃ¡kveÃ° a
Ġer indi
ĠK ar
h repp
Ġ i
Ġg jÃ¶r
Ãŀ or
ĠÃ¾ Ã¦tt
spur Ã°ur
v Ã¦Ã°i
gj afar
Ġ5 5
ĠJ akob
st um
verk efni
ĠL eik
ĠÃ¾ing flokk
ĠaÃ° stÃ¶Ã°u
Ġb Ã³ta
Ã¶llu Ã°
Ġraf magn
Ġber jast
Ġvax ta
Ã³ re
Ġfor mi
Marg ir
ĠstÃ¶Ã°u g
s jÃ³n
M aÃ°urinn
en ham
Ã³ Ã°a
leik um
Ãŀar na
Ġfrumvarp iÃ°
Ġfund iÃ°
ĠÃºt lend
f Ã¦ra
ag jald
hver fi
Ġk ol
Ġst Ã½r
Ġteng jast
ĠÃ³ ska
l of
s Ã¡r
Ġlang an
Ġstarf aÃ°
et u
Ġbre ska
ĠÃŀ ing
Ġd raum
ĠSig rÃŃÃ°ur
Ġeftir farandi
ĠfljÃ³t lega
ĠV er
ygg ju
af lega
ey jar
st ofn
ĠGunn laug
Ġh rÃ¦
af rÃ¦Ã°i
F r
H af
Ġtv Ã¶f
st Ã¦tt
Ġk enna
ĠD i
ĠG er
Ġbandar ÃŃska
ĠM Ã©r
m Ã¡
Ġk unni
ĠKjar tan
an i
ĠÃºt il
c om
Ġ4 00
ĠeÃ°l ileg
ar nar
Ã¶n sku
Ġj af
Ġfory stu
st eins
ĠsjÃ¡lf sagt
ĠfÃ¡ tÃ¦k
f lu
ĠverÃ° mÃ¦ti
Ġskrif aÃ°
ĠaÃ° geng
Ġkyn sl
ĠÃ¾ing iÃ°
Ġk app
j endur
fel ld
ĠD al
ĠÃ¶Ã°ru vÃŃsi
Ġal Ã¾ing
Ġ ja
A T
h Ã¦kk
Ġlaugar daginn
ĠstjÃ³rnarskrÃ¡ r
D ag
ĠÃŃ s
Ġ199 6
ĠtÃ¶l ur
Ġd yr
Ġg ist
ĠauÃ° velt
ĠmÃ¡nu dag
ĠgÃ¦slu varÃ°
Ġfr Ã¦g
Ġjafnt efli
Ġvel ta
Ġ4 8
ĠA ll
ald ri
ĠleiÃ° inni
ĠÃºt s
ĠmiÃ° a
L iÃ°
Ġk Ã¶rf
as afn
Ġatvinn ur
Ġauk iÃ°
AÃ° al
aÃ°il ar
Ġteng sl
o ur
ĠvÃŃ ta
ĠÃį BV
ĠbÃº ast
Ġv ind
Ġvest an
ĠG lit
ĠÃŀ egar
Ġhlutverk i
Ġney slu
Ġs lag
jÃ¶ld um
Ġ199 5
Ġsk Ã½
ĠsÃ©rstak t
ĠA ri
S T
ĠfljÃ³ tt
v ak
Ġfull orÃ°
Ġp ÃŃ
natt leik
Ãºl ÃŃu
ĠÃ¾r ÃŃ
Ġh Ã¶g
ung u
L ok
ĠverÃ° laun
Ġp unda
Ġg ull
Ã¾ jÃ¡lf
M aÃ°ur
Ġheyr t
6 0
f rÃ¦
ĠB lÃ¶nd
am ik
Ġframl eng
ĠmÃ¡tt i
Ġverk smiÃ°
ĠdÃ³m s
Ã¦r um
Ġmest a
Ġsamkomulag i
ĠÃ¦t li
hald s
nu Ã°i
Ġ jarÃ°ar
Ġ199 3
ĠsÃ©rst aka
ĠrÃ¡Ã° iÃ°
ĠmeÃ° ferÃ°ar
Ġalmenn ra
a el
Ġd Ã½
Ġhins vegar
ĠV ÃŃs
ĠJ u
Ġgr Ã¡
Ġflokk a
ĠBreiÃ° ab
Ġsp ÃŃtal
Ġg uÃ°
Ġs jald
Ġlyk il
est i
rÃ¦ na
k ra
Ã¡ byrg
ĠferÃ° inni
Ġen ska
mÃ¡la eftirlit
N efnd
ĠrÃ¡Ã°st Ã¶f
jÃ³ ri
Ġsit ur
ott enham
ĠÃ³trÃº lega
ĠF yl
Ġyfir vÃ¶ld
v u
ĠF er
Ġl Ã¶nd
Ġsumar iÃ°
Ġ anna
ĠÃ¡f orm
ĠbeiÃ° ni
Ġmynd inni
ĠBjÃ¶rn sson
9 0
Ġeig na
els is
Ġrey ndi
ĠJ ap
t Ã¶lu
ĠaÃ°ger Ã°a
Ġbank anna
Ġvald a
on an
V it
Ġhaf iÃ°
Ġel sku
ĠSelfoss i
Ġm agn
ĠFrakk landi
Ġtil heyr
ĠL u
Ġver nd
eÃ° l
ĠÃ¶f lu
n Ãº
Ġl Ã³Ã°
ĠFrÃ©tta blaÃ°
ĠnÃ¡ i
ĠlÃŃk legt
Ġ9 1
Ġheimas ÃŃÃ°u
Ġsp r
ĠgÃ¶m ul
Ġfund inum
ĠÃ¦t lu
A A
ac k
ĠlÃ¦kk un
Ġney Ã°ar
ĠÃ¾ing s
ĠsÃ½ n
ĠgreiÃ° i
el ti
fr emur
ĠÃŃÃ¾rÃ³ tta
Ġhver jir
l Ã½
rÃ¶f u
t ri
Ġgre indi
ĠsÃ½ slum
Ġsamning um
ĠvÃ¶r um
Ġst Ã³Ã°u
ĠÂ »
2 8
st und
ĠIng a
ĠfÃ³t bolta
ĠOr ku
Ġf Ã³
ĠfyrirtÃ¦k inu
Ġfimmtu dag
Ġheg ningar
st urinn
ĠAkran esi
ĠGar Ã°ar
Ġak stur
Ġmiss a
Ġskrif ar
Ġko star
Ġjafn aÃ°i
ĠlÃ¦k ni
Ġreynd ist
jÃ³r Ã°ung
Ġeig nast
ĠskoÃ° anir
s afn
Ġnefn t
I nn
ĠnÃ¡ Ã°u
far iÃ°
Ġ arÃ°
Ġat riÃ°
Ġvak ti
al an
deild arinnar
Ã¶ tum
arf rÃ¦Ã°
Ġhagsm una
Ġgl Ã¦p
r una
N Ã¡
ĠR agn
ĠsamfÃ©lag inu
ĠferÃ° amanna
S Ã½
ĠviÃ° rÃ¦Ã°ur
2 7
Ġfyrir mynd
ĠvÃ¶r ur
Ġupp lif
ĠRÃŃkis Ãºtvarp
ĠkÃŃl Ã³met
Ġvo nast
ĠdÃ³m smÃ¡l
Ġsamning s
ĠÃįtal ÃŃu
Ġsk Ã½ra
Ġfal list
Ã³ ri
ĠGar Ã°a
Ġl i
Ġer l
ĠgrÃŃ pa
Ġnefnd in
vÃŃs it
st Ã¶rf
Ã¾ Ã¡tt
p l
Ġbar st
af la
ĠÃŃtrek aÃ°
Ġskuld ir
ĠmÃ¦ tir
jÃ³ ni
Ġm Ã³Ã°ir
Ġbr Ãº
Ġe yÃ°
ĠkjÃ³ sa
m Ã³t
Ġhald inn
f yll
Ġv ott
e sson
ĠvÃŃs an
l eif
Ġmark aÃ°s
rÃ© tar
Ãºr slit
ĠundirbÃº ning
ĠM at
Ã¶Ã° var
Ġfl Ã½
ĠH jÃ¶r
ĠlÃ½s ir
Ġ199 4
Ã³ ti
stof a
ĠSnÃ¦ fell
Ġsn Ã½st
ĠnÃ¡ttÃºru lega
Ġvel ferÃ°ar
f undi
Ġskyn sam
ab oÃ°
gan ist
bÃºn aÃ°
ĠGÃŃ sla
Ã¡ tta
Ġvan tar
Ġverk iÃ°
stÃ¦ Ã°u
al and
Ġfell ur
ĠM ich
ĠÃ¾ekk ja
ĠA nt
f jÃ¶l
i o
ljÃ³ m
ĠhÃ¦r ra
Ġkeyp ti
Ġlok aÃ°
ĠmiÃ° jum
Ġstof naÃ°
ĠsjÃ¡lf s
A nd
ĠÃ¾jÃ³Ã° in
ĠÃįs rael
2 1
v eig
rÃ¦ ti
Ġp ass
um enn
ĠÃ¾ ol
d Ã¶gum
Ġb und
Ġverk efnum
mÃ¦ lum
Ġmat s
ĠGÃŃsl ason
L jÃ³
ĠF lug
Ġfasteig n
ĠO g
Ġm bl
eg in
gang ur
ĠF Ã¦r
Ġraun inni
Ġeig n
ĠsjÃºkra hÃºs
ĠÃ¾ yng
ver u
ĠviÃ°skip tum
ĠO l
Ġtal aÃ°i
dr Ã¡ttar
Ġatvinnur ek
ras il
ĠbrÃ¡Ã°a birg
Ġell ef
Ġger Ã°ur
ĠP er
ĠhÃ© ldu
ĠLÃ¡ ru
ĠmeÃ°al tali
ett ur
Ġr enn
Ġst Ã¦kk
ĠHar ald
tÃ¦k i
Ġtutt ugu
Ġsku lu
ÃŃ Ã°i
epp ninni
Ġmynd um
9 8
ĠsjÃ³Ã° sins
hn eig
Ġ am
Ġbygg ingu
ĠsÃ©rst Ã¶k
ĠlÃ¶greg la
Ġvir tist
Ġnot uÃ°
h Ã³l
Ġsp or
ĠJÃ³hann sson
Ġkom andi
T al
ĠÃ³ venju
ĠÃŀ org
ĠumrÃ¦ Ã°a
s nar
Ġheimild ir
stÃ¶Ã° inni
Ġhlu sta
Ġgl eÃ°i
Ġmennt amÃ¡l
Ã³ a
Ġt Ã¶kum
Ġmann esk
T aliÃ°
ĠT im
ĠrÃ¦ ddi
uleik a
d eil
Ġ4 6
ĠprÃ³f essor
gg ert
Ġmeg a
ĠvirÃ°isauka skatt
ĠtÃŃm um
Ġendur sk
ĠM eistara
el g
ĠI nter
ĠbÃŃl num
Ã¶nn unum
ĠstuÃ° nings
Ġfrumvarp sins
ĠfrÃ©tt um
Ġfeng um
Ġfi ski
ĠKÃ³pav og
Sk ip
Ġtek nar
ĠÃ³ ttast
ĠsjÃ³nvarp s
ĠfÃ¦r t
S pur
k os
ĠslÃŃk u
ĠE d
Ġe kiÃ°
v is
ĠÃŀor vald
Ġvik iÃ°
Ġverk i
Ġs unnan
Ġnefn ilega
af r
ĠÃ¦ Ã°
Ġsam ningar
veg a
sk t
Ã¡h rif
ĠÃ¡l ver
Ã ¼
Ġland a
S A
ĠauÃ° lind
v irÃ°i
ĠhjÃ¡lp ar
Ġfram mi
ot iÃ°
ĠlÃ¦kk aÃ°
ĠstaÃ° num
Ġal Ã¾jÃ³Ã°a
E kkert
or d
Ġfer li
Ġkom ust
ĠB la
ÃŃf ur
ĠbÃ¦ tur
B Ãº
Ġmat ar
ĠK l
Ġkr oss
u b
Ġst Ã©tt
of a
ĠnÃ¡lg ast
ĠD r
Ġk ort
ĠS e
tak i
Ġb jug
Veg na
Ġof tast
eiÃ° i
Ġ +
ess a
Ġg lugg
Ġbor Ã°a
ĠsÃŃ ld
Ġst Ãºd
ĠbrotaÃ¾ ola
Ġb Ã¡t
ĠaÃ°il um
ĠP et
Ġhef jast
al Ã¡
S jÃ¡
ĠN Ãº
au l
Ġsy stur
l anda
Ġb enti
ĠhÃ¦g ri
ĠÃ¡g Ã¦t
ĠG ri
is var
Ġt rÃºn
ĠMorgunblaÃ° sins
Ġget iÃ°
ĠJ ÃºlÃŃu
Ġh jÃ³l
ĠfÃ©lag ar
T el
ar Ã°i
Ġbest i
for d
bÃº a
Ã¾jÃ³ nusta
Ġf aÃ°ir
Ã¡t rygg
ĠrÃ¦Ã° ir
ĠH au
Ġk jarn
af jarÃ°ar
ĠGe org
ĠAkureyr ar
Ġ5 7
b Ã¡
ĠstrÃ¡ k
Ġf jÃ³ra
Ġfyrir l
Ġfram her
Ġskor aÃ°
jÃ¡l fir
Ġhugs aÃ°
ĠrÃº ss
ĠlÃ¦g ri
Ġfeng i
sk irkju
rum p
ĠhliÃ° ar
Ġh oll
ic k
Ãģ Ã°ur
ĠLandsbank ans
Ġ Q
Ġhver gi
Ġm org
aleg t
d am
Ġvinn slu
ĠnÃ¦st komandi
Ġset iÃ°
Ġmark iÃ°
hol ti
Ġvar Ã°i
fl yt
ĠÃºrslit um
ĠlÃ½ kur
Ġsvar aÃ°i
j una
Ġgjald eyris
S Ã©
Ġl enti
ces ave
ĠslÃ¶kk viliÃ°
Ġfar inn
ĠendurskoÃ° un
A uÃ°vitaÃ°
Ġ4 2
Ġher ra
heim ili
ĠÃº tt
ĠviÃ°skip t
Ġtap aÃ°i
Ġ8 8
Ġkl Ã¡ra
vo p
Ġnot iÃ°
er g
Ġb reiÃ°
ĠS a
and er
Ġvir Ã°ingu
Ġh im
ÃŃ el
Ġfyl gt
Ġt Ã¶f
Ġs jÃ¡lfir
Ġb and
ĠÃŃ mynd
Ġlok s
L and
ĠÃ¡lykt un
ĠNor eg
Ġl jÃ³Ã°
ĠR ÃŃk
h an
Ġmerk i
lau gur
bur Ã°ur
Ġvon andi
sh af
Ġeig andi
ĠK A
ĠÃ¡h Ã¦ttu
rÃŃk u
ĠlÃ¶g gjÃ¶f
Ġsek Ãº
ĠÃ¾ekk t
Ġn aut
uleiÃ° is
Ġrey k
b rau
ĠfÃŃkni efna
Ġvar afor
ung ar
Ġerlend ra
Ġhandtek inn
ĠSn or
ĠmÃŃnÃº tum
Ġung a
Ġand lit
afÃ©lag s
Ġung ling
ĠÃ¾ekk ingu
jar nar
leg g
Ġskemmt ilegt
Ġ4 7
Ġhr aÃ°a
ĠD avid
Ġl Ã¦tur
Ġy ndi
Ġfors endur
Ġgl eym
ĠKaup manna
Ġein b
Ġall ri
ĠJÃ³ nas
ĠW est
i el
R ÃŃkis
ei kk
Ġvir Ã°i
Ġfram h
ĠKrist inn
Ãįsl and
flut nings
ĠÃ¾rÃ³ unar
H efur
m ir
Ġf Ã³l
Seg ir
verk smiÃ°
Ġv af
b u
ĠÃ¾Ã¡tt tak
al i
Ġs lit
Ġspur t
Ġlag iÃ°
var i
Ġg ei
fÃ©lag iÃ°
Ġ ill
Ġm eng
V al
Ġnokk rir
Ġhor ft
j unnar
N Ã¦
Ġvak iÃ°
ĠP ep
Ġalmen num
ĠE x
rei snar
ĠBjÃ¶rg vin
Tv eir
Ġath uga
ĠÃ¦vin t
s ig
Ġfyrir vara
ĠgreiÃ° slur
sÃ½ ni
ur n
ĠÃŃbÃº Ã°ar
Ġfer Ã°ast
ĠblaÃ° amann
ĠÃ¡byrg Ã°ar
ĠÃŃslen z
Ġfel a
Ġeig endur
menn t
Ġfor stÃ¶Ã°um
stÃ¦Ã° an
Ġm amma
Ġau stan
Ġh rÃ¡
ri sti
ĠsamrÃ¦ m
Ġfrumvarp i
ĠferÃ° amenn
U ndir
Ġend ilega
Ġinn lend
Ã³t el
ĠI cesave
st ÃŃm
ĠnÃ¡ mi
Ġst ein
Ġ5 6
arf i
Ġreglu lega
un ir
Ġh Ãºssins
ĠFramsÃ³knarflokk sins
ĠÃ³ eÃ°l
itt er
ĠE M
ĠsjÃ¡ um
ĠjÃ¡ kvÃ¦Ã°
Ġley f
Ġspur ningar
en a
ĠstuÃ° la
Ġsam skiptum
g Ã¶tu
d Ã¡
st ofnun
sm anns
ĠPar ÃŃs
ĠlÃ¶g unum
Ã¶ sk
ĠÃ¡g Ã¦
Ã Ŀ
ĠB BC
Ġskamm t
Ã¶fn un
Ġtek inn
ĠstjÃ³rn sÃ½slu
ĠhjÃºk run
Ġfr em
Ġm undir
hel gis
al ist
ĠMatt h
ĠS Ã½r
ĠhryÃ°ju verk
Ġbrey st
2 9
l Ã¦
Ġh Ã¶gg
f Ã¡
Ġl est
Ġtilkynn ti
ĠÃ¡her sla
ĠE ES
Ġbygg Ã°ar
il inn
t ing
Ġalger lega
Ġfors endum
ĠskÃ³l ans
lend is
ĠT ottenham
un efnd
Ġd e
ĠÃ¡ b
breyt ingar
Ãºt g
ĠviÃ°skipta vin
ĠrÃºss ne
Ãŀ ing
ĠN jarÃ°
Ġspil ar
Ġbolt ann
ĠGuÃ°mund sdÃ³ttir
ĠM ik
ĠkveÃ° ur
ĠFre yr
ing ja
Ġr ig
Ġfj mrh
Ġleg iÃ°
Ġof tar
Ġk Ã³r
af ur
f Ã©
ĠstjÃ³rnar for
ĠsÃ½ ni
Ġf ÃŃn
ĠÃ¾ y
Ġk onum
Ġkost naÃ°i
Ġstu ttu
ĠL a
Ġverk alÃ½Ã°
Ġ19 0
ĠÃ¡k aflega
Ġnokkur ra
Ġr au
ĠgrÃ³ Ã°ur
Ġb la
ĠKat rÃŃn
h liÃ°a
ou p
Ġd val
p iÃ°
ĠÃ¾jÃ³Ã°ar at
i sku
S n
haf i
Ã° in
ĠVestmanna eyjum
ĠniÃ°ur skur
of u
JÃ³h ann
ver ja
Ġvin ur
Ġk rabbam
Ġall ur
Ãĸ ll
ĠÃ¾jÃ³ nust
Ġsk ynd
hl aup
ĠIcel and
ĠÃ¶ ku
ĠsjÃ¡lf t
Ġlands byggÃ°
Ġspar is
ĠbÃ¦ ndur
Ġef n
tt ur
Ġgl eyma
Ġsp Ã¦n
Ġb eina
Ġsamning ur
Ġm yn
ĠkjÃ¶r tÃŃmab
arf semi
flut ningi
ĠrÃŃk ja
il t
Ġm Ãº
Ein ar
ĠkveÃ° st
ÃŃ fi
ĠheiÃ° ur
ĠstaÃ°fest i
Ġtilgang i
at rygg
ĠnÃ¡ttÃºr lega
Ġraf orku
ĠEg il
ĠveiÃ° a
Ġbot n
ĠPÃ¡l sson
ĠnÃ¦g ilega
dag s
Ġmynd band
m in
Ġjafn an
o sa
ei ft
Ġteng ist
var nar
ĠH jÃ¡l
Ġveg i
lÃ½s ingar
sÃ³knar a
s jÃ¡
Ġpab bi
ĠlÃŃfeyriss jÃ³Ã°
ĠÃ¡kveÃ° inn
Ãģr ni
ab ar
jÃ³l f
M agn
ĠÃ¡stand iÃ°
ĠmÃ³t inu
ileg u
Ġform lega
Ã¶kk um
rÃ©tt ar
Ġor Ã°a
Ġ199 0
aÃ° ri
ĠÃ¾r o
Ġmennt un
yr r
E I
Ġsenn ilega
h it
ĠviÃ° hald
ĠaÃ°ger Ã°um
Ġk Ãº
ĠiÃ° n
ĠA ng
ĠfÃ©lag i
Ġleik skÃ³la
Ġken nara
Ġflug vÃ©l
ĠVilhjÃ¡l m
sk onar
Annar s
ĠSuÃ°urnes jum
o y
Ġk Ã¦ra
ĠEng landi
Ġb ra
Ġal vÃ¶ru
Bjar ni
w itter
Ġfasteig na
und an
Ġstofn anir
Ġeinhver jar
ĠdÃ³m stÃ³l
ĠA g
st efnu
ĠBenedikt sson
ek jur
Ġminn ka
Ġd an
Ġstarf smÃ¶nnum
ĠundirbÃº a
an o
ĠsÃŃ fellt
Ġnefnd inni
Ġl iÃ°ur
Ġk rakk
Ġs etur
ast jÃ³rn
Ġmiss k
Ġbyrj aÃ°
Ġfull nÃ¦g
ann ar
ĠtÃ³n leika
arf irÃ°i
Ġsv Ã¦Ã°iÃ°
Ã¦k ni
ei fur
Ġm i
ĠIngib jÃ¶rg
ĠlÃŃf inu
hug s
ĠK ana
ĠsamÃ¾ykk ti
ĠÃ¾ur r
ĠfjÃ¡rfest a
R anns
Ġtek jum
Ġh ol
ĠÃ¦ sk
Ġhagsm uni
Ġ5 8
Ġk unna
Ġgild ir
Ã¶ dd
Ġfal iÃ°
Ġsp jald
ĠÃ¡r lega
Ġtel jast
f ara
H in
Ġand stÃ¦Ã°
Ġp Ã¡
lag i
ĠÃŀ rÃ³
ĠÃ¡stÃ¦ Ã°um
MÃ¡l iÃ°
ĠSt jÃ¶rn
ĠhÃ¡l ft
ar iÃ°
ĠhÃ¦kk aÃ°i
ĠH jal
Ã°u Ã°
Ġtel jum
Ã¶k ur
Ġ8 5
ÃŃk u
kk u
ul iÃ°
Ġend aÃ°i
Ġg ÃŃ
k eppni
ĠPal est
Ġk emst
dr ag
Ġp la
Ġalmen na
R Ã¡Ã°
V ÃŃs
ley si
Ġupp lÃ½st
ĠC ar
Ġgrunn skÃ³la
Ġk li
Ġald ar
Ġfund ist
a sk
sp il
ĠsamÃ¾ykk ja
Ġsum um
it h
Ġd auÃ°a
Ġmis st
j unar
naÃ° ist
ĠIng Ã³lf
Ġleik tÃŃÃ°
ĠTÃ³m as
Ġe it
Ġsel t
veg is
Ġk Ã¦m
Ġtrygg t
ĠS u
9 9
Ġlyf ja
ĠrÃ¡ Ã°ist
ĠSver ri
ĠÃºt skÃ½r
Ġskil ningi
Ã¾rÃ³ un
Ġsvok all
Ġg Ã¶ngu
ĠrÃ¡ Ã°ast
ĠfÃ¦r ri
ul um
um iÃ°
on t
Ġsvar aÃ°
ĠÃ³ dÃ½r
ĠlÃ© tu
el f
Ġken nar
h eil
l unni
ĠE ggert
3 3
Ġb auÃ°
Ġvinn ust
amark aÃ°i
ĠviÃ° miÃ°
Ġm yr
Ġs onur
kvÃ¦Ã°agreiÃ° slu
B jÃ¶rn
ing ton
fÃ¦r t
ĠframkvÃ¦md astjÃ³ra
h reyf
Ġb Ã¡r
leik ar
j afn
Ã¶r ygg
Ġverk efna
ĠLaugar dal
Ġsam rÃ¡Ã°
Ġtv isvar
Ġframhald i
an ta
ĠmiÃ° jan
Ġmikil s
ĠlÃ¦k na
a var
Ġey Ã°a
k ir
K om
ess u
Ġskulda brÃ©f
ĠstÃ¶Ã°u gt
Ġst a
hver fis
l er
ĠrÃŃk inu
ell s
Ġnefnd i
ĠskÃ½r slunni
ĠbÃ¦ j
ĠN ei
Ãŀess ar
bur g
Ġleik s
Ġleidd i
ver jar
til kyn
Ġstund ir
Ġheimild um
Ġ ar
ĠfjÃ¶l marg
ĠlÃŃ Ã°a
l en
ĠK Ã¡ra
ĠsviÃ° um
Ġskil yr
ĠrÃ©tt i
ĠmÃ¡lskost naÃ°
ĠÃ¡kveÃ° num
ĠfjÃ¶l mÃ¶r
Ġb Ã¶n
ĠmÃ¡l in
ĠhÃºs i
Ġsett ar
Ġsk jal
Ġs vÃŃ
Ġsveitar stjÃ³rnar
Ã¶fn unar
ĠdÃ¦m a
ĠP r
Ġv Ã¦g
an e
ĠÃ¾Ã¡ gu
Ġg la
Ġalmen ning
ly mp
Ġkref jast
Ġsett ur
Ã°a ustur
Ġanna st
gj af
P Ã¡l
Ġundanfar iÃ°
ĠS er
ÃŃ fa
ĠB ol
al Ã¶gum
ĠÃºt reik
Ġverk fall
ĠÃºt lit
ĠVestf jÃ¶rÃ°um
Ġl oÃ°
Ġfl ott
Ġfel la
Ġeinhver jir
skoÃ° un
h t
rÃ¦Ã°i s
Ġopinber ra
Ġsig raÃ°i
ĠaÃ° ili
ĠV atn
ung ur
ĠtÃ¶lvu pÃ³
ĠÃ¾ing manna
Ġskil grein
ĠN et
ĠS ÃŃm
Ġeig iÃ°
sleg um
ĠlÃ¡ tinn
ĠfjÃ³r ar
ĠhÃ¡ tÃŃÃ°ar
Ġhi tta
Ġr enna
ĠSp Ã¡ni
ĠrÃŃkiss jÃ³Ã°i
Ġmis sti
Ã¡ kvÃ¦Ã°i
Ġfel ur
h Ãºssins
ĠEy jaf
gar Ã°
ĠmjÃ³l kur
Ġt h
ĠnÃ½r ra
ild ir
il y
Ã¶l ur
sl eit
ĠbÃ¡r ust
Ġbygg ist
Ġvek ur
Ġreyn st
ĠafleiÃ° ingar
sleg u
ĠskÃ³l anum
Ġhre ins
ver iÃ°
ĠatvinnulÃŃf sins
ĠEvrÃ³p um
fr v
ĠbÃ½ Ã°ur
ĠfrÃ¦Ã° slu
ans i
Ġd Ã½ra
âĢ ¦
ĠfjÃ¡rm Ã¶gn
Ġd auÃ°
Ġr ÃŃf
Ġst af
ĠH e
ĠkrÃ³n unnar
ĠfÃ© lÃ¶gum
ĠÃį r
ĠumrÃ¦Ã° unni
g aÃ°
ri m
Ġveit ingast
frÃ¦Ã° ingar
Eng inn
ĠgjaldÃ¾r ota
ĠsjÃ¡varÃºtveg s
ĠbÃ¦k ur
ung a
ĠHar Ã°ar
f yrirtÃ¦ki
Ġaf greiÃ°
af rumvarp
ĠÃŃslensk t
rÃŃ Ã°a
t ingar
ĠfjÃ¡r veit
Ġhlu tir
Ġk rist
Ġellef u
Ã¡n Ã¦g
Ġsty tt
ĠviÃ° rÃ¦Ã°um
ĠlÃ¶gregl unni
Ġ6 7
Ġhin ir
Ġgild andi
n anna
Ġframh jÃ¡
leik i
ĠFjÃ¡r mÃ¡laeftirlit
ĠÃ¾ ver
ĠÃ¡fram hald
ĠAlÃ¾ Ã½Ã°u
Ġbl Ã¡
Ġkv en
ĠdÃ¡l ÃŃtiÃ°
v ef
ĠÃį R
ĠÃ³v iss
Ġg reind
ĠT or
Ġfors rh
ĠSvein sson
Ġh Ã¡Ã°
Ġkon an
Ġv aliÃ°
Ġverk efniÃ°
hl ÃŃÃ°
Ġger Ã°ir
ĠG ripiÃ°
Ġr u
al k
S Ã³knar
Ġskil aboÃ°
Ġg agna
Ġfrum sÃ½
ĠGunnar sdÃ³ttir
sv Ã¦Ã°inu
Ġbl and
ĠHelg ason
ĠlÃ¶g Ã°u
Â °
Ãº ni
ĠnÃº tÃŃm
n an
Ġhor n
Ġauk num
stir Ã©ttur
Ġvel kom
t Ã³n
ĠleiÃ° t
ĠlÃ¡ ni
Ġborg ara
ĠalÃ¾ing is
ĠA m
af yrirtÃ¦ki
Ġs Ã³kn
Ġhegningar laga
Ġfl Ã³k
sk an
as et
Ġref si
3 5
G r
Ġupp fyll
lÃŃ nis
ĠhÃ¦ star
la d
Ġvar t
l ynd
ĠfulltrÃº i
Ġleik mann
Ġmenn ta
B A
i z
la ss
Ġheima velli
Ġlof ti
Ġsleg iÃ°
in ho
jÃ³ Ã°a
Ġl ent
liÃ° iÃ°
Ġyfir heyr
ĠIng var
ĠÃįs afirÃ°i
Ġfram fÃ¦ri
Ġtal inn
ĠÃ¶ l
Ġ5 4
ĠlÃŃ till
ĠE lÃŃ
Ġ #
ĠmÃ³tmÃ¦ la
M ig
vÃ¦g i
ĠsÃŃÃ° degis
Ġrek ur
Ġsegja st
skap lega
E R
b lik
Ġk irkju
ĠmÃ¦ ld
Ġkyn ni
vald iÃ°
ĠGÃŃ sli
Ã° ing
ĠfjÃ¶l breytt
Ã¶g ur
Ġh Ã¶nnun
Ġv Ã¶ll
Ġbein lÃŃnis
Ġgeng is
Ġdoll ara
R Ãº
Krist jÃ¡n
rÃ¦ Ã°a
ÃŃ fiÃ°
Ġhag kvÃ¦m
ĠÃŀÃ³rÃ°ar son
gang i
d rÃ¦
framleiÃ° slu
B Ã¦
Ġhrein lega
aÃ° inn
ĠBreiÃ°ab lik
Ġ6 6
Ã¦k ja
ĠÃ¡st Ã¦Ã°
Ġflug v
ĠH ug
or e
ss ur
yrirtÃ¦k iÃ°
ĠfÃ¶r um
ĠferÃ°a Ã¾jÃ³nustu
ĠÃºrskur Ã°ar
Ġh rÃ³
Var nar
af undi
ĠdÃ³tt ir
ĠK rÃ³
helgis gÃ¦
s fl
7 5
Ġvar iÃ°
o gg
8 0
Ġlang a
Ġv iti
ĠmiÃ°viku dag
ĠvÃŃÃ° tÃ¦k
un ina
Ġf eg
ĠverÃ°bÃ³l gu
ĠHalldÃ³r sson
stof an
Ġvirk ilega
ĠleiÃ° andi
ĠsÃ³knar aÃ°ili
ĠrÃ¡Ã°staf anir
ĠT rump
Ġvinnu brÃ¶gÃ°
Ġnein um
or s
verÃ° laun
ĠreiÃ° u
ĠmÃ¶gu legt
Ġtil laga
Ġbr jÃ³ta
li sta
Ã¾ egar
ĠhjÃºk runar
ĠPep si
K Ã³re
st ra
la unin
sk e
Ġsam tÃ¶k
Ã¡ kv
Ġv Ã¡trygg
Ġath Ã¶fn
ÃŃ as
ĠG rÃ¦n
or Ã°i
veit u
ĠstÃ³r kost
Ġum mÃ¦li
Ġbyrj unar
ĠÃ¾riÃ°ju dag
ĠhÃ³p num
Ã³t um
ger Ã°ur
Ġ9 5
M inn
Ã¾ ekk
ĠmÃ¶r gu
Ġ199 2
ljÃ³m sveit
ĠR a
Ġsvar ar
her jar
ileg ri
ĠM ag
Ġko sta
verÃ° s
Ġ4 9
Magn Ãºs
Ġrang t
Ġverk efn
Ġvir Ã°u
k erfiÃ°
ĠÃ¡kÃ¦r Ã°u
b ÃŃu
Ġe vrÃ³p
Ġal mann
ĠL it
ĠHÃºs a
fÃ©lag sins
s aÃ°
Ġauk ast
Ġh ind
ĠdÃ³m sins
ĠsÃ¶g ur
ald a
Ġbol tanum
Ġy kkar
Ġbarn iÃ°
Ġbank inn
ĠnÃ¡ nari
ĠfrÃ©tta tilkyn
ĠGuÃ°jÃ³n sson
ĠnÃ¦st unni
ĠEvrÃ³pusamband iÃ°
Ġt Ã³
ĠFÃ©lag s
s el
Ġvin i
Ġkv eik
k o
k enn
Ġhaust iÃ°
ĠstjÃ³rnmÃ¡l aflokk
Ġsl Ã³
Ġvel li
hÃºs nÃ¦Ã°i
Ġtilfel lum
aÃ°ar ins
Ġhver ja
ĠgÃ³Ã° ri
ĠHann es
ĠsÃ¦ ta
Ġland smanna
ĠmÃ¦ la
Ġkos iÃ°
ĠlÃŃf s
ĠH eil
ĠmÃ³t s
ĠrÃ¡Ã° uneyti
ĠÃºt boÃ°
ĠÃ¶f lug
ĠSk Ãºla
Ġfors var
ĠBandarÃŃk in
heiÃ° i
ĠmÃ¦l t
Ġsk ylt
anda ir
ĠrÃ¦ Ã°um
ĠfrÃ¡bÃ¦r t
ĠrÃ¦ Ã°ur
sm ark
ĠGr oup
ĠPÃ©tur sson
Ġinnan rÃŃkis
ĠstÃ³r an
ger Ã°um
ĠHel gu
Ġeink ar
ĠfjÃ¶lg aÃ°
H r
M ar
al aus
ĠlÃŃ t
Ġfram lÃ¶g
ĠÃŀor lÃ¡
am aÃ°urinn
Ġheim ila
Ġ201 8
Ġkyn nast
n s
ĠsÃ½ nist
ĠhjÃ³n in
Ġstarf ar
Ġ5 3
ĠhÃ©r lendis
ĠÃ¡ratug i
t eng
Vit niÃ°
Ġspur ningum
Ġkynfer Ã°is
Ġsk Ã¶p
ĠafleiÃ° ingum
Ġn iÃ°
Ġleik manna
n ess
Ġhitt i
Ġrit hÃ¶f
Ġfram kvÃ¦m
Ġo lÃŃ
Ġum sÃ¶gn
Ġst Ã½ri
Ġstarf smaÃ°ur
ĠT yrk
Ġleng st
Ġtrey sta
Ġn ÃŃ
ĠHÃ³l m
Ġfram bjÃ³Ã°
Ver Ã°ur
ĠfjÃ³r ir
s Ã¶lu
ĠÃºrskur Ã°i
ĠSp ort
G rein
Ġv eldur
Ġhl otiÃ°
ĠsÃ© um
Ġstig i
ĠaÃ° drag
ĠSeÃ°labank ans
V arÃ°
Ġsv ig
Ġranns aka
br agÃ°
Ã° un
nar l
ĠhliÃ° sjÃ³n
7 0
Ġtil tÃ¶lu
ĠJ am
al Ã¦k
Ġskrif stof
Ġhel sta
ĠfÃ¦Ã° ingar
ĠviÃ°skipta v
Ġyfir gef
Ġs auÃ°
h Ãºss
ĠÃļ t
h Ã¶nd
Ġal fariÃ°
h a
jÃ³ t
ĠHil mar
V il
sh Ãºs
F rÃ©tt
ĠskoÃ° aÃ°
Ġver ka
Ġn einn
ĠferÃ° ir
E F
j enda
ĠA ir
Ġaf n
Ġm orÃ°
Ġs afna
ĠÃŃbÃº ar
Ġsv ari
T Ã³n
al eiÃ°
Ġstofn unarinnar
ĠÃºtil ok
Ġger Ã°um
Ġham ing
ĠvÃŃ Ã°ar
' s
Ġmann sins
Ġeng um
Ġfor stjÃ³ra
ĠE ll
am p
Ġr os
ĠS ta
Ġstof na
Ġn einu
ĠÃºt gerÃ°
Ġheimild ar
n innar
Ġh inni
ĠÃŀor steinn
ĠsjÃ¡lf an
E vrÃ³p
Ġhef Ã°um
Ġsk ulum
Ġnem enda
lÃ¡ ss
Ġtung umÃ¡l
Ã¶f lum
ĠÃ¾Ã¡tt ur
ĠumrÃ¦ Ã°ur
b ann
vert on
K ann
ĠaÃ°st and
Ã¶t unni
ĠÃ¡framhald andi
ĠvarÃ° v
s agnar
of f
ĠJÃ³h anna
Ġsyng ja
ĠS und
Ġ4 1
ĠGri kk
Ġstarf smann
Ġstr and
A ÃĲ
B re
Ġfrest aÃ°
ĠU ng
Ġn ei
Ġefnahag sl
ĠKana da
Ġst jÃ³ri
ĠÃºt skrif
ĠmÃ¶g ulega
sst ofnun
Ġung men
ut ÃŃma
fr eÃ°
ĠBretl ands
Ġskrif stofu
ĠnÃº mer
b yl
Ġfimm ta
Ġo dd
Ġveg g
em i
Ġkynfer Ã°i
B ir
ĠfriÃ° i
Ġreg l
Ġeinst aka
ĠJÃ³hann esson
Ġop iÃ°
tt ar
bÃºn ir
ĠÃ¡stÃ¦ Ã°ur
ĠÃ¾jÃ³Ã° ir
Ġt rÃ©
Ġleik urinn
starf i
Ġpl Ã¶tu
sn eyti
ĠÃ¾e kki
Ġaf grei
br Ãºn
Ġ aka
Ġr Ã©
sk Ã³li
Ġleik ir
ĠtillÃ¶g um
Ġ198 7
e a
ĠlÃŃ tur
g un
ĠB ald
ĠtiltÃ¶lu lega
ber andi
Ãºg al
ĠÃ¡ tak
lag t
AÃ° spurÃ°ur
fang s
Ã¶ pp
ĠumfjÃ¶l lunar
ĠÃ¾ vert
ĠstuÃ° ningi
est u
l Ã¡n
Ġunn in
ĠÃ¾ v
ĠÃŀ eir
Ġspur Ã°ur
ĠHafnar fjarÃ°ar
Ġsamstarf s
Ġw ww
Nefnd in
ĠL und
ĠB Ã¦
Ġ =
L ag
ĠViÃ° ar
A F
Ġbjar ga
Ãº ra
Ġlok num
ĠlÃ¶greglum enn
Ġger um
Ġstarf andi
Ġskap i
ĠH vÃŃ
Ġsamein ingu
d ist
erk i
Ġ ansi
Ġ6 00
Ġfylg di
Mark miÃ°
Ġm ag
ĠdÃ³m ara
Ġb eggja
ĠSÃ¦ var
am ynd
Ġlok inni
Ġgjald miÃ°
Ġef laust
il iÃ°
ĠkÃŃlÃ³met ra
Ã° ra
Ġ7 3
ĠkÃŃl Ã³
c ast
h eit
Ġm Ã¦ttu
Ġeinstak lega
Ġv Ã©
d reg
Ġraunver ulega
ĠÃºrslit aleik
vÃŃk ingar
Ġkvikmynd a
Ġg u
ĠniÃ°ur staÃ°an
Ġbygg ing
Ġaf sÃ¶k
Ġrenn ur
prÃ³ f
ĠstÃ¶Ã°v a
Ġm eidd
Ġupp g
Eng in
ĠÃ¡ra bil
b ama
HÃ¶f undur
Ã¡byrg Ã°
ĠkjÃ¶ t
Ġhygg st
Ġauk in
ug rein
dd um
R Ã©tt
Ġenn fremur
c ia
Ġst jÃ¶r
ĠSig rÃºn
ĠRÃºss landi
ĠS al
p um
hÃºs um
Ġg ripiÃ°
Ġvarnar aÃ°ili
Ġskil aÃ°i
Ġ7 6
Ġgl eÃ°
ar ins
ur t
ĠÃ¾ing mann
ens ÃŃn
bjÃ¶rn sson
Ġd Ã³
Ġmarg vÃŃ
ĠhÃ¦star Ã©ttar
Ġfram mist
ĠdrÃ¡ttar v
ĠbÃº ist
Ġk allar
ĠHer mann
Ġhlu tum
Ġkv enn
sm ik
l o
ĠjÃ³ k
Ġ6 4
ĠH K
ÃŃ ta
Ġvit niÃ°
Ġv atni
ĠÃ¡r sf
Ġg ÃŃfur
Ġundanfar na
ĠÃºt gerÃ°ar
s inn
ĠaÃ° stÃ¦Ã°um
Ġ13 0
Ġupp fyl
ld i
Ġsn iÃ°
Ġupphaf lega
v eÃ°
re ka
Ġg eyma
Ġs Ã³
hver t
Ġvet rar
H alldÃ³r
Ġgr af
ĠAr on
Ġt Ã¡k
ĠsÃ¶m uleiÃ°is
Ġsamning num
Ġhvet ja
vÃŃ g
h i
Ġreik na
af erÃ°
b Ã¶nd
Ġm aki
Ġ6 3
ĠmikilvÃ¦g i
Ġk ast
Ġranns ak
Ġhaf naÃ°i
H Ã¡
afl okki
B Ã¦Ã°i
ag rein
Ġsk Ã¡k
Ġflutt ur
Ġnet inu
ĠR afn
la t
Ġ25 0
sam lega
ĠhljÃ³ ta
afÃ©lag sins
k nattleik
ig gjandi
Ġendursk oÃ°a
Ã¶m m
Ġv Ã¶ld
ĠÃ³h Ã¡Ã°
ĠpÃ³ st
Ġhl Ã©
ĠhÃ¦f ileik
ĠbiÃ° ja
Ġgeng u
ĠrÃ¡Ã°her rar
sk Ã¡ld
Ġfal lega
sÃ³knar i
fÃ©lag s
v Ã¶x
set ning
Ġsamk eppnis
ĠKaup Ã¾ings
Ġlag Ã°ar
er ÃŃ
Ġv eitir
Ġsek t
r afa
Ġsv art
J A
ĠhÃ¦ li
Ġ12 0
ĠfjÃ¶lskyld unni
ĠKeflavÃŃkur flug
Ġheils ug
Ġe yr
Ġsly sa
ĠAnd ri
Ã¦r t
Ġathygli s
Ġein ang
Ġsk yni
ĠtilbÃº inn
Ġn efni
ĠvÃŃ g
Ġkom um
Ġheims Ã³tt
Ġhv att
I ÃĲ
ĠgÃ¡ tu
k eppnis
Ġsinn t
am s
ad e
ĠfÃ¶stu daginn
mÃ¡l i
fer Ã°um
b olt
ĠstÃ¦r sti
v an
Ġfr Ã³Ã°
ĠÃ³ n
ĠÃŀor steinsson
au ta
Ġaf ur
Ġinn flyt
Ġforeld rum
reiÃ° slu
ar Ã°a
g e
Ġm ak
ĠMo sf
ild ar
ĠÃ¡gÃ¦t lega
Ġof ur
Ġstofn ana
Ġl y
ĠJap an
br o
ĠviÃ° kvÃ¦m
Ġrak iÃ°
Ġfimm tÃ¡n
ĠV erk
menn sku
Ġkl eift
Ġb ik
ĠjÃ³l in
ĠÃ¡f engi
F er
ĠÃį A
ÃŃ ra
Ġ6 8
ĠÃ¦ vi
ĠHÃ¦star Ã©tti
Ġs undur
ulltrÃº a
Ġsla s
bÃº ar
ĠÃ¾ inn
ĠM al
ĠÃįslend ingum
Ġerl enda
dd ar
s jÃ³Ã°
Ġskip uleg
ĠÃŃbÃº Ã°ir
ĠsamfÃ©lag i
ĠÃ¾or sk
stÃ¶Ã°v um
ĠbÃ¦jar ins
ĠBryn jar
ĠsjÃ³ manna
Ġtrygg ingar
ĠaÃ° dÃ¡
ĠÃ¾jÃ³Ã°fÃ©lag inu
inn u
ĠÃ Ŀ
Ġsunnu daginn
Ġm Ã³tt
Ġs il
ĠhÃ¡tt semi
Ãŀ eim
f und
Ġform anns
smÃ¡l a
H Ãºs
Ġsv Ã¦Ã°um
ĠÃ¾Ã½ Ã°ingu
ĠlandsliÃ° inu
Ġbr os
Ġh repp
Ġs yn
ĠSv avar
ars on
ĠÃ¡ skor
Ġtex ta
ĠÃ¡ berandi
H jÃ¡
ĠlandsbyggÃ° inni
ĠL ÃŃ
ĠtÃŃmabil iÃ°
ĠÃŀorlÃ¡ k
Ġvatn s
ĠKaupmanna hÃ¶fn
v inna
ĠFr an
ĠnÃ¡m u
ĠÃ¾r Ã½st
âĢ ĵ
tÃ¶k ur
Ġvin ir
H Ã¦gt
vÃ¶r um
ĠReykjavÃŃkur borgar
Ġk er
Ġau gu
ĠnÃ¡m s
ĠÃĸ r
Ġfylg st
leik ur
ĠhÃ¡ degi
Ġm Ã¶mmu
ĠsÃ¦ t
nd an
yr kja
Ġd anska
ĠleiÃ° rÃ©tt
ĠAt li
ĠÃ³ t
Ġmun n
Ġk yrr
St e
Ġbank anum
ĠviÃ° horf
J Ã¡
Ġundan Ãºrslit
ĠJÃ³na sson
LjÃ³ st
an ak
ĠIcel andair
ov ic
Ġt Ã¶ldu
af er
ĠÃŃslensk ri
ka tt
Ġh eita
ĠfjÃ¡r laga
ley s
st Ã½r
aÃ° num
r in
Ġviss u
Ġdeil a
ĠbrÃ¡Ã°abirg Ã°a
Ġ7 4
ĠverÃ° mÃ¦
leg rar
E N
on y
sk jÃ¶r
t unar
stof unnar
i er
i pp
ĠleiÃ° to
end ing
Ġmann inn
Ġskil ning
g jar
virkj unar
Ġk repp
Ġ anda
Ġflokk urinn
ett ir
at na
sv eitir
ver Ã°ur
ĠhÃ©r aÃ°
ol la
k erfinu
Ġal manna
Ġfr Ã¦n
Ġminn is
ĠfrÃ©ttatilkyn ningu
Ġnafn iÃ°
el a
Ġh Ã³
Ġh rif
Ġ7 8
ild um
er ni
str al
Ġsv on
m eti
ĠnÃ½ tingu
ĠÃ¡ liti
ĠfrjÃ¡l s
ĠvÃŃk ja
ĠH vaÃ°
R ÃŃk
mynd ir
Ġ198 8
jÃ³ ti
av iÃ°
ĠSigf Ãºsson
v eik
rÃ¦ nu
ĠsamgÃ¶ng ur
ast ofnun
Ġgrein inni
H ef
ĠSv iss
Ġvand rÃ¦Ã°um
ĠnÃ¦st um
ĠrÃŃk jum
ver Ã°ar
ĠliÃ° um
Ġkynn tist
ĠaÃ° far
ĠhÃ¶g gum
Ġupp li
Ġsk era
ĠS an
ĠÃ³ ljÃ³
v Ã¶l
Ġev ra
ĠM eÃ°
bÃŃ Ã³
Ġinnan lands
Ġfl y
f alli
ĠstjÃ³rnar flokk
F imm
ĠC ol
bÃº iÃ°
sl y
Ġbjug gu
Ġst opp
ĠL ax
Ġ7 7
ĠLand helgisgÃ¦
Ġsk aut
ĠbÃ³k inni
menn irnir
in t
Ġundan Ã¾Ã¡
Ġt og
Ã© kk
Ġsag a
ĠmÃ¡l aflokk
ĠH val
ĠfjÃ¡r lÃ¶gum
6 5
Ġhaf na
ĠS tur
Ġraunver u
Ġleit ar
ĠÃ¦f ing
Ġb ensÃŃn
ĠÃ¾ skj
ĠfjÃ¶lskyld an
rÃ©tt is
M Ã¡
il ÃŃf
ĠÃ¾jÃ³Ã° inni
l inu
K arl
ĠÃ¾r ey
ĠfjÃ¡r mÃ¡la
ĠH Ã¶r
ĠmÃ¡l efnum
fÃ©lag i
av Ã©l
ĠrÃ©tt ur
Ġtal ar
hÃ¡ skÃ³la
bÃºn aÃ°i
Ġreik naÃ°
Ġdreg ur
Ġs anna
ĠStein ar
ÃŃ Ã°um
Ġj Ã¶f
Ġsak na
Ġhe ill
Ġleik mÃ¶nnum
ĠlÃŃf eyris
Ġskyld a
ĠnÃ¦ tur
ĠlÃŃf sins
ĠÃ³s ann
ar Ã¶Ã°
en sen
ĠtÃŃm anum
ĠSam taka
ug t
Ġbir ti
Ġk Ã¦ru
Ġef a
O R
Ġung linga
ĠfjÃ¶l ga
Ġ198 9
ĠEf tir
ĠÃ¾Ã½ ska
ĠM enn
Fyr sta
Ġsamning sins
ĠfÃ© l
ĠÃ¶r fÃ¡
ÃŃ nar
ey mi
ver Ã°a
Ġsam takanna
Ġl enda
ĠtÃ¶l um
alÃ¡ nas
Ġk u
sk jal
en tu
Ġf urÃ°u
ĠBandarÃŃk ja
eiÃ° ar
Ġhver fa
Ġ5 2
Ġp ar
Ġpr ent
ĠfÃ³r narl
Ã° iÃ°
Ġrek iÃ°
rÃŃ Ã°i
ĠA SÃį
y p
ĠstjÃ³rn endur
Ġdr ykk
in o
ĠE F
Ġeitt hvert
sp eg
ĠmarkmiÃ° i
ĠRo bert
Ãº li
un inni
Ġmet in
ĠhjÃºkrun arfrÃ¦Ã°
ĠB rasil
Hel gi
ĠReykjanes bÃ¦
ĠÃŃslensk ir
ĠstÃŃ ga
Ġsk jÃ³l
Ġt jÃ³ni
Ġstarf sem
ĠtrÃº ar
ĠÃįslands banka
ĠrÃŃk ir
ĠbrÃ³ Ã°ur
Ġundan tek
sk Ã¡l
ĠstjÃ³r na
ĠlÃ¦kk aÃ°i
Ġkeyr a
ĠGr und
Sag Ã°i
Ġor Ã°i
ĠÃĸ n
Ġsamh liÃ°a
Ġg jaf
k all
Ġsk Ã¡
ĠÃ¡kveÃ° na
Fyr st
ĠL ang
ĠstÃ¶Ã° una
Ã¦r Ã°
for m
h uga
n aÃ°urinn
Ġ8 4
H lu
Ġums Ã¦k
ĠÃ¾ Ã¦g
stjÃ³rn in
tug s
Ġkjarn orku
Ġein i
ĠÃ¡Ã¦tl aÃ°
Ġkraf ti
ĠS il
Ġtil skip
ĠfjÃ³r Ã°ung
Ġatkv Ã¦Ã°a
Ġhver ri
ash ington
su pp
ĠaÃ°st oÃ°a
Ã¡tt um
St efÃ¡n
Ġ194 0
ey g
Ġ7 2
Ġflokk s
Ġvon ir
tu s
ĠkjÃ¶r dÃ¦m
Ġfor n
Sum ir
B org
l ingur
ĠÃģ lf
Ġst Ã¦Ã°i
ĠP at
ĠleiÃ° bein
Ġhaming ju
Ġ @
eig endur
ĠH Ãºn
Ġsv efn
ĠAl Ã¾jÃ³Ã°a
rÃº nu
Ġmynd ast
Ġskyld ur
ĠM i
sf or
flut ningur
b y
An naÃ°
ĠSv einn
Ġmissk il
al s
reg lur
vÃŃs un
Ġein asta
ĠL ind
ĠrannsÃ³k na
bÃ¦ num
at ur
ĠaÃ°drag anda
Ġg jÃ¶f
Ġ8 00
ĠB ygg
ĠskÃ³l ann
Ġmynd in
leg s
l Ã¶f
ĠslÃŃk ra
ĠÃ¶Ã° last
ĠliÃ° num
sg rein
jÃºk ra
Ġbir ta
Ġkrabbam ein
ĠliÃ° anna
ĠviÃ°urk enna
ĠlÃŃ nu
b e
Ġopinber um
Ġkos ningum
jÃ¶ ri
Ġb it
atriÃ° um
ĠGunnlaug sson
sl ynd
Ġfar Ã¾ega
ĠEvrÃ³pusamband inu
ĠlÃ¦g ra
Ġfrum kvÃ¦Ã°i
Ã³ na
lau sn
Ġstra um
Ã ¸
Ġbreyt inga
Ġl Ã¦
Ġfram undan
l ingum
ĠR om
ĠÃºtt ekt
rÃ¡Ã° uneytisins
Ġkepp a
bÃºÃ° alÃ¡nas
ĠÃ³lÃ¶g mÃ¦
arf ram
Ġvel linum
Ġhel gar
mer ÃŃku
ĠP h
ĠtÃŃm arit
Ġupp gjÃ¶r
ÃŃ ni
Ġtal i
Ġb Ã¦ti
ĠmiÃ° borg
ĠÃ¡ t
ĠbÃ¦ nda
r en
Ġgrundv Ã¶ll
ĠsÃ¡r t
Ġst efnir
Ġs att
ĠkvÃ¶ld iÃ°
ĠframleiÃ° a
Ġfr elsi
ulltrÃº ar
ti c
Ġhand knattleik
ĠviÃ°urk ennt
Ġ5 9
ĠsÃ½ ningu
ĠnÃ½ skÃ¶p
in k
cast le
ĠF Ã³t
a ch
c her
ĠgreiÃ° slum
Ġv ÃŃn
ĠÃ¦ fa
dÃ³m a
ĠsÃ¦ tiÃ°
ĠBir na
Ġsk ug
Ġeink enn
sl ug
AÃ° eins
la s
Ġspur ningu
am ÃŃn
Ġ ^
ĠslÃŃk ri
k irkju
Ġs jÃ³n
ĠtrÃºn aÃ°ar
Ġst ÃŃl
blaÃ° iÃ°
Ġhrein t
ĠframkvÃ¦md um
Ġvinnumark aÃ°i
ĠL o
sÃ¾ jÃ¡lf
Ġsvip aÃ°
ĠsÃ³lar hring
Ġbl ess
ĠfjÃ¶lskyld ur
ra d
ĠÃ³ vÃ¦nt
Ġ6 9
ning urinn
ĠL eif
Ġgef i
ĠhÃ¦ st
af jÃ¡r
hl Ã©
Ã³ Ã°ar
Ġund ank
ĠskÃ½r ingar
ĠMil an
ĠfÃ³lk sins
ĠV illa
ang i
Ġbr o
Ġnor ska
Ġfrest a
ĠBre ta
ĠMich ael
Ġk ÃŃnver
her ja
ĠÃ³ Ã¡nÃ¦g
ĠtilbÃº in
Ġg eim
Ġv ina
s stjÃ³ri
ĠSuÃ°ur lands
ĠfÃ³ stur
ĠfÃ¦r Ã°
ĠÃ³ sam
Ġalmen ningi
ĠdÃ³m st
hag sm
ĠbrÃ³ Ã°ir
Ġt jald
Ġsp ill
Ġskip iÃ°
sk jÃ¡lf
rÃ¡Ã° uneytiÃ°
Ġfer met
ĠVald imar
ĠE verton
Ġn eina
M un
Ġeinstak ra
ĠEl ÃŃs
ĠÃŀÃ³r s
Ġsk jÃ¡lf
ĠfÃ© llu
lymp ÃŃ
GuÃ° rÃºn
ow n
ne sk
ĠHÃ©raÃ°sdÃ³m s
ĠstjÃ³rnvÃ¶ld um
rÃ³ f
Ġeignar hald
ĠsÃ³tt i
mik iÃ°
Ã³ tak
Ġv inum
ĠsjÃ¡lf a
Ġb ikar
ei tur
fi sk
Mik iÃ°
ĠkveÃ° ja
ĠhÃ³f ust
ĠÃļ kra
Ġhv al
l es
H ar
ĠG re
ĠvÃŃs b
Ã¦r ri
ĠfÃ©lag smÃ¡l
g reina
Ġsk jÃ³ta
Ġs Ã¦r
rÃ¦Ã° slu
ĠlÃ¡ tin
Ġhlut inn
Ġfr Ã¦Ã°i
ĠaugljÃ³ st
O N
af t
out h
Ġla unum
ill inn
Ġhr oss
b s
Ġafh ent
ĠfjÃ¶lskyld a
Ġkarl ar
L eiÃ°
jÃ¡ kvÃ¦m
ĠrÃŃf lega
ĠfrÃ©tta stofu
ĠtÃŃ sku
Ġkv Ã¦n
ar ÃŃk
at il
ĠL Ã¶g
ĠfjÃ¶lmiÃ° lar
Ġb oÃ°a
eÃ°la banka
Ġlag Ã°ur
Ġtek st
eig nar
ĠÃ¦ sku
eistara ti
Ġl eikk
und urinn
Ġhelm ing
ĠpÃŃ an
F jÃ³r
ĠÃºtg jÃ¶ld
ileg ra
Ġk Ã¶lluÃ°
ger Ã°a
ĠleiÃ° i
Ġbrug Ã°ist
b yrÃ°i
ĠsnÃº iÃ°
Kann ski
n ef
ĠgÃ³Ã° ir
ĠlÃ¡n veit
ĠviÃ° fangs
Ġmun ur
ĠAnd re
ĠÃ³sk aÃ°i
K l
r Ã¶Ã°
Ġkirkj unnar
Ã¡l ykt
fir Ã°
ĠgÃ³Ã° s
ĠÃ¾Ã¡ verandi
Ã³ber t
Ġs Ã¦tt
jÃ¡r n
Ġ198 0
ĠSk ip
Ġminn ing
Ġe gg
ĠÃ½m ist
U ng
Ġaf staÃ°a
ĠÃ¡kveÃ° nar
Ġtal sins
sam ningi
Ġ8 6
st fl
ĠDa ily
Ġros alega
Ġsvon efnd
U N
nu Ã°ust
ĠÃ½m sa
ĠnÃ¡gr enni
Ġendur speg
ĠNjarÃ° vÃŃk
ĠÃŀ Ã¡
a tti
T he
k unar
Ġt ann
ĠSt r
ĠT witter
ĠframkvÃ¦md ar
ak erfi
ra st
Ġaf komu
ĠrÃºm um
st uÃ°
Ã¡Ã° s
Ġfull um
Ġl Ã¶ng
Ġtekju skatt
ĠS c
Ġfund um
ĠAng el
vÃ¦ n
ska tti
Ġauk ning
ynd ÃŃs
ĠÃ¾ ak
Ġ6 2
Ġsam rÃ¡Ã°i
ung iÃ°
ĠAustur landi
hv ort
Sam a
ĠM u
Ġfund inn
F rÃº
3 4
Ġor k
reg lum
vald i
Ġs li
Ġmet iÃ°
E ru
ĠF I
Ġsvok Ã¶llu
Ã¾ Ã¦tt
leiÃ° is
ta s
ĠA d
G er
ĠfjÃ¡rmÃ¡l arÃ¡Ã°
Ã¶rÃ° un
Ã¾rÃ³ tt
ĠÃ³l st
Ġal Ã¾
ĠsÃ½ nd
rÃ¦ tt
vel linum
ĠbÃº i
Ġs aum
ver Ã°um
Ġeld sneyti
Ġg Ã¦tt
ĠP aul
Ġsk erÃ°
liÃ° ar
un andi
ĠSig lu
ĠB ay
ĠnÃ½ju stu
ĠL Ãº
ĠÃ¾ eg
ĠH ol
Ġtil greind
Ġsameigin lega
ĠstuÃ°ning smenn
haf ar
Ġsam tÃŃm
ĠHeiÃ° ar
Ġaf skaplega
ĠÃºt flutning
ĠafsÃ¶k unar
ĠumrÃ¦ Ã°um
ĠG rÃ©tar
ĠrÃŃkis borg
ĠB ÃŃ
p an
3 6
ĠsÃ¶g unnar
ĠmÃŃ nar
Ġh it
ĠBu sh
ĠK al
ĠLandspÃŃtal ans
G ert
leiÃ° a
ĠkveÃ° a
aÃ° gerÃ°ir
ĠsveitarfÃ©lÃ¶g in
Ġb ana
Ġutan r
Ã© t
ĠframkvÃ¦m a
ĠjÃ³k st
ĠTim es
ĠBr agi
f yrir
Ġt ru
ĠÃĵlaf sdÃ³ttir
H eild
ĠmeÃ° li
ĠÃŃbÃº Ã°a
Ã¡t ÃŃÃ°ar
ĠveiÃ° ar
Ġfyrir spurn
Ġm undu
sÃ¡ Ã¦tl
ĠBir gi
ĠÃ¶l v
rÃ©tt indi
ĠF oss
Ġ â
ĠbÃŃ lum
Ġv onum
Ġrei sa
st efnd
ĠmÃ³tmÃ¦l t
st oÃ°
Ġaf tan
ĠniÃ° ri
Ġtel st
ĠSk ot
Ġsk Ã³g
ĠBar na
B andar
ĠviÃ° sk
af jÃ¶l
ĠsÃŃÃ°astliÃ° num
Ġbur t
Ġsn Ã½r
Ġskot iÃ°
Ġbank ar
sh Ã¶f
ĠfjÃ¶lskyld um
ĠdÃ½ p
ĠfÃ¡ st
Ġs of
B l
ĠmÃ¡lskost naÃ°ar
ĠÃ¡Ã¦tl anir
Ġn efnir
Ġkom nar
Ġpab ba
Ġkos ninga
Ã¦r iÃ°
Ġval inn
ĠverÃ° iÃ°
Ãĸ nnur
ar is
al au
ĠLau ga
ĠÃ¡ tÃ¶k
b an
m eÃ°ferÃ°
Ġhelm ingur
ĠÃ¡hug i
Ãģ stÃ¦Ã°an
ĠheilbrigÃ°i sk
Ġd vel
Ġs ein
For seti
ĠH en
tan ir
Ġforgang s
Ã³l um
ĠÃ¾jÃ³ nusta
sk Ã³
ld ar
ab et
ĠblaÃ° iÃ°
p r
t ans
jÃº ka
x el
ĠNorÃ°ur lÃ¶nd
Ġatvinnul eysi
Ġbe inni
Ã¦ Ã°u
ÃŃm i
re d
Ġ5 1
ĠstjÃ³rnarfor maÃ°ur
ĠbÃ¡ Ã°ar
v og
Ver Ã°i
b eiÃ°
Ġkl Ã¦
ĠkrÃ³ nu
ag r
ĠM ari
VarÃ° andi
Ġs on
Ġteg und
ĠviÃ°skip tar
sv if
ĠÃ¡ratug um
Ġg jÃ¶ld
ĠbÃ³k menn
Ġums Ã³kn
ĠÃį bÃºÃ°alÃ¡nas
Ġop naÃ°
Ġrey nir
ĠSt Ã¶Ã°
Ġbil inu
ĠGuÃ° ni
ĠEl ÃŃn
Ãŀ jÃ³Ã°
Ġkynn ti
bol ti
Fram kvÃ¦md
Ġv Ã¶xtum
Ġopinber lega
Ġend anum
Ġsner tir
sp ek
an legur
l eit
skrÃ¡ r
ĠnÃ½ veriÃ°
Ġh ress
Ġlok in
IR K
or u
l unum
s j
ĠslÃ¦m t
ĠFr ank
3 8
Ġmynd ina
ĠÃ³h jÃ¡kvÃ¦m
ning arf
Ġeigin konu
veiÃ° i
af Ã©lÃ¶g
ferÃ° ir
Ġf ynd
Ġg Ã¡fu
ĠfjÃ¶lg un
geng ni
h jÃ³
Ġum deild
mynd in
ĠsÃ©rst Ã¶kum
Ã ¤
ĠmarkaÃ° ss
ĠH Ã¶f
rei f
ss i
Ġd au
an legar
L L
r inu
Ġeinst Ã¶k
Ġfram sÃ³knar
ĠstÃ³r iÃ°
ĠÃ¾ itt
ĠfjÃ¡rfest ing
Ã³l mi
Ġeftir spurn
Ġg os
rÃ¡Ã° her
ĠB ru
Ġbygg Ã°a
Ġg olf
ĠO bama
g in
ĠnÃ½ tur
ĠDan ÃŃel
ĠGarÃ°a bÃ¦
rÃº nar
ex ÃŃk
ĠPalest ÃŃnum
ĠsÃ©rfrÃ¦Ã° inga
t v
PÃ¡l l
Ġd jÃºp
ĠSt ef
ĠÃģ stral
Ġtap aÃ°
ĠI I
ĠSm Ã¡ri
5 5
ar ph
ĠverÃ° brÃ©f
ĠE ur
Ġhin ar
Ġeinstakl ingum
ĠF isk
bÃº Ã°ir
ĠEF TA
St Ã³r
Ġminn ir
rÃ¦ Ã°u
ĠhÃ¶f Ã°um
h Ã¡l
Ġn k
arph Ã©Ã°
sk ri
w ood
ĠW ashington
ĠJÃ³ ni
ĠfÃ¦ tur
ĠhÃ³p inn
ĠlandsliÃ° sins
yst k
Ġkall aÃ°i
sm eÃ°ferÃ°
ĠGlit nis
Ġlif andi
Ġsvok allaÃ°
ĠArn Ã³r
Ġstund u
Ġk erfiÃ°
Ġneit aÃ°
Ġtal smaÃ°ur
Ġn u
Ġ8 7
nu Ã°um
Ġheim inn
Ġkon ung
ĠT om
rÃ¡Ã° uneytinu
ĠrannsÃ³k num
Ġframhaldssk Ã³la
str Ã¶nd
Ġh ÃºÃ°
tÃ¦k ni
ĠmiÃ° n
ĠT a
Ġend anlega
ĠhÃ¡tt ar
Ġvei tti
ĠÃ³ viÃ°
on es
ĠH o
ĠmÃº sl
Ġg ir
stÃ¶Ã° ina
ĠsamfÃ©lag iÃ°
Ġfor mann
Ã¶t una
slÃ¶g reglu
ĠÃ¡st andi
heimild ir
t Ã³
l ingu
ĠT il
Ġskipulag s
ĠmÃ³t iÃ°
Ġs j
Ġl ek
ĠgrÃ¦n na
ĠsÃ¶g Ã°
ĠAtl ant
afÃ©lag iÃ°
fÃ©lag a
ĠeÃ°l ilega
Ġaf sl
Ġf Ã¡tt
ĠstjÃ³rnarand stÃ¶Ã°
ĠfÃ¦ ddur
Ġung ur
Ġinn flutning
ĠK Ã¡ri
ĠÃ¶ nd
Ġbrey tast
verÃ° iÃ°
Ġs eÃ°labank
ĠÃŀor steins
Ġtilfel li
ĠÃ¡rsf jÃ³rÃ°ung
Ġkynsl Ã³Ã°
eys is
i on
bÃºn aÃ°ur
Ġskip tiÃ°
Ġfund ust
4 4
ileg an
ĠS w
Ã³k num
Ġvor iÃ°
Ġalmen ningur
g rip
Ġbarna bÃ¶rn
ĠsjÃºk linga
im p
Ġatvik um
ĠÃ¡grein ingur
br Ãº
ĠbÃŃl inn
Ġmill jarÃ°
ĠÃ½m sir
Ġskemm ti
ĠÃĵ li
M at
Ġgest ir
Fl estir
Ġs u
bÃº Ã°um
Ġfang elsis
vÃ¶ll ur
j inn
b ra
rei sn
ĠhÃ¶f Ã°i
nefnd a
ĠReykjavÃŃkur borg
ĠÃ¡stÃ¦Ã° an
r ans
set ningar
ĠL ilja
F lug
brÃ¶g Ã°um
ĠJÃ³h anns
ĠmeÃ° vit
Ġeinst Ã¶kum
virk i
Lok s
ĠÃ¾y kja
ĠsÃ½ ningunni
ĠSuÃ°ur landi
ĠA ra
fer Ã°a
aÃ°il um
Ġskap ast
Ġo n
ĠrÃŃkiss jÃ³Ã°
ĠB ri
ĠviÃ° sta
afÃ³lk s
se ta
ĠV G
Ġfly tur
ĠLands banka
Ġhugmynd um
kyn hneig
Ġel la
Ġgam li
Ġknatt spyr
d er
Ġald raÃ°
ĠAl Ã¾jÃ³Ã°
J o
Ġli fir
H onum
3 7
ar di
z a
ĠtÃŃÃ° ina
en nd
sl eiÃ°
ĠleiÃ° arl
Ġfjar ri
ĠHau kur
Ġley st
Ãŀess u
B Ã³k
b ik
Ġg Ã¶tu
Ġheim sins
ĠÃ³viss u
Ġf inni
L ist
ĠJam es
ĠBlÃ¶nd al
ĠlÃ¡n sf
ind ast
veiÃ° ar
Ġsp Ã¡Ã°
au gar
O kkur
ĠBald vin
er kja
Ġfat laÃ°
ĠtÃŃmab undiÃ°
K aup
g ert
ĠlÃ¡ num
Ġald rinum
ĠGyl fi
Ġsk Ã¡l
ĠÃŀ ar
ak ist
Ġhef ir
ĠHoll andi
A m
ofn anir
stjÃ³r ans
Ã³n ÃŃu
ĠL ÃŃf
Ġsyng ur
ĠÃĵ mar
ĠrÃ¡Ã° inn
ĠÃºtg ef
ĠG rÃ³
Ġv extir
Ġp ari
Ġeit ur
Ġgeg na
Ġver nda
Ġheyr Ã°i
ĠKÃ³pavog s
St aÃ°an
ĠSam keppnis
AT O
ĠH ans
ĠL ist
Ġt Ã½
sl egar
Ġheim amenn
Ġher menn
ust an
S ÃŃÃ°ar
ĠkÃ¦r Ã°i
Ã³g inn
Ġhluta brÃ©fa
K at
ĠhÃ¶fÃ° aÃ°
bÃ¦ ra
ĠrÃ¡Ã° uneytisins
sl aus
liÃ° inu
Ġvik na
ĠniÃ°ur stÃ¶Ã°um
ĠR auÃ°a
ĠstÃ¶ kk
ĠbÃ¶rn unum
Ġlok sins
9 5
Ġdag lega
ĠlÃ¡ gu
ĠsÃ©r lega
jÃ³l fur
Ġheims Ã¦kja
sam bands
Ġgrunn skÃ³l
Ġn ef
sk er
Ġsam ÃºÃ°
Ġflu ttu
Ġsam gÃ¶ngu
Ġtak mÃ¶rk
lÃ¦k nir
Ġerlend ir
For s
vÃŃ st
Ġs af
Ġfars Ã¦
Ġalls herjar
Ġs alt
.. ..
k ort
ĠHr ing
exÃŃk Ã³
st aÃ°ar
Ġhag a
ĠfjÃ¡rmÃ¶gn un
Ġmeiri hluti
Ġ ur
Ġlit lum
eng d
h yggju
ĠNew castle
haf nar
vÃ¶r ur
ĠboÃ° aÃ°
Ġjaf ng
ill e
Ġstol iÃ°
ĠSig mund
ĠÃ¾jÃ³Ã° ina
ĠrÃ¡ Ã°i
ĠsveitarfÃ©lag anna
Ġgl er
o x
ĠmÃ¦ tast
P Ã©tur
Ã³kn un
Ġv Ã¶x
ĠÃ¾ jÃ¡
ĠÃģ sm
rÃŃ Ã°ar
Ġfull v
Ġb jÃ³r
leiÃ° slu
ĠÃ³Ã¾ Ã¦g
gild andi
Ġnein ar
Ġk irk
Ã¶ skuld
ĠEin ars
ĠÃ½m issa
ĠB Ãºn
Ġskil orÃ°
ĠH orn
eig enda
Ġb isku
sh lut
Ġrey ni
Ġtrygg Ã°i
ĠhÃºs a
ald ar
Ġfar nir
ĠhÃ¦ fi
Ġk vart
Ġalvar leg
al ÃŃf
ĠM Ã¡
Ġslys iÃ°
ĠforstÃ¶Ã°um aÃ°ur
ĠÃ¡r slok
ĠK e
ĠEg ils
ĠPort Ãºgal
Ġumfang smik
jar a
Ġauk na
ĠÃºr rÃ¦Ã°i
Ġvenju lega
ĠhÃ©raÃ°sdÃ³m s
H lut
Ġles iÃ°
Ġeig enda
stÃ¶Ã°var innar
ei fl
ĠrÃŃkisstjÃ³rn inni
Ġvir ka
ger Ã°i
Ġskuldbind ingar
Ġhv arf
P R
f rÃ©tt
p ress
r andi
ark it
tek jur
E y
Ġland sleik
ĠmiÃ° ju
ĠAf ganist
f f
Ġl as
ĠBandarÃŃkj amenn
ĠA s
ĠfÃŃkni efn
Ġdeil t
Ġbl s
Ġsam ÃºÃ°ar
ak stur
Ġfeng ist
ĠÃ¾ ÃŃnum
Ġhlaup a
S e
and ans
ok e
Ã¡ Ã°i
ĠP Ã³ll
F yl
ĠsÃ¡tt ur
reiÃ° ar
Ġnem i
Ġ ands
Ġs Ã¶nnunar
ĠjÃ¶rÃ° inni
Ġfar Ã¾eg
ĠT el
ĠSteingrÃŃm ur
al andi
ver a
Ġhlut ina
ĠlÃ¶g frÃ¦Ã°
Ġp ott
ĠS jÃ³
dr Ã¡tt
bÃŃ la
Ġflokk ur
ĠblaÃ° sins
Ġl Ã¶ngum
ĠÃ¾ings Ã¡lykt
ager Ã°ar
Ġjafn vÃ¦gi
ĠfjÃ¡r lÃ¶g
ĠÃ¡rs reik
Ġful la
ĠfjÃ¡rmÃ¡l afyrirtÃ¦k
ĠMosf ells
JÃ³h anna
ar y
Ġkv Ã³ta
ĠSp Ã¡n
Ġvit na
ĠstoÃ° s
Ġn Ã¶fn
b ifreiÃ°
LÃ¶greg la
rÃ¦ num
ĠÃ³ heimil
Ã¡l f
Ġb Ã¦ri
t ein
Ġp ist
h en
Ġver uleika
starf semi
ĠS A
Ġalvar legt
Ġf est
ĠRÃºss lands
ÃŃs a
k aÃ°
Ġsag Ã°ur
v ind
ĠeÃ°li s
ĠSk arphÃ©Ã°
Ġs Ã¦m
hlut fall
M an
kveÃ° jur
EvrÃ³p u
ĠorÃ° alag
ĠbifreiÃ° inni
ĠÃ¾jÃ³ Ã°a
b Ã¦k
sam ninga
st er
ĠSt jarnan
arÃ¡Ã° s
Ġfer m
versl un
ĠsÃ½ ning
ĠtÃ³nleik um
ĠÃ¾rÃ³ ast
ĠferÃ° alag
ĠKristjÃ¡n sdÃ³ttir
Ġgif t
ĠsÃ¶g unni
ÃŃm u
ĠN ATO
Ġtilraun ir
Ġv afa
ĠÃºt veg
Ġskemmt ilega
tek iÃ°
ĠâĢ ¦
Ã¾jÃ³nust unnar
Sig rÃŃÃ°ur
ĠG ull
bÃºn aÃ°ar
Ãļt fÃ¶r
Ã¡ rÃ¡s
ĠrÃ¡Ã° gjÃ¶f
stjÃ³r ar
Ã¶r g
Ã°ar i
frÃ¦ Ã°ist
Ġhring t
Ġyfir maÃ°ur
ĠNoreg s
Ġsvokall aÃ°a
ĠR i
Ġ7 9
ĠsÃ½ ndu
Ġslepp a
ĠÃ¾ rett
tal iÃ°
ĠB elg
ĠpÃ³lit ÃŃk
ĠsjÃ¡ i
ĠÃ³lÃŃk legt
kk ul
ĠÃ¡f all
tion al
Ġvan taÃ°i
unn iÃ°
Ġ198 6
n unar
Ġframhald inu
Ã³m a
gj afi
hel gi
Ġlok nu
Ġborg arf
Ġskor uÃ°u
ĠÃĸn nu
ĠfÃ¡ ir
r aÃ°a
ĠR ang
ĠS eÃ°labanka
Ġ9 9
ĠbÃ³k a
Ġtilvik i
E ld
Ġsvig rÃºm
ĠAl bert
eistar amÃ³t
Ġupp runa
ĠMart in
Ġskilyr Ã°um
ss a
ĠR onald
ĠhÃ¶f undar
G ÃŃ
ĠÃºtg Ã¡
ĠÃ¾jÃ¡lf un
ĠbrjÃ³ st
ikt or
Ġfor dÃ¦m
Ġneik vÃ¦Ã°
ĠL Ã¦k
ĠÃ¡h Ã¦tt
ĠbÃº skap
in f
Ġhug ann
Ġneit aÃ°i
Ġsy kur
ĠorÃ° nir
KÃ³re u
SÃ©r stak
Ġbygg i
ĠNorÃ°ur landi
Ġatvinn ugrein
Ġeig num
ĠnÃ¡Ã° st
ch en
4 8
ĠÃ¾riÃ° jung
Ġs jÃº
Ġauk inni
ĠÃ¦ tÃŃÃ°
ĠaldraÃ° ra
ĠÃ¾ing mÃ¶nnum
ĠLund Ãº
Ã³ Ã°i
Ġp app
Ġr eist
Ġbur tu
stig i
ĠlandsliÃ° iÃ°
An na
ĠN Ã¡tt
sl na
Ġp lÃ¡ss
ĠfÃ¦ st
Ġau ga
Ġsig urinn
Ġsk ildi
Leik urinn
ĠSjÃ¡lf stfl
ĠBla ck
geir sson
em Ã³k
rÃŃ r
Ġsv eita
V in
ĠbÃ¦ inn
ar arnir
ĠupplÃ½s a
Ġkann ske
Ġtek na
ĠdÃ³m ur
ĠundirbÃº ningi
S m
sh eiÃ°i
Ġsk jÃ³
lÃŃ Ã°ar
g ent
Ġkall aÃ°ur
ĠAlex ander
u d
Ġ197 4
Ġst aÃ°i
st on
stÃ¶Ã° in
Ġsk ÃŃr
ĠB aug
ĠhÃ³p a
Ġmann inum
ĠG l
ĠhljÃ³ ti
Ġgild ist
ĠGunnar s
ĠâĢ ¢
ĠbarÃ¡tt unni
Ġst er
ĠK en
Ste ingrÃŃm
Ã³k nast
ĠskaÃ°ab Ã³t
sm aÃ°urinn
as Ã½
Ġ198 5
Ġneyt enda
L A
ĠsjÃ¶ tta
ĠsnÃº ast
jÃ¶r gu
Ġfimmtu daginn
reg l
Ġh art
St undum
ĠSt okk
ĠAnd rÃ©
Ġ9 8
Ġframl eidd
i x
f ull
ĠGuÃ°mund ar
Ġb inda
F rÃ©tta
AÃ° rir
k Ã³r
im skip
ag o
Ġsk elf
sl aust
ĠtÃ¦k n
Ġt eldi
ĠVal s
jÃ³ na
T ek
ĠmannrÃ©tt ind
ĠstarfsfÃ³lk i
lÃŃ nu
ĠtÃ¡k n
Ġs Ã¶l
s Ã¡tt
ĠÃ³ per
ĠSnor ra
Ġ11 0
lu stu
k rÃ³
ins dÃ³ttir
eg g
Nor Ã°ur
ĠJ Ãº
h Ã¦kkun
Ġef ri
Ġloft slag
ĠÃºrskur Ã°ur
im a
ĠR Ã³
Ġmis not
ĠLand ssam
Ġb Ã³ginn
skÃ³l inn
ĠÃ¾Ã¡tt um
Ġk vÃŃ
Ġaf skrif
Ġskip uÃ°
Ġinni hald
Ġleg gi
ofn ana
Ġfl jÃº
ĠMatth ÃŃas
Ġ is
Ġteng ja
ĠfulltrÃº um
ĠÃ¾rjÃ¡ tÃŃu
ĠÃ¡ rek
Ġtilfinn ing
Ġinnheim tu
ĠannaÃ° hvort
Ġb ind
ĠÃŃslensk ar
A ld
Krist ÃŃn
v et
ĠskoÃ° anak
Ġfullkom lega
ĠFr jÃ¡l
bÃ³t um
ĠsÃ¦ tta
Ġfr anska
Ã³ ng
Ġk n
Ġtap a
st ofnunar
ĠfyrirtÃ¦k in
ĠatriÃ° um
Ġkarl menn
ĠlÃ¦k nir
ĠbÃŃl ar
Ġtil nefnd
Ġev r
Ġflest ar
at e
All ar
ĠSt raum
B ygg
Ġsamning inn
sag nir
HÃ©r aÃ°sdÃ³m
ĠstjÃ³rnmÃ¡l amenn
heimil inu
n er
ĠG o
M eiri
Ġheg Ã°un
Ġtak t
Ġk t
ĠÃ¦tl unin
Ġst ill
Ein hver
ĠfÃ¦kk aÃ°
Ġkyn s
N ei
ĠgrÃ¦n meti
ĠstaÃ°fest a
Ġ7 00
Ġsam kv
ef l
eng ja
ĠSuÃ°urnes ja
rÃ¦ nt
Ġjafn rÃ©ttis
an Ã³tt
af lug
ĠmÃ¡nu daginn
Ġfor yst
V el
Ġk ennt
ĠkÃ¶rf u
Ġfullyr Ã°a
br ag
Ġn umiÃ°
Sk Ã½r
Ġj epp
ljÃ³ t
ĠK on
Ġvef sÃŃÃ°u
Ġ8 3
Ġsameigin legt
ĠÃ³eÃ°l ilegt
ĠfullnÃ¦g jandi
ĠÃŃ tal
Ġ arf
an legum
K R
Rey kv
Ġv Ã¶
ĠblaÃ° inu
Ġ7 1
ld um
ĠafgreiÃ° a
Ġathug un
Ġtr om
Ġofb eldis
ĠviÃ° eigandi
ĠB l
ĠlÃ¦k nar
ĠW illi
Ġgreidd i
ĠsjÃ¡varÃºtveg i
ĠÃĵ lympÃŃ
ĠsamfÃ©lag sins
ÃŃs il
ĠstÃºl kur
yl f
ĠÃŀ essi
N A
Ġher bergi
Ãį S
ĠstjÃ³rnmÃ¡l um
ĠH Ã³tel
j iÃ°
af li
Ġathugasem dum
ĠmÃ¡l efn
sv ik
lÃ½s ingu
Mynd in
ĠsÃ©rfrÃ¦Ã° ingar
ĠhÃ³p urinn
Ġrefs ingar
ager Ã°i
ĠÃ¾akk lÃ¡t
Ġbr ag
Ġuppfyl la
Ġef ast
a ti
ven tus
Ġt ef
Ġb endi
Ġskip aÃ°
ĠaÃ°geng i
ĠvÃ¦n ta
ĠR ich
sli tak
O ft
ĠÃ¡nÃ¦g Ã°
k unum
Ġtilkyn na
ĠhÃ©r aÃ°i
ĠerfiÃ° leikum
Ġkepp ninni
Ġum svif
Ġr amma
Ġr okk
ĠÃ¡horf endur
Ġmyn t
ĠhryÃ°ju verka
ss ins
Ġhandtek nir
tak iÃ°
Ġeinf alt
eyp is
ĠB al
lÃ½s ing
4 6
ĠÃ¾ ÃŃna
Ġk var
Ġmen ningu
ru kk
Ġminni st
D a
Ġgr unni
Ġb eit
Ġhag rÃ¦Ã°
ĠnÃ½ s
hÃ¦ ft
g ildi
Ġop nuÃ°
kjÃ¶r dÃ¦mi
ĠÃ¾ Ã¡l
SÃ³knar aÃ°ili
ĠÃ¾r Ã¶ng
vo gi
V ÃŃk
krÃ¶f u
ĠsÃ¡ u
bÃº Ã°ar
ĠmÃ¦ld ist
Ġtil ra
ĠÃ¾jÃ¡lf ara
as a
ning unum
Ġnokkur s
Ã¶gu legt
Ġp rÃ½
Ġhagsm unum
ĠharÃ° lega
ang t
Ġ6 1
ĠrÃ©tt u
ĠrÃºm ar
Ġdag ur
Ġr ug
ĠrÃ¡Ã°stÃ¶f un
ĠjÃ¡kv Ã¦tt
Ġreyn sla
Ġfyrir spur
Ġsta ddur
Ġh aus
ĠEin arsdÃ³ttir
fÃ©lag inu
Ġstarf sl
Ġmarg f
sk yni
Ġeinken ni
n Ã¦m
vald sins
Ġst Ã½ra
ist rygg
ĠV eÃ°ur
F yrirtÃ¦kiÃ°
Ġg ag
00 00
f rÃŃÃ°ur
Ġn orÃ°
b re
Ġm eint
Ġfer Ã°um
vÃŃ su
Ãįslen ska
ĠÃ¡ li
Ġsv ik
ĠM ann
Ġb Ã¦r
sl Ã³
Ġbarn anna
Ġnem endum
NiÃ°ur staÃ°a
Ġhugs un
sn esi
ĠtÃŃmab und
Ġfyrra dag
IN N
rÃ¡ Ã°a
ĠtÃ¦p um
b akka
jar na
br ota
uÃ°v estur
ss Ã½
sveit ar
tu Ã°u
eyt iÃ°
ĠbÃ¦jar stjÃ³ri
o Ã°um
ĠSv an
Ġd ul
Ġber ast
Ġlit lar
ĠA xel
ĠÃļkra ÃŃnu
sl ys
Ġp ress
ĠmeiÃ° sla
ĠlÃ© tust
ĠLands virkjun
ĠBir gir
ĠmikilvÃ¦g ur
ĠRagnar sson
ĠÃŃtar lega
Ġfal legt
Ġg Ã³lf
ĠEm il
Ġ8 9
Ġsn yr
ĠlÃ¶g maÃ°ur
n Ã¡mi
Ġm eina
Ã¶m b
ĠbrÃ½ nt
Ġverk inu
ĠrÃŃkiss jÃ³Ã°ur
l yf
ch e
H eil
hrepp i
Ġ8 2
on ey
Ġsterk ari
Ġ9 7
ÃŃ skur
ĠJ a
Ġupp reisnar
Ġbandar ÃŃsku
3 2
ĠC r
sv elli
il lu
ĠblaÃ° amaÃ°ur
h ef
ĠÃ¾r ota
ĠtjÃ¡ Ã°
ĠvÃŃta spyrnu
af fi
ĠtrÃº a
emÃ³k ra
ĠhÃ© t
Ġtek nir
ir r
Ġung t
Ã¶rygg i
Ġsam bÃ½li
ĠFrakk lands
eyriss jÃ³Ã°
F riÃ°
Ġand stÃ¶Ã°u
Ġsam kynhneig
ÃŃ um
Ġt Ã¶p
Ã¾Ã³r sson
ĠstjÃ³rnarskrÃ¡r innar
S l
eÃ° li
Ġreglu gerÃ°ar
ĠvÃ©l ar
ĠdagskrÃ¡ r
Ġdag ar
Ġathugasem d
gang a
ĠÃ¦tt um
ĠM el
ĠÃŀÃ³r hall
Ġg ul
ĠGr afar
ĠRagn heiÃ°ur
ĠrÃ©tt um
Ġkaup um
U ndan
Ġfjall aÃ°i
Ġat bur
ĠC ap
Ã ¥
s ÃŃÃ°
Ġfeng ju
Ġs ala
Ġbarna verndar
ĠÃ¾urf tu
ĠmÃ¡l sÃ¡
Ġmynd listar
ĠlÃ¦k nis
Varnar aÃ°ili
Ġg Ã¦Ã°i
Ġb Ã³t
ĠlÃ¶g manns
ĠbÃ³ ndi
ul Ã¶g
Ġein lÃ¦g
E nda
ĠÃŀ Ã³ra
ĠM Ã½r
Ġfyrir liÃ°i
Ġframmist Ã¶Ã°u
Ġvak t
Ġbyr jar
Ġhlu tur
ĠfjÃ¡rm uni
uÃ°u st
vÃ¶r p
h run
Ġley ft
k er
Ġhlut afÃ©lag
V on
Ġheimil anna
ĠstaÃ° sett
bl aÃ°i
Ġpen ingum
il inu
ĠsamÃºÃ°ar kveÃ°jur
ĠVig dÃŃs
ĠlandsliÃ° sÃ¾jÃ¡lf
Ġviss um
Ġstarf shÃ³p
SÃŃ Ã°ustu
brig Ã°um
Ġklukkust und
v Ã¶llum
ĠGuÃ° nÃ½
ĠbÃ¦ti st
jÃ³nar miÃ°
tur eld
sh reyf
k is
bor iÃ°
Ġheit iÃ°
s rÃŃk
ĠTh om
Ã¶f num
ĠsjÃ³ num
h Ã¶ld
ĠHÃºsa vÃŃk
Ġr auÃ°
Ġyfirgef a
m t
jÃ¶r Ã°ur
ĠMagnÃºs dÃ³ttir
Ġgaf st
ĠAf rÃŃku
ĠAt la
ĠB irk
Ġ9 6
ĠbrotaÃ¾ oli
ĠsjÃ¶ unda
Ãŀ rÃŃr
Ġgl ÃŃma
ykki sh
Ġv Ã¶k
hÃ¦kk anir
ĠÃ¾jÃ³ f
v ott
an Ã¡m
ey pa
Ġmill jar
t d
Ġk Ã¶flum
ĠgÃ¦sluvarÃ° hald
Ġholl en
B en
FÃ©lag iÃ°
ĠHÃ¶r pu
L ands
ĠaÃ° komu
ĠP ÃŃra
ss v
R Ãºss
Ġmet naÃ°
Ġsam tÃ¶kin
var nir
Hv ort
Ã³ tta
ĠgÃŃ tar
F rumvarp
ĠKrist insson
ĠS auÃ°
ĠlÃŃk indum
Ġteg undir
ĠaugljÃ³ slega
st af
ĠmÃ³t mÃ¦li
hl jÃ³Ã°
n andi
ĠF rey
ĠBorgar nesi
Ġbra uÃ°
ĠH jar
Ġsk aÃ°a
ĠLandspÃŃtal a
merk ur
ĠS o
Ġsam i
ĠfjÃ¶l breyt
ĠÃĸ l
ĠnÃ½r rar
SteingrÃŃm ur
ĠL ei
ĠsÃ½k nu
jÃ³ Ã°urinn
st rÃ¦ti
Ġein dreg
ĠKeflavÃŃkurflug velli
ĠsveitarfÃ©lÃ¶g um
ĠO p
or p
Ġh et
Ã¡ Ã°u
rÃ¦ tÃ³
tug ur
Ġg alla
ĠÃ¾Ã¦tt ir
k irkj
jan legt
ĠK v
Ġhring di
var na
Ġd Ã¶nsku
O f
ĠÃĸ ssur
ar eg
Ã¡ nar
ast ofnunar
ĠÃºtvarp s
ĠfÃ¶ t
ot kun
ĠÃ¡kÃ¦r Ã°ur
t Ã¶lum
H itt
Ã¦Ã°i sins
Ġs r
Ġpass a
il sins
ĠprÃ³sen ta
Ġ198 4
skyld a
ĠsÃŃ Ã°a
ol ÃŃu
Ãŀess ir
vÃ¶r Ã°ur
ĠÃģstral ÃŃu
Ġf la
ĠyfirlÃ½s ingar
Ġgest um
Ġrek inn
ju Ã°u
ĠSm Ã¡ra
ĠaÃ° skil
ĠG al
Ġmiss ir
ĠÃģr mann
Ġk Ã³k
aÃ° ra
ĠÃŀÃ½skal ands
ĠfÃ³lk inu
Ã°a ustan
Ġley ni
Ġel ska
rÃ©tt ur
Ġgrein um
ĠÃ³ tal
Ġstefn enda
Ġhe art
Ġaug na
Ġlist amenn
ast jÃ³rnar
Ġlang aÃ°i
ĠprÃ³ fa
Ġbl Ã¶Ã°
rÃº Ã°
jÃ¶ t
LiÃ° iÃ°
ĠHar aldur
Ġfund ur
her bergi
Ġv Ã¦rum
Ġmynd ar
ĠVeg agerÃ°
s Ã¶m
bygg ingu
B er
ĠÃ¡f anga
Ġskil ar
bl Ã¡
K Ã¦r
ĠnÃ¡ Ã°ist
ĠQ u
ĠvÃŃ ti
Fyr stu
vi ti
Ġbl anda
Fyr r
Ġsjald an
ĠÃŃbÃº um
ĠJ an
Ġk un
al eigu
Ġalmann atrygg
ĠÃºt b
Ã¡Ã° um
Ġstofn unin
ĠbÃºs etu
Ġsag Ã°ir
Ġerf Ã°a
3 9
ĠE ld
ĠSÃ½r landi
4 7
ĠsjÃ¡lf ri
ĠMo ur
ĠfjÃ¡rlag afrumvarp
Ġung u
Ġdeil i
Ġvirk jun
Ġslepp t
Ã¡ tur
Ġken nari
ĠpersÃ³nu lega
ĠH auka
es en
sst ofnunar
ĠverÃ°trygg ingu
Ã³ d
Ġtrey sti
lu Ã°
ĠbÃŃ llinn
snefnd ar
Sk il
m eiri
Ġstund aÃ°i
Ġfor skot
Ġgrun aÃ°ur
ĠÃ³k eypis
in m
lynd i
hor n
ast jÃ³r
Ġ arkit
ĠfrÃ¡ sÃ¶gn
Ġveik indi
ic e
Ġf Ã¶g
ĠsÃ¦n ska
ĠÃ¾Ã½ sku
u el
ĠskÃ³l um
E Ã°a
l ok
S veit
sh Ã¶fn
ÃŃ ski
ĠverÃ° launa
Ġsk ort
C h
ĠmjÃ³l k
ĠGuÃ° s
Ġvirk j
greiÃ° slur
Ġv allar
Ġkr ing
yn ur
rÃ¶f ur
ĠGrindavÃŃk ur
lÃ¡ na
Ġsp ade
d an
Ġundank eppni
ĠrÃ¡Ã°st efn
ey k
ĠmÃŃn Ãºt
H Ã³p
ĠhÃ¡ deg
h Ã©r
ard e
lÃ¡ tur
M Ã³t
Ġmikill ar
sp or
ĠÃ¾riÃ° ji
ĠtÃºl kun
Ġkyn lÃŃf
Ġsyst ir
ĠC lin
ĠS Ã¦m
ĠS vo
Ġeig anda
Ġnokkur t
Ġtil bÃºnir
m n
Ġr Ã¶dd
ĠC arl
ĠerfiÃ° ara
Ġ197 8
Ġbr agÃ°
ĠmarkmiÃ° um
ĠÃºr slitak
Ġmynd list
Ġauk inn
enn u
unn ur
IRK JA
leik urinn
Ġstofn unum
ĠÃ¡ reiÃ°
b is
ningar nar
Ġkom m
asam tÃ¶k
Ġev ru
sl ita
ĠstÃºd ent
Ġstefnum Ã³t
en ta
stÃ¶Ã°v a
ĠRÃŃkisÃºtvarp sins
Ġfl eir
Ġk art
ĠÃģ st
ĠhÃ¡l fa
ĠvÃŃs aÃ°i
Ġkosning abar
ĠAfganist an
ĠÃŀÃ³r unn
Ġvax iÃ°
Ãģ Ã¦tl
ĠVilhjÃ¡l mur
e e
L Ã¡
ĠsÃ©rst Ã¶ku
ĠmiÃ°n Ã¦tti
afr v
Ġsystk in
Ġskil ur
ĠÃ³h Ã¦tt
rÃ¦k tar
Ġ198 1
Ġbann aÃ°
ĠstjÃ³rn in
Ġleit aÃ°i
ĠviÃ° rÃ¦Ã°
ĠkÃ¦m u
ĠsjÃº tv
Ġeftir liti
8 5
Ġn jÃ³ti
m ing
ĠÃ¡ratug num
Ġaf skipti
Ġdrei fa
liÃ° sins
v atni
ĠÃ¡ vinn
Ġverkefn inu
ĠE imskip
Ġp rest
Ġbr ÃºÃ°
ĠR anns
bar na
ĠÃŀ Ãº
Marg rÃ©t
ĠÃ³sk Ã¶p
I S
ĠÃįs afjarÃ°ar
o dd
ĠUm hverfis
ĠÃŀÃ³r Ã°ur
ĠstÃ¶Ã° unni
ak erfiÃ°
lut ning
jÃ³ si
E m
Ġop num
ĠÃ¾ro ska
NÃº na
Ġsamning urinn
skvÃ¶ld iÃ°
epp nin
GÃŃ sli
ĠfatlaÃ° ra
ĠÃ¶kum enn
Ġhv at
Ġsak sÃ³knara
ĠÃ¦f ingar
fi eld
ĠÃ¾ingsÃ¡lykt unar
Ġathug unar
ĠE yst
sÃ¶g um
Ġfang a
ĠEy jÃ³lf
ĠPet er
ĠsÃ³tt u
Ġr ann
Ġundir stri
ĠBrasil ÃŃu
et h
ĠrÃ¡Ã°st efnu
Ġgef inn
ĠRey ni
Ġg rip
ĠgagnrÃ½ nt
ver Ã°ir
ĠLands virkjunar
ĠÃ¡lit s
Ġlag aset
tar nir
brÃ© fi
sh eim
ĠsÃ©rstak ar
Ã© lum
Ġsag n
borÃ° iÃ°
ĠkveÃ° ju
Ġminnk aÃ°
Ã³k na
Ġm in
Ġp il
Ġop nar
am at
ÃŃ Ã°ur
ĠdÃ¦m t
ĠG a
mÃ¡l iÃ°
jald a
Ġflokk num
Ġveit inga
ĠSt ykkish
Ġbor in
ĠK irkju
amÃ³t um
ĠviÃ°urken ningu
Ġmarkv Ã¶rÃ°ur
ing as
Ġsam di
ĠI Ã°
ĠhÃ¶fuÃ° iÃ°
ĠAri on
E C
ĠgÃ¦sluvarÃ° haldi
ĠjarÃ° skjÃ¡lf
ĠlÃ¡ ti
Ġnet iÃ°
ĠmenntamÃ¡l arÃ¡Ã°herra
f Ã¶ll
ĠtÃ³ bak
ĠB lÃ¡
Ġstarf iÃ°
Ġfull ri
ĠnÃ¡gr ann
ĠstÃ¶Ã°ug leika
Ġse ttu
ĠCh arl
bygg Ã°ar
rÃ©tt inda
ĠÃģ sta
Ġuppli fa
Ġvarafor maÃ°ur
Ġheil a
ĠGu ardi
Ġr Ã³m
emm t
Ġmik lir
ĠH Ã¶rÃ°ur
ĠleiÃ°to ga
ĠW at
rÃ¦n na
ĠhÃ¡tt aÃ°
Ãįsl endingar
ĠG ra
Ġs yni
ĠlÃ¶g gjafar
Ã¶f lun
ĠE yr
t jarnar
flu tt
Ġsm Ã¡tt
Ã ī
sf rÃ¦Ã°
sb und
ĠGuÃ° laug
ĠfjÃ¶lskyld unnar
am un
Ã¡l it
ĠsauÃ° fjÃ¡r
ĠstjÃ³rnarand stÃ¶Ã°u
Ġkalla st
Ġk ant
ĠÃ¾ing manni
B jÃ¶rg
Ġd Ãº
ĠstÃ³riÃ° ju
ĠkjÃ³s enda
skÃ½r slu
ĠlÃ¦r t
g l
ĠÃ¾ekk tur
Ġfl m
Ġmi ska
Ġsk jÃ¶l
ĠÃ¾ekk ir
ĠdÃ½r mÃ¦
s jÃ³Ã°s
ind in
ĠmÃŃn s
ĠmÃ³ ta
Ã¾jÃ³ Ã°ar
ĠrÃ¡Ã° uneytiÃ°
FjÃ¶l di
ur Ã°ar
ĠhÃ¦kk ar
sst jÃ³rn
ĠNÃ½ ja
ĠD u
Ġher naÃ°ar
ĠrÃ¶k stu
Ġb Ã½s
ag e
kon an
ĠumrÃ¦ tt
Ġv eidd
Ġh all
Ġset jast
em en
h Ã¦ttu
K jar
Ġrif ja
Ġsett ir
ĠS ÃŃ
x em
gjar nt
Ġef sta
Ġlang ur
Ġr Ã³tt
l eifur
ĠÃ¡hygg ju
G yl
ĠT Ã³n
gÃ¦ slu
ĠBandarÃŃkj afor
ĠleiÃ°t ogi
Ġfyrir fram
hlutverk i
ĠMour inho
ing inn
Ġhagsm un
au pp
and ann
b og
ĠÃ¡ramÃ³t in
Ġ198 3
g mundur
ĠA ust
ĠM exÃŃkÃ³
t Ã³k
Ġnot aÃ°i
Ãº m
v eld
ĠnauÃ°syn leg
ĠS ind
ĠdÃ³m ari
fer Ã°i
ĠbÃŃ Ã°ur
ĠBay ern
unk ti
lÃŃk a
ĠveÃ° riÃ°
ĠÃ¾jÃ³Ã°arat kvÃ¦Ã°agreiÃ°slu
Ġhlu st
ĠVÃŃk ingur
ĠÃļ r
Br eyt
Ġhaf in
okk a
far ir
ĠhÃ³ fu
h ita
Ġst Ã¡l
Ġk ass
kr afa
bÃº inn
ĠL Ã¡ra
Ġsaman boriÃ°
U M
ĠAl freÃ°
Ġ10 1
Ġsm Ã¡m
Hv aÃ°a
ĠfÃ¦kk a
ĠstoÃ°s endingar
ĠHauk ar
hÃ¶ll inni
ĠloÃ° nu
ÃŃm inn
6 6
ĠlÃ¦r Ã°i
ĠÃŀÃ³r ar
Ġhlutaf Ã©
or ld
ĠnÃ½ liÃ°
ĠÃºtilok aÃ°
ĠRÃŃkis endur
ssk il
ĠmÃŃ nir
ĠsÃ©rstak an
Ġvop na
ĠJ ack
ĠsÃ©r frÃ¦Ã°ingur
4 9
Ġhelm ingi
H afa
Svo na
ĠÃºti velli
ing jar
Ã¡ rÃ¡
sh Ã¶ll
ĠtrÃº i
Ġ197 0
ĠhjÃ¡lp aÃ°
ri tiÃ°
k or
Ġsak naÃ°
ĠBr yndÃŃs
Ġvinn una
naÃ° inn
kv a
b ikar
Ġver ra
ers en
ĠdÃ³msmÃ¡l arÃ¡Ã°herra
ĠM or
St jÃ³rnar
Ġerlend u
s Ã³tt
ĠÃĵ lÃ¶f
stÃŃm ab
Ġlof orÃ°
or lof
Ġhre inu
g jÃ¶ld
viÃ° i
lau su
H iÃ°
samband iÃ°
var andi
ss ka
For maÃ°ur
ing unum
8 8
SÃŃ Ã°ast
ĠC on
ĠÃ¾Ã¡ tta
yfir valda
ĠNorÃ°ur land
ĠÃ³heimil t
ĠfriÃ° ar
Ġken ndi
ĠÃģs grÃŃm
Ġnot ar
ĠbÃ³k ina
ĠfjÃ¡rm agna
Ġhlut deild
Ġfor Ã°ast
fram kvÃ¦md
enn ir
Ġbank arnir
ĠÃ¡f ang
ĠFram sfl
ĠÃ³Ã¾ arf
Ġk em
n inn
lag an
m rn
Ġg Ã¶tur
ĠrÃ¡Ã°her rann
t h
Ġeig naÃ°ist
ĠmeiÃ° sli
Gyl fi
B andarÃŃk
v alla
Ã¦ la
Ġskip an
breyt ingu
ĠÃ³ tta
ÃŃsk um
ĠalÃ¾jÃ³Ã° legum
samband sins
ĠlÃŃkam sÃ¡
Ġstund aÃ°
ĠAtlant shaf
ĠOr ri
Ġp last
j ag
ĠmÃ¶guleik i
Ã¾ Ã¶rf
ĠP ark
Ã© la
Ġhor fir
Ġn eita
Ġl osa
Ġton num
ĠtÃŃm inn
Ġtakmark a
ĠMenn ta
ĠÃ¡ Ã¦t
ĠhÃ¡l ku
Ġst em
Ġuppg Ã¶t
St ein
Ġafh enda
ĠfjÃ¡rmÃ¡l ast
band iÃ°
Ġh ir
Ã° ri
Ġ18 0
Ġbrey tist
Ã¡r s
Ġval in
Ġgl Ã¦
ĠhÃ¡l ka
ĠU pp
Ġmiss er
ĠtrÃº verÃ°u
Ġmikil la
ost naÃ°ur
Ġeink amÃ¡la
Fl est
ĠdÃ¦m d
Ġgjald a
Ãŀor steinn
ĠS lÃ³
IN G
ĠGÃŃsla dÃ³ttir
ĠR au
ĠsÃ¡ tu
ĠA u
ĠhÃ¡ a
Ġklu bs
Ġb anna
ĠHÃ©raÃ°sdÃ³m i
Ã¡f rÃ½
Ġleggja st
Ġst Ã¶ndum
GuÃ° jÃ³n
Ġsam stÃ¶Ã°u
Ġfell t
ĠEg ill
ĠlÃ½ Ã°v
fÃ¶r um
m is
ĠveÃ° ri
Ġr Ã©Ã°
Ġneyt endur
ott iÃ°
Ãģ kv
Ġbjart sÃ½
ĠstjÃ³rn mÃ¡la
kon ur
pt on
Ġm al
Ġst olt
ĠLandspÃŃtal anum
ĠBol ungar
Ġsam bÃºÃ°
ĠMo sk
as onar
ĠskaÃ°ab Ã³ta
ĠVestur landi
Ġ8 1
ĠAr gent
SlÃŃk t
Ġallt of
ĠhÃ¡ degis
ĠbÃº um
ĠumrÃ¦Ã° una
ĠÃ¾rÃ³ a
Ġfrest i
ĠhÃ¦ sta
Kat rÃŃn
Ġhv etur
Ġkraf t
ĠR Ã³bert
Ãŀ ÃŃn
Ġb yss
ÃºÃ° vÃŃk
Ġf aÃ°
Ġ197 9
ĠhÃ¶fuÃ°borgarsv Ã¦Ã°isins
am anns
Ġmark inu
Ġeinf Ã¶ld
skap ur
ĠJu ventus
ss el
ĠD o
ĠlÃ¡ gt
ĠMc C
ĠstjÃ³rn sÃ½
sÃ¶g ur
arf er
Ġskap aÃ°
ken nara
h ljÃ³msveit
ĠB ank
Ġsk urÃ°
D r
Ġd att
fer li
ĠAlÃ¾ fl
ĠÃºthlut aÃ°
Ġheilsug Ã¦slu
Ġvir Ã°a
ĠgreiÃ°slu dags
Ġvop n
AN D
E g
Ã³r u
afÃ©lag i
Ġg lÃ¶g
Ġendur greiÃ°slu
ĠsÃ¦t inu
Ġs eldi
Ġhring ja
Ġheimil inu
Ġfors end
ĠÃ¡tt unda
ĠEr la
1 00
ĠSk Ã¡l
k an
Ġskipuleg gja
Ġborgar stjÃ³ri
Ġland smenn
Ġyfir g
Ġkanna st
H ag
end ingum
Mik ill
ĠSig mundur
ĠÃ¾Ã½ Ã°ingar
7 7
ljÃ³ s
ul eysi
ĠlÃ© tta
Ġsam s
ĠÃ¡kvÃ¶rÃ° unar
Ġst rÃŃÃ°a
ey ta
ĠSel tjarnar
ÃŃ la
Ġsann aÃ°
Ġh innar
ĠS ey
0 5
Ġupp run
ĠÃ¡ varp
ĠlÃŃf sg
Ġstefn endur
ĠA F
Ġv eig
Ġsvip uÃ°um
Ġf it
ĠFÃ³t bolta
Ġfyrr nefnd
deild in
k s
Ġeinka vÃ¦Ã°
sviÃ° s
ĠMar ÃŃu
Ġmorg ni
ĠfjÃ¶l d
ĠnÃ½ ir
Am ma
stof unni
S var
ab ygg
as p
ĠK F
ĠmiÃ°viku daginn
Ġver ri
Ġ198 2
Ġver janda
Ġhlu tl
ĠFriÃ°rik sson
Ġr aÃ°ir
ĠE B
ĠbÃ½s na
Ġfl Ãº
Ġhald nir
Ġk erfinu
ĠliÃ° inn
ĠumferÃ° inni
ĠslÃŃk ur
ra els
ĠkjÃ³s endur
Ġh la
ĠauÃ°veld ara
Ġsendir Ã¡Ã°
ĠlÃŃf sh
Ġverk sins
krÃ¶f ur
ĠÃ¶ kur
ĠSigurjÃ³n sson
ĠstÃ¦r ra
L ÃŃf
ĠÃ¡hygg jum
ĠgÃ¦ tum
Ġsparis jÃ³Ã°
MiÃ° aÃ°
Ġ9 4
R agnar
t e
Ġeigin kona
ĠsÃ¡ st
Ġflu gi
Ġgr ÃŃn
ĠnÃº gildandi
Ãº mer
Ġsafn aÃ°
ĠHa arde
Ġsk r
stÃ¶rf um
Ġto ga
ĠJ es
ĠsÃº kkul
Ġkli pp
ĠdÃ³mst Ã³la
verk i
ĠskÃ½r sla
ĠSauÃ° Ã¡r
ĠvirÃ°u legi
Ġer tu
Ġsk ell
Ã¶r Ã°um
Ġnefni st
T rygg
verk um
ku Ã°u
er ry
till Ã¶gu
ĠviÃ°hald a
Ġund ar
Ġflokk um
est an
ĠK a
ĠrÃŃkis fjÃ¡r
Ġf agn
Ġinn kaup
ĠlÃ© ku
Ġsterk t
Ġlegg jum
ĠfÃŃkni efni
ld ir
l aÃ°i
ĠheilbrigÃ°is rÃ¡Ã°herra
ĠSv eins
ĠÃĵ la
Ġ196 0
Ġflokk ar
Ġmenn irnir
al lag
Ġutanr rh
ag nir
ĠÃ¦sk ilegt
G eir
Ġton na
ĠÃŀorg eir
ĠalÃ¾jÃ³Ã° lega
Ġfal leg
ĠlÃº ta
afrÃ¦Ã° ingur
Ġâ ĭ
ĠheilbrigÃ°is Ã¾jÃ³nustu
Ġaf laÃ°
Ġaf rek
eistar ar
Ġâĭ Ħ
Ġerf Ã°
Ġsaman burÃ°ar
Ġbl ogg
s d
B laÃ°
al inn
ĠL os
ĠÃ¡ sak
Ġol li
ĠG en
R A
ĠrÃ¦ tur
rÃºm sl
Ġkyn ningar
ĠJÃ³h Ã¶nnu
ĠsjÃ¡lf stÃ¦tt
Ġsp ara
ĠgÃ¶m lum
ĠG i
ĠÃ¾rett Ã¡n
ĠF yrir
ĠrÃŃkiss ak
Ġh alla
Ġtilkyn ningunni
virk ni
R agn
ok tor
ĠnÃ¡gr anna
ĠdÃ³m ar
ĠHjÃ¡l mar
ĠÃ¡l yk
ĠviÃ°skip tal
ĠP o
Ġaf kom
ĠvÃŃsit Ã¶lu
Ġver st
Ġforse tak
deild ina
ĠskrÃ¡ ningu
byr jun
Ġef niÃ°
gj afa
ĠE kki
h Ã¦tt
Ġtak ist
gÃ¶ng um
ĠÃŃt reka
kom in
slÃ¶greglu stjÃ³ra
Ġget u
Ġef st
ĠVilhjÃ¡lm sson
Ġsex tÃ¡n
sleg ri
sjÃºk ra
ssk yld
j aÃ°i
ĠfjÃ¶l men
Ġsk ar
x l
and anum
vax ta
ver s
ĠneÃ° ri
ĠÃ¦vint Ã½r
ĠJÃ³n ssonar
Ġfl Ã³Ã°
StjÃ³rn vÃ¶ld
t uga
Ġk ÃŃk
V eÃ°ur
Ġtrey st
og iÃ°
Ġkjarasam ninga
ĠM ars
ĠC om
Ã³ st
Ġm innar
Ġst akk
ĠT r
ĠvÃ¶ll inn
ĠÃ¦tlu Ã°u
Ġaug lÃ½st
ĠLandhelgisgÃ¦ slunnar
ĠÃ³ hag
ĠsÃº r
ĠÃ³ um
ĠDan merkur
rÃ³ Ã°ur
ĠV iktor
Ã¶m mum
Ġneik vÃ¦
ĠfjarlÃ¦g Ã°
ĠsÃ©rstak ur
il e
Ġt Ã¦
Ġsak arkost
ingast ofnun
ĠtÃ¶lu l
ĠsveitarfÃ©lag sins
bar n
Ġmynd arinnar
ĠsjÃ¡lf stÃ¦Ã°
Ġums jÃ³n
end inga
Ġe inna
Ġklukkust undir
ri c
ĠR u
Ã¶k li
ĠHauk sson
Ġhen tar
Ing ib
ĠÃ³m Ã¶gulegt
b Ã³
Ġfor vit
Ġvelkom nir
Ġsk riÃ°
ĠdÃ³m urinn
ĠfjÃ¶lskyld una
ĠBr aga
ĠfjÃ¡r l
Ġst ang
Ġlau st
ĠM Ã½
Ġspreng ju
ĠstÃºl ku
f rey
ĠhÃ¦kk uÃ°u
F inn
K vaÃ°
f jÃ¶rÃ°
ĠKr ing
ĠbÃº Ã°
ĠnÃ½ja sta
ĠhÃº sm
âĢ¦ âĢ¦
Ġhagsm unir
ĠhrÃ¡ efni
Ġatvinnu veg
ast ur
ĠSauÃ°Ã¡r krÃ³
ĠaÃ°ildar rÃŃk
ĠmÃ¡l smeÃ°ferÃ°
ĠbÃ¦jar stjÃ³rnar
ug h
Ranns Ã³kn
Ġd ala
ĠHel li
Ġg atn
Ġk jÃºk
skip tin
ĠRÃºss a
ĠClin ton
skoÃ° unar
Ġp opp
Ġb rÃ¦Ã°ur
Ġbr Ãºn
ar Ã°ar
Ġalgeng t
Hver s
ĠstÃ³r ar
Allt af
Ġv afi
eg n
H vÃŃ
j o
ĠAf tureld
Ġeftirlit s
M ann
tugs aldri
Ġinn ri
ĠV ÃŃ
mÃ¦ la
F A
ĠÃºtlend inga
Ġgef st
Ġsamning aviÃ°
ĠS um
Ġfr y
ĠdÃ¡ nar
raun i
Ġskatt lag
Ã¦Ã° in
Ġhlutaf jÃ¡r
dr ott
Ġskip aÃ°ur
Ġsam staÃ°a
Ġleng d
ĠfjÃ¡rm unum
Ġumhverfis rÃ¡Ã°herra
ĠKrÃ³ at
ĠGeorg e
Ġsner i
ĠfÃ¦r u
ĠEvrÃ³pum Ã³t
o ck
Ġb u
Ġbak iÃ°
vÃŃsit alan
3 1
ĠÃ¾ ola
ĠÃ¡b endingar
Ġ14 0
risti an
ĠstjÃ³rn skip
ĠÃºtg Ã¡f
ĠbÃ¦jar stjÃ³rn
ssk Ã³la
ĠBÃºn aÃ°ar
Ġb Ã½st
mÃ¡l arÃ¡Ã°herra
Ġfel ast
ĠlÃŃ tra
ĠVÃŃs i
ĠfrÃ¡ bÃ¦ra
Ãŀ riÃ°
v exti
smann i
Ġbla sir
Ġd rukk
ĠÃį var
Ġk an
ne ska
ĠendurskoÃ° unar
ĠmarkmiÃ° iÃ°
Ġstyr ki
Ġskil i
ĠfljÃº ga
st ÃŃma
ig i
Ã¡l ag
ĠÃºthlut un
hÃ³p i
ĠlÃŃ tinn
bank i
ĠÃ½ ta
Ġgrein ingar
Ġborg ina
Ġkv a
ĠÃŃslensk an
ĠÃ¾Ã¦tt inum
Ġstel p
t eg
Ġmynd irnar
ĠM en
ĠBlÃ¶nd u
ĠtÃ¦p ar
Ġr Ã¶kum
ĠNorÃ°urlÃ¶nd unum
bandalag sins
Ġskuld um
Ġknattspyrnu stjÃ³ri
ĠfjÃ³r tÃ¡n
ĠV an
Ġskug ga
Ġv inni
m ars
Ġg all
bÃº in
Da vÃŃÃ°
Ġsamband sins
Ġk lass
Ġl ak
arf l
ĠÃ¾Ã¡tttak endur
ĠinnanrÃŃkis rÃ¡Ã°herra
okk ur
ĠÃĵlympÃŃ uleik
Ġst rik
ĠK SÃį
Ġp lan
Ġforset inn
Ġnot aÃ°ur
Ġp art
Ġvel ti
Ġhag vÃ¶x
ĠsÃ¶g Ã°ust
sst yr
dr Ã¡ttur
Ġflutt ir
ĠÃ¾riÃ°ju daginn
ĠmÃ¦ list
Ġf esta
ĠmiÃ° la
ĠÃ³g ild
Ġefnahagsl ÃŃf
Ġ10 5
Ġtel jist
ĠAngel es
Ġsp ark
s jÃ³Ã°i
Ġraun in
ĠÃ¦ v
ĠtÃ¦kif Ã¦riÃ°
Ġp er
Ã¦Ã° ra
vÃŃk inga
Ġtil vil
Ingib jÃ¶rg
v es
ek ja
hÃºs a
brau tar
Ġpen ingar
s etur
SÃ½ ningin
Ġ16 0
S Ã³l
ĠfjÃ¡rhag slega
sh Ã¦
Ġfr ost
ĠmarkaÃ° num
ĠSeÃ°labank inn
ĠafmÃ¦li s
ĠI nn
Ġh au
ĠHarald sson
efnd ar
ĠÃįs raels
ĠsnÃº ist
Ġbl ekk
ĠdÃ³m a
Ġfylg dist
tug t
ĠÃį ran
er land
sl au
Ġe ilÃŃf
Ġleita st
Ġop inn
Ġeinstakl ingur
Ġ9 2
Ġgreidd ar
stÃ¶Ã° una
ĠhÃ©raÃ°sdÃ³m i
Ġfasteig nas
U tan
al Ã¡n
ek tar
ef a
ĠnÃŃ unda
ĠsjÃ³ menn
ĠbÃ¦j arf
Ġmun inn
ep Ãº
Ġtiltek num
Ġtiltek iÃ°
Ġver ndar
Ġhlaup iÃ°
eng er
Ġ197 2
ĠÃģgÃºst sson
St aÃ°
Ġversl anir
Ġvinnu veit
g leika
Ġk erfis
Ġ197 3
ĠsjÃ³narmiÃ° um
ĠbÃŃ ll
Ġbor Ã°i
7 6
ur ÃŃk
ĠsjÃ³nvarp sÃ¾
Ġpl Ã¶n
Ġstr Ã¶nd
ĠmÃ¶guleik ar
Ġtald ir
ĠB Ã¶Ã°var
em bÃ¦tt
ĠÃ¦tla st
gu son
ĠÃ¾akk lÃ¦ti
h jÃ³l
lÃŃ t
Ġhugs aÃ°i
Ã¶ sku
yr i
Ã¶n skum
r unum
Ġklukk utÃŃma
ĠlÃ¶g fest
Ġskynd ilega
ĠmeÃ° hÃ¶nd
Ġfar ar
d Ã½ra
Ġsveit inni
Ġinni h
ĠÃºt flutnings
ĠsÃŃ Ã°u
aÃ° gerÃ°
L i
Ġsig ra
ĠRey nir
ĠNorÃ°ur lÃ¶ndum
Ġlaun ak
rÃŃm ur
Ġtv ennt
d in
Ġrek in
bund iÃ°
ĠeyÃ° ileg
Ġvax a
st ill
ĠRonald o
Ġhaf ist
Ġgei sl
Ġd Ã¦tur
Ġgang andi
ver ji
j am
Ġgl ÃŃm
yk st
Ġknattspyr num
Ġupp sagnar
Ġbjar gaÃ°
ĠÃ³trÃº legt
ĠA c
Ġfor rÃ¡Ã°
ĠE va
ĠÃºt sk
art ÃŃma
Ġsumar bÃº
Ġp re
Ġhn Ã©
ĠveiÃ° ig
ĠbrÃ©f inu
9 6
ĠrÃ©tt lÃ¦ti
Ġ197 5
raust i
Ġsam eina
ĠL ogi
Ġauk ningu
ald ast
Ġp Ã³l
Ġk ylf
ug erÃ°
ĠV i
ru Ã°u
ĠA C
Ġp akk
s y
Ġhand bolta
Ġmet rar
Ġdag sett
ĠrÃ¡Ã° um
ĠSp aris
Ġst Ã³l
Ġsm Ã¡s
ĠÃŀ Ã³ri
f rÃ©tta
Ġsam svar
ĠtÃŃ Ã°um
Ġd uga
ĠÃ¾yrf tu
Ġband alag
Ãģ g
sf jarÃ°ar
breyt ing
ĠNorÃ° menn
vÃ©l ar
ĠOdd sson
Ġupp tÃ¶ku
ĠA uÃ°
ĠS unnu
ĠG au
ĠmÃ¡nu Ã°ir
Ġgest i
Ġe ykst
Ã¡tt unni
ĠÃ³t vÃŃ
Ġveru leg
ley fi
Ġh Ã¶nnu
ĠN ÃŃ
aland sliÃ°
c ester
ur s
ĠJ Ã¶kul
ganist i
ĠEx press
v allar
Ġl Ã¦ri
Ġstofn aÃ°i
Ġkv Ã³t
ald i
ĠmiÃ° ar
stefn anda
ĠdrÃ¡ttarv Ã¶xtum
ĠmÃ¶rk uÃ°um
am i
Ãº Ã°a
Ġst Ã¦kkun
agn aÃ°ur
Ġumtals vert
Ġtal ist
starf iÃ°
ĠsjÃ¡lf bÃ¦r
ĠH ildur
Ġfug l
ĠhÃ¡mark i
er Ã°ur
Ġforsetak os
Ġheimil um
Ġ jÃ¡rn
Ġuppfyll t
ra uk
4 00
Ġsk rÃ½
Ġreynd u
Ġvit nesk
8 6
ÃĨ t
Ġsaman burÃ°i
ĠTrygg vi
m eÃ°
s onar
Ġaf sal
ĠstÃ¦kk a
ken ni
Ġfr yst
Ġefni slega
ic a
Ġ ax
sk ona
stand andi
kost naÃ°ur
ĠGuÃ° na
Ġt af
ĠmatvÃ¦ la
Ġalla vega
Ġand rÃºmsl
jal li
ĠÃ¦f ingu
Ġborgar stjÃ³rnar
ri ta
D an
af Ã©
Ġbarn s
Eig in
ĠfjÃ¡rfest ingu
ĠEirÃŃk ur
Ġhand rit
Mikil vÃ¦g
rÃ¡Ã° uneyti
ĠgreiÃ° ir
Ġskil greind
Ġley fis
ĠÃ¾ inni
and amÃ¡l
hjÃ¡l p
ar e
Ġh ark
Ġtilfinn ingar
Ġl u
ov Ã©t
ĠiÃ° ulega
m orgun
G agn
Ġversl unum
AA AA
l est
ĠÃģrna dÃ³ttir
Ġ197 6
esk aup
ĠÃģsgeir sson
ĠH Ãį
arfÃ©lag iÃ°
j amenn
Ġb Ã³l
Ġfer il
Ġgrun ur
J Ãĵ
f re
ĠM er
Krist inn
ĠdÃ³m inn
umÃ¡l um
K onan
bl ettir
ĠHvÃŃ ta
Ã¶ Ã°ur
aflokk sins
Ġop nun
Ġh arm
Ġjafn rÃ©tti
Ġstyr kt
Ġleik ja
Ġat haf
fl okki
ĠrÃ©tt indum
Ġung um
ĠsjÃºk ling
ĠR ut
p art
Ġ9 3
Ġsm it
L I
ĠÃ¾Ã¶rf um
ĠÃŀ r
Ġkaup in
ili pp
Ġveg inum
Ġbre sku
Ġfinni st
ĠhÃ¡ v
ĠslÃŃk an
ss p
ĠSamfylk ingin
Rey ndar
ab Ã¦
deil t
Ġp unk
ĠvÃ¦nt ingar
a w
Ġn Ã¦Ã°i
Ġd ra
ĠÃºt fÃ¦r
Ġhn ÃŃf
e b
Ġhor fiÃ°
Ġhver fi
Ġfar Ã¾egar
S S
Ã¶r u
Ã¾ rey
Ã¶kk viliÃ°
afram kvÃ¦md
l iggjandi
Ġl amb
brey ttu
Ġupplif un
D A
Ġkosning unum
Ġsum rin
Ġfors enda
ĠrÃ½ mi
ĠblaÃ° amenn
Ġvirk ar
Ã¡ stand
ĠÃ¡nÃ¦gju legt
m or
ĠR Ã¡s
ĠsÃ¦k ir
ĠÃ¾jÃ¡lf ar
am er
Ã¶n nuÃ°
ĠÃ¡frÃ½ janda
hlut inn
Ġdre kka
x d
ĠÃºts endingu
Ġskip um
ĠkvÃ¦n tur
ĠÃ¡huga vert
Ġb en
Ã¾ Ã¦tti
ĠleiÃ° rÃ©tta
Ġd isk
spur Ã°
ĠÃ¡nÃ¦g Ã°ir
Ġst rey
ĠHÃ¦ stirÃ©ttur
Ġspur ningin
lag s
bÃ½li shÃºs
ĠSver rir
s Ã¦ti
ĠF ax
sta d
ĠR Ã³s
Ġgl aÃ°
Ġsag an
bl Ã¶Ã°
ĠSjÃ¡lfstÃ¦Ã°isflokk s
Ġfr an
Ġd ekk
ĠF M
Ġlif aÃ°
Ġmats gerÃ°
F erÃ°
ĠEng lands
Ġkl Ãºbb
dÃ³m ur
ĠBre tar
Ġsl Ã³Ã°um
Ġef asem
ĠÃ¡v Ã¶x
ĠÃ¾Ã½ Ã°a
Ġber st
Ġeld hÃºs
ĠI II
ĠtÃºl ka
set ja
ĠmarkaÃ°ss et
Ġjafn aÃ°ar
f ari
Fl eiri
Ġfyl la
Ġb undiÃ°
Ãº na
Ġfram vegis
ĠHelga dÃ³ttir
Ġupp lÃ½
ĠÃºrslit in
T T
ĠH anna
Ġ as
aleg um
Ġtilheyr andi
sf er
ĠbrÃºÃ° kaup
Ġver sta
ĠFinn landi
Ġ x
ĠVestmanna eyja
ĠÃºti vist
ĠhliÃ° ina
ĠBjÃ¶rn sdÃ³ttir
Hel ga
bo Ã°um
e ch
ĠaÃ°far anÃ³tt
a sson
Ġvit anlega
olt on
sv Ã¦Ã°iÃ°
A ustur
skip a
eistarati til
Ġvatn iÃ°
ĠnauÃ°syn legar
Ġh rÃ¦Ã°
Ġg ra
ĠStein unn
al eig
Ã°ir nar
ĠSjÃ¡lfstÃ¦Ã°isflokk urinn
Ġop naÃ°i
J Ãº
ĠEvrÃ³p ska
ti s
ĠÃºtskÃ½r ir
Ġmis jafn
ak el
ĠtÃ¶lvupÃ³ st
ĠF i
firÃ° inga
ĠbÃ¡ ru
ĠÃ³sk il
ĠrÃ¦k t
ĠstuÃ° ningur
ĠbÃ¡ Ã°a
ĠaÃ°ferÃ° ir
ĠSt ep
y wood
ĠlÃ¡ nt
ĠfiskveiÃ° i
ĠÃ¡ verka
Ġs ynd
Sam t
Ġst and
eftirlit iÃ°
ĠAlÃ¾jÃ³Ã° agjald
ileg ir
ĠA b
Ġt Ã¶k
Ġafn ema
eg inum
ĠHver agerÃ°i
st eyp
ĠkynferÃ°is brot
St Ã¦r
ĠstjÃ³rn enda
ĠÃ¾ekk jum
ĠgÃ¦r morgun
drÃ¦ tti
Ġof angreind
ab bi
Ġsv eig
Ġvan t
ĠÃ¡kv Ã¡Ã°u
h ar
ĠIng im
af ng
Ġ197 1
Ġvar p
Ġher inn
ĠmÃŃnÃºt na
Ġflokk anna
Ġver Ã¶ld
SÃ©rstak lega
ĠDavÃŃÃ° s
prÃ³ fi
Ġbank i
ĠmikilvÃ¦g a
ĠEg yp
hÃ¶f um
aleg u
ĠÃ¡rsfjÃ³rÃ°ung i
Ġlos un
dÃ³m stÃ³l
rau sta
an y
Ġbir tingu
Ġmen ning
Ġfel ist
k Ã³
ĠsamfÃ©lag smiÃ°
Ã¾ yng
ÃŃ Ã³
Ġb ug
Ġel sk
al est
ĠviÃ°skiptar Ã¡Ã°herra
ĠÃŀor k
e an
f et
Ġnot aÃ°ar
ham pton
Ġfyrirmynd ar
ĠbÃºn aÃ°
r ÃŃÃ°
Ġfisk vinnslu
Ġko ll
Ġgif tist
ug jald
Ġendur heim
R ek
Ġlag ar
ĠÃ¡g Ã¦tt
Ã¡l iÃ°
Ġk Ã¦
Ġnor sku
Ã¦ Ã°ur
Ġsk all
ĠÃ¾ri svar
ĠSt oke
Ġhlut hafa
el t
deg inum
r anna
ĠB a
Ġhagn aÃ°ur
Ġheim spek
Ġher berg
Ã¾ jÃ³n
Ġkynn st
ager Ã°arinnar
Ġb rÃ¦Ã°
Ġr Ã½r
ĠV erÃ°
ĠlÃ¡t nir
S ex
Ġkraf Ã°ist
ĠTrygg va
Ġstund ar
Ġstig iÃ°
ĠfjÃ¶lmiÃ° l
Ġsam taka
merk i
Ġtrygg Ã°
yst ra
ĠÃ¶kum aÃ°ur
9 7
ĠS un
ĠD el
Ġgr g
ĠV inn
ĠstjÃ¶r nu
ĠM ac
Ġein elti
Ġbrey tir
Ġfyrirl est
vÃŃ n
val s
3 00
ĠfjÃ¡rhag s
Ġskor iÃ°
ĠkjÃ¶rtÃŃmab ili
k unn
ĠBandarÃŃkj amanna
ss vÃ¦Ã°i
boÃ° iÃ°
am Ã¶rk
ĠmÃ¦l ir
ĠtÃŃ unda
ĠfjÃ¡rmÃ¡l afyrirtÃ¦ki
Ġbar ist
jÃ¡ rauk
ĠU ni
Ġfyrr greind
skyld an
ĠÃ¡h Ã¶fn
ald ra
nu Ã°ur
Ġs and
Ġey tt
ĠÃ¶rug gt
S Ã¶m
ĠsÃŃÃ°a sti
ĠheiÃ° ar
Ġsk rÃŃ
ĠMosfells bÃ¦
Ã¶r um
Ġg yÃ°
ĠhÃ¶f n
ĠÃ¡skor un
sÃ¡Ã¦tl un
ĠrÃŃkisstjÃ³rn ina
ĠReykjan ess
ystk ini
ĠKjartan sson
Ġc m
Ġe g
Ġvel ferÃ°
Ġster ka
4 2
sviÃ° i
ĠhÃ¦tt ur
Ġher sins
ningar nir
bÃº um
ĠhÃ¦starÃ©ttar dÃ³m
ĠÃ¶r orku
Ġk asta
Ġvel t
ĠS Ã¡
un t
I V
ĠK ÃŃnver
f undar
ĠlÃ¡n ssam
Ġpr ins
ĠsÃ¶g una
hÃ¦ tti
al ista
Ġv ÃŃmu
Ġkost aÃ°i
Ġlos na
fyl g
B ank
ort h
ĠK o
ĠÃ¡t jÃ¡n
Ġums agnar
ĠKÃ¡ra hn
gÃ¶ng ur
ĠD om
ĠBjar t
ĠAs ÃŃu
Ġb y
ĠrÃ¦ dd
Ġtil ein
Ġkennar ar
Ġmarg s
jur nar
ĠrÃ½ m
ĠÃ¾ekk ti
ĠauÃ° l
ĠmÃ¶rk in
min ja
ĠBjar ki
ĠrÃ¡Ã° ning
um hverfi
ĠgagnrÃ½ na
Ġsak ar
Ġfor manni
lÃ¦k ni
gr unn
Ã¡ na
Ġvet urinn
ĠA ston
il m
atriÃ° iÃ°
ĠtÃŃm ar
verÃ° launa
ĠrÃ©tt lÃ¦
ĠlÃŃkam a
Ġt eig
ĠgÃ¦ Ã°a
Ġstyrk tar
ĠElÃŃs abet
Ġor sak
Eng u
Ġor lof
bb a
Ġinn l
ĠReykjanes bÃ¦jar
ĠFrÃ©ttablaÃ° inu
ĠSn Ã¦r
ig ht
ĠÃ¶ku tÃ¦k
ĠÃ¶r lÃŃtiÃ°
ek ju
6 00
Ġfor dÃ¦mi
Vil hjÃ¡l
ĠrÃ¡Ã° uneytinu
ĠS if
Ġmerk ilegt
ĠflÃ³tt amanna
st Ã³ll
arÃ¡Ã° uneytiÃ°
Ġbjar g
ÃŃsk t
ĠP akist
am Ã³ta
ĠÃŃslensk rar
ĠÃ³v issa
Ġsak ir
Ġhr ÃŃÃ°
ĠbÃ³k in
Ã¶n sk
Ġsk ildu
Ġ ind
ĠNÃ¡tt Ãºru
Ġalmenn u
AR K
hÃ³p urinn
Ġtil nef
hÃ³p ur
ĠG am
Ġdreif ingu
ĠtÃŃm ap
Ġminn ingu
vÃ¦ last
v n
ĠFjÃ¡rmÃ¡laeftirlit sins
Ġvax t
sam ningur
ĠviÃ° unandi
ul la
Ãºt ÃŃn
Ġt en
ĠÃ¡ s
ĠLundÃº num
v Ã¶rÃ°
ĠnÃ½ jung
ast arfsemi
yn ni
S V
ing num
RÃŃkis stjÃ³rnin
ak erfinu
ĠJo se
Ġendur greiÃ°
g Ã¶gn
Ġsterk ur
Ġkaup m
yn e
G A
ĠvinsÃ¦ la
Ġver t
ĠlÃ½ tur
Ã¾rÃ³ tta
Ġfyl k
Ġnefnd ir
ĠVestur lands
ĠauglÃ½s ingar
ĠjÃ¶rÃ° ina
ĠR Ã³m
w ay
ei slu
BÃ¦ jar
ĠlÃ¡nsf jÃ¡r
ĠhÃ¦ kki
ĠGyl fa
ĠvÃŃsb endingar
ĠhÃ¡lfleik s
ĠleiÃ° um
Ġyfir standandi
ofn unin
Ġv andi
Ġsigur vegar
4 3
ĠsjÃºk raf
Ġsp jall
Ġinn brot
ĠÃ³g n
ĠD Ã¶gg
Ã¾ ykk
ir e
H l
Ġung ir
sk Ã½
ĠsjÃ¡lfstÃ¦Ã°i smanna
sl urnar
ĠT Ã©kk
Ġ10 8
ĠtilbÃº iÃ°
ĠD ar
o c
Ġeng ir
Br yn
ĠÃ¾ ykk
Ġtilkyn ningar
ĠleiÃ°arl jÃ³si
ĠM aÃ°ur
ĠH reiÃ°ar
Ã¶l s
ĠF ljÃ³
Ġveg ur
Af rÃŃku
ĠBer lÃŃn
Ġg ras
sleg an
Ġfalla st
Tel ur
ĠkÃ¦r Ã°a
ĠgrundvÃ¶ll ur
ĠMosk vu
bÃ¡ ta
ung um
Ġframhaldssk Ã³l
Ġheil br
ĠsÃ©r kenn
Ġforsvar smenn
ĠÃ¡her slur
legu stu
ĠSvÃŃ Ã¾jÃ³Ã°ar
ĠfyrirtÃ¦k janna
HÃ¦ stirÃ©ttur
ĠÃ¡rÃ¡s ar
ĠSigurÃ°ar dÃ³ttur
Ġsak bor
ĠS ara
Ã¶ num
Ġaug un
Ġst ÃŃf
re ins
ĠviÃ°fangs efni
ĠKarl sson
Ġfr eg
ĠS ovÃ©t
Ġflest a
ĠBe ck
II I
Ġdr ag
ĠsvokÃ¶llu Ã°u
Ã¦k i
ĠhÃ¡tÃŃÃ° inni
Ġeig nuÃ°ust
ul ham
Ġsendi herra
afÃ³lk i
on u
ĠpÃ³lit ÃŃska
mik il
h Ã¡ttar
ĠhÃºs n
ĠPÃ¡l s
Ġframher ji
Ġmarka hÃ¦
Ġpapp ÃŃr
brig Ã°is
rÃ¡ n
ri ck
eyt end
VirÃ°u legur
Ġathyglis vert
lu Ã°u
ĠHÃ¡ skÃ³lans
ĠHaf ranns
en u
ĠhÃº mor
Ġd oktor
Ġmark s
al of
Ġp ip
ĠaÃ° lÃ¶g
Ġdre pa
is e
ĠF yr
ĠT ra
ĠVÃŃk ur
ĠG est
ĠAnt on
ĠHeim ir
Ġuppbygg ingar
Ġf eÃ°
ĠF jarÃ°a
p en
ĠÃ¾ vo
ĠrÃ¶k stuÃ°
ĠauÃ°veld a
ĠBelg ÃŃu
Ġs nar
ĠFer guson
ĠÃºr slita
jÃ¶r t
Ġyfir skrift
ĠembÃ¦ttis menn
ĠFjÃ¶l ni
n slu
Ġbir tar
f undur
ĠEgils stÃ¶Ã°um
Ġh eitt
Ġleik skÃ³l
fyl gjandi
Ġsum ri
Ġfullyr t
Ãģ kvÃ¦Ã°i
ĠlÃ¶g gjaf
V iss
hÃ¡tÃŃÃ° inni
Ġstof u
Ġp Ãº
ak l
Ġhl Ã¦r
Ġforset ans
A merÃŃku
fÃ©lÃ¶g um
Ġerlend ri
ĠumferÃ°ar laga
Spur Ã°ur
F ull
ĠÃ© l
ĠE dda
o tta
8 00
Ġpers Ã³n
Ġlaus nir
ĠnÃ³tt ina
ĠlÃŃ nur
af ulltrÃºi
ĠkrÃ¶fu hafa
sl aug
ĠFÃ¦r eyjum
ĠG arÃ°
Ġ11 2
ĠW a
st Ã©tt
ĠGuÃ° nason
d em
la tan
v estur
Ġdeil ur
ĠerfiÃ° a
Ġdrei ft
sm Ã³t
5 6
Ġn e
Ġr auÃ°a
ĠsjÃ³Ã° num
Ġgildist Ã¶ku
Ġf ata
leg gja
Ġstr eng
M egin
ĠblaÃ°amann afundi
Ġumhverfis Ã¡hrif
Ġh eiti
ĠsÃŃÃ°astliÃ° iÃ°
r uÃ°um
Ġyfir lit
epÃº blik
Rey kjavÃŃk
ĠhÃ¦tt ir
ĠÃ¦ Ã°i
samning sins
Ġj Ã¶fn
Ġsek ur
Heild ar
s firÃ°i
veg inn
Ġkanna bis
Ġdeili skipulag
li s
ĠW orld
stefn andi
Ġskor ti
R o
s ala
ĠtÃ³k um
Ġdr ott
ĠÃ¾ro sk
Ġstu tta
Ġvar lega
sjÃºk dÃ³m
ĠÃ³h epp
bygg ingar
ĠStjÃ¶rn unnar
Ġbein um
ĠsjÃ³nvarp i
ĠfÃ©lag anna
ĠhÃ©raÃ°sdÃ³m ari
Ã°u Ã°u
Ã¦k t
Ġj Ã¶k
ĠSiglu firÃ°i
ĠSk Ãºli
Ġum hugs
h ygli
ĠEr ling
ĠÃŀor stein
rid ge
jÃ¶ld in
Fyr ri
ĠGrÃŃm sson
Ġfel i
ĠBru ssel
z lu
ĠSt Ã¶Ã°var
ĠÃŀor skur
of b
mann inn
Ġsm Ã¦rri
Ġ3 50
ĠkvÃ¶ld i
lu Ã°um
Ġsak felld
Ġdreg ist
VilhjÃ¡l mur
al es
jan lega
ĠtÃŃmab Ã¦rt
Ġfimm tÃŃu
ĠhÃ¶fuÃ°borg inni
Ġbar ni
ĠhÃ¡lf an
Ã¾ oli
Ġodd viti
ĠB yr
Ġfag naÃ°
ĠR af
ĠU n
Ġs endur
Ġfug la
ÃŃ da
ĠV ol
ans ea
as afni
ĠaÃ° hald
en tar
ĠstaÃ°fest ingar
ĠverkalÃ½Ã° shreyf
ĠBirgi sson
Ġt im
ĠD en
ĠfÃ¡tÃ¦k t
b ekk
Ġsm ekk
ĠK efl
Ġhaf Ã°ir
Lag t
Ald rei
ĠÃ¡ra tuga
S ku
ĠfyrirtÃ¦k is
blaÃ° inu
L ang
ĠkjÃ¶r inn
Ġk nÃ½
ĠAustur rÃŃki
Ġvin konu
ĠljÃ³ sm
ĠÃ³ nÃ½
lÃ¦k nis
ĠStefÃ¡n sdÃ³ttir
ĠSt einn
ĠKat rÃŃ
ĠÃ¡hug amÃ¡l
b Ã¡t
NÃ¡ nar
viÃ° skipti
ĠSnor ri
ssk ip
ĠbÃ¶n kunum
afram leiÃ°
ĠspÃ¦n ska
Hv or
kl Ãºbb
gar Ã°i
m Ã¦tt
Ġ12 5
Ġ196 8
ĠH alld
ĠÃ½m iss
ĠStokk hÃ³l
au ga
ĠÃŃslensk s
ĠfjÃ¡rhÃ¦Ã° ir
sst aÃ°a
ĠfÃ¦Ã°ingar orlof
Ġskip inu
arf jarÃ°ar
F ar
c y
Ġd jÃº
ĠL jÃ³
ĠH of
Ġleig ja
Ġbarn sins
ĠhÃºs um
Ġheim sstyr
ĠbÃ³k um
Ġsp ari
na sta
ĠvÃŃ Ã°ast
ĠvirÃ°isauka skatti
Ġt ra
ĠumrÃ¦ Ã°an
ĠLÃº xem
var Ã°ar
ab Ãº
bur Ã°a
f rÃ¡
Ġlof aÃ°
Ġmerk ingu
an ar
t r
ĠFyl kis
Ġg Ã³l
Ġendur tek
Ġsam ver
ĠbÃ³k hald
Ġa pp
Ġfr Ãº
M jÃ¶g
Ġrek sturinn
bÃº i
sl ist
Ġsigur mark
Ġb ei
ĠEng land
ĠS jÃºkra
Ġfrum kv
ĠhÃ¦li sleit
ĠÃ³ met
ĠrÃ¦ Ã°ust
Ġyfir valda
Ġd eyja
ĠY ou
ĠhÃ¶f Ã°a
veg ur
ĠB Ã¡r
ĠfÃ³t bol
ĠtÃ¦k ja
Ġlist anum
arfÃ©lag s
Ġvon brigÃ°um
Hef Ã°i
ĠH in
Ġsm ÃŃÃ°
Ġfinn ur
gr und
E ndur
em ent
Ġfinn ast
Ġhver jar
Ġrefs ing
arf ull
ĠHver nig
ĠÃ¡grein ing
ĠlÃ¡n iÃ°
Ġeftir minn
k erfisins
ĠÃ¾ol inm
na pp
Ġleik hluta
ĠÃ¾ing kos
R eg
ĠÃ¡ tÃ¶kum
âĢ ľ
ĠrÃ¶k sem
Ġbanka hrun
T V
ei p
Ġf Ã¦ti
ĠStjÃ¶rn unni
Ġfr Ã¶nsku
na tional
F Ã¡
n am
ĠviÃ°urken ndi
H M
Ġvin Ã¡ttu
Ġset ningu
Ġhel sti
fyrirtÃ¦k ja
lag iÃ°
Ã¦ ja
Ġgam alt
ĠÃ¾Ã©tt bÃ½li
Ãį s
epp nina
if r
Ġhr l
ĠvinsÃ¦ lda
ĠHoll ywood
Ġgest a
ĠPÃŃra ta
ĠÃ¾ekk ta
ĠstjÃ³rnarskrÃ¡ nni
ĠreiÃ° i
Ġung ra
ĠRich ard
na uÃ°
M A
al eyfi
Ġs ofa
Ġhv atti
ĠVestf jarÃ°a
ĠÃ³ vÃŃst
ĠE iÃ°
ĠR Ã¡Ã°
kom an
Ġ17 0
Ġe ystra
Ġt Ã©
ĠatvinnulÃŃf inu
i bl
ĠhÃºsnÃ¦Ã°i s
Ġgeg ndi
ĠstarfsfÃ³lk s
ĠSt aÃ°an
Ġr Ã³t
7 8
qu e
er o
Ġh Ã¶ldum
Ġat kvÃ¦Ã°agreiÃ°
ĠerfiÃ° ar
ĠSÃ³l veig
kum Ã¡l
Ġr aÃ°
ing anna
Ġfram sal
ĠOrku veit
s Ã¶ng
Ġaf borg
s jÃ³Ã°ur
A rn
Ġsaman lagt
Ġendur gjald
Ġ195 5
Ġkr y
ĠrÃ¦k ilega
Ġfram iÃ°
ĠhÃ¡deg inu
Ġfylg du
if orn
Ġgeg nt
JÃ³ nas
K ol
s iÃ°
ak aup
d en
Ġums Ã³knir
r Ã¶nd
sk ÃŃr
Tal smaÃ°ur
Ġslysa deild
ĠR ed
ĠÃŃ r
naÃ° ir
ĠlÃ¡gmark i
z y
oÃ° iÃ°
out hampton
w ich
ĠK Ãº
ĠÃŀjÃ³Ã° leik
ĠvÃ¦ ng
Ġstol tur
Ġbyr juÃ°u
ĠstjÃ³rnarandstÃ¶Ã° unnar
Ġst aÃ°ur
Ġgreidd u
Ġ jar
Ġat kvÃ¦Ã°agreiÃ°slu
Ġdval ar
tek t
ĠK im
s vÃŃk
aÃ° gerÃ°um
ĠAF P
Ġveg far
ĠBaug s
ĠviÃ°skiptav ina
Ġglugg a
Ġs aka
ĠT o
ĠÃģs dÃŃs
ĠbÃ³k arinnar
Ġbir tast
ĠhÃ¶f undur
ĠsÃ©r hÃ¦f
ĠbÃ³ lu
ĠF ann
ĠÃ¾r eng
ers Ã³nu
men ni
Ġkart Ã¶f
Ġauk nu
eld u
Ġskipulag i
kr af
anir nar
arf Ã³lk
Ġvik unnar
ĠtÃŃÃ° kast
ou se
j endum
Ġl og
ĠsannfÃ¦r Ã°ur
ĠGuÃ° bjar
ĠRey Ã°
Ġ195 8
i v
ĠÃ¾ing manns
vald s
ĠstaÃ°fest ir
Ġk a
ĠfÃ©kk st
fr jÃ¡l
stÃ¦ Ã°ar
ĠJ ones
Ġtald ar
Ġhagn aÃ°i
ĠviÃ°urk ennir
Ġbisku p
ĠÃ¾Ã¡l till
Borg ar
ĠstÃºlk an
Ġn yt
Ġrit stjÃ³ri
at s
Ġdreg in
Ġb ylt
ĠframtÃŃÃ° ina
sf rÃ¦Ã°i
Ġmak rÃŃl
ĠlÃ¶gregl una
ĠÃĵskar sson
ĠÃºt rÃ½
ĠfjÃ¶lg aÃ°i
ĠvÃ¦n ti
ĠBjÃ¶rn s
nas onar
ĠsÃ©rstak s
R Ã¡Ã°herra
Ġgjald eyri
ĠCh rist
ĠnÃº v
n unni
Ġ196 7
af und
ĠM ay
ĠÃ¾ en
f anga
sleg ur
ĠrÃŃk jandi
ĠFrjÃ¡l slynd
ĠfrÃ©tta vef
ĠÃ¾ okk
ĠS l
ĠHallgrÃŃm sson
ĠÃ³Ã¾ ekk
Ġskor tur
Ġf iÃ°
frÃ¦Ã° inga
ĠrÃ¡Ã°stÃ¶f unar
B yr
ĠS im
ĠHjal ta
Ã¶tt um
ĠhÃ¦f ilega
ĠnÃ¡Ã° um
ĠkvÃ¶ld sins
U n
ĠÃŀ ann
ĠVeg agerÃ°arinnar
Ġd vÃ¶l
en nar
ĠIngÃ³lf sson
Ġsm jÃ¶r
Ãº sta
sn Ã¡m
Ġm eistara
ast arf
ĠskaÃ°ab Ã¦tur
aÃ° stÃ¶Ã°u
t Ã¶ldum
Ġv ildum
ĠvÃ¦nt anleg
F ulltrÃºar
Ġhi ttast
el lu
ĠslÃ¡ tur
ĠstÃ¶Ã° var
ĠD Ã³m
Ġhrun iÃ°
ĠÃĵsk ars
ĠleiÃ°t og
f Ãºs
ĠSp Ã¡nar
Ġt reg
Â° Â°
ileg ustu
Ġd al
ver Ã°an
Ġaf li
Ġto gar
ĠhvaÃ° an
laus nar
ĠsjÃ³ Ã°urinn
sl Ã¡n
ĠflÃ³k iÃ°
ĠkvÃ¶ld in
Ġkyn ningu
ĠÃŃsl am
Ġd u
j ana
ĠÃ¾ Ã¶kk
Ġst eyp
Ġsty Ã°ur
Ġmannesk ja
y tt
ĠÃ¾ekk ingar
ĠalÃ¾ingis maÃ°ur
ĠsÃ©rstak ri
Ġmeng un
kost naÃ°
ĠvÃŃsind amenn
ĠlÃŃ Ã°an
Ġsty tta
Ġrefs ingu
uk nattleik
Ġ19 50
R a
sk rar
ĠundanÃ¾Ã¡ gu
Ã¾jÃ³nust an
Ġg rim
ĠDag ur
ĠA mer
Starf smenn
h efur
Ġfall in
Ġalmen nar
Ġgjald daga
Ġhagn Ã½
e u
ĠmÃ³t sins
h Ã¡tÃŃÃ°ar
Ġvel tu
Sam tals
Ġframhald iÃ°
Ġleik hÃºs
Ġreik ninga
org i
Ġfr Ã¡l
ĠlandsliÃ°sÃ¾jÃ¡lf ari
jÃ³ Ã°um
Ġfull an
Ġundirrit aÃ°ur
g ju
ĠÃ¡gÃ¦ ta
ĠK ast
ĠsambÃ¦r ileg
ĠÃ¶r yrkja
sk Ã¡
ug l
Ãĸ kum
Ġsamband iÃ°
ĠfÃŃn t
R e
ĠSund erland
Ġr jÃ³
ĠRÃŃkisÃºtvarp iÃ°
ĠsÃ¦n sku
Ġsvar iÃ°
Ġtilkyn ning
Ġfermet ra
sk Ãºr
arf or
Ġhlut haf
Ġey kur
Ġborgar stjÃ³ra
erÃ° ir
Ġeink unn
natt spyrnu
ĠÃ¡ byr
Ġskyld um
ĠhÃ© Ã°an
o sti
ĠÃ³sk um
ĠÃ¾ rÃ¦
ĠviÃ°skiptav inum
Ġum gengni
m s
ĠutanrÃŃkis mÃ¡l
Ġg arÃ°i
tu stu
ĠThom as
ĠskÃ½r slur
Ġdvel ja
sv ein
Ã¦r in
ĠstjÃ³rnar innar
Ġm aka
Ġeinhver ri
Ġein hliÃ°a
ĠathÃ¶fn in
Ġgef ist
ĠÃ¾jÃ³ na
Jafn vel
ĠskÃ³ lag
Stefnd u
aÃ° stoÃ°
Ġfang els
ĠBolungar vÃŃk
an legri
ĠB olton
Ar nar
ĠkveÃ° jum
or i
yn n
sam ur
Ġsaf nast
Ġsla pp
sÃ¶g num
Sig rÃºn
H enni
Ã¾jÃ³nust unni
Ġaugna blik
Ġfyll ilega
ĠlÃ½s ingu
rÃ¡ sar
Ġmisser um
Til kyn
Ġsamh ljÃ³
ĠÃ¡Ã°ur nefnd
ĠfÃ¦ Ã°u
Ġvit naÃ°
ĠhÃ¡tÃŃÃ°ar innar
Ġ197 7
ur a
l eigu
Ġvin kona
B jÃ¶rgunar
jÃ¶r nu
ĠÃŀ jÃ³r
Ġaf not
Ġp und
Ġsam skipta
kvÃ¦Ã° iÃ°
ĠLandsbank anum
ĠfjÃ¡rm agni
st Ã¦r
aÃ° iÃ°
rÃ³ Ã°ir
Ġafgrei tt
ĠhvÃŃ ld
Ġg Ã¶tum
Ġsil fur
Ġk ipp
ĠÃ¾jÃ³ nar
ĠlÃ¡ tist
ĠbÃ¡ ta
ĠÃ¾ung t
ĠhÃ³p sins
ning anna
lÃ¶g in
HÃ©raÃ°sdÃ³m ur
Ã¾jÃ¡lf ari
ĠÃ³ljÃ³ st
ĠrÃŃki slÃ¶greglustjÃ³ra
vÃŃ u
Ġam fet
ĠSÃ³l rÃºn
K A
g ri
ĠsjÃ¡lf st
ĠrÃŃkisborg arar
ĠJ er
ĠhÃ¶fuÃ° stÃ³l
St uÃ°
ĠhlÃ½ ju
Ġ196 1
Ġinnheim ta
dd ist
Ġflug vÃ¶ll
haf s
Ġefnahag smÃ¡lum
hlut ans
ĠauglÃ½s ing
ĠSk Ã³la
Ġfram s
Ġsly ssins
ĠHalldÃ³r s
ĠrÃ¦k tun
Ġat burÃ°ar
ĠLei cester
Ġb at
Ġfylg ist
en cia
Ġ ch
Ã³nu s
Ġland sk
Ã¶g uleik
br and
ĠrÃŃkiss katt
her s
en ce
ĠFyl ki
ĠbifreiÃ° ar
Ġeinstak t
r os
ĠsekÃº ndu
endur nir
ĠKaup Ã¾ing
ĠF Ã³lk
Ġ10 3
ĠmeiÃ° sl
Ġreg la
Ġskamm s
BÃº iÃ°
Ġsveitar stjÃ³r
Ġung lingar
ĠJohn son
ei far
y an
ĠmiÃ° ast
Ġv efnum
ĠÃ¾Ãºsund ir
Ġtilvil jun
Ġs endum
ĠstjÃ³rn un
Ġn aum
H jÃ¶r
Ġbygg jast
ĠSamfylk ingar
ĠR os
Ãģ sgeir
ĠhljÃ³ p
Ġheild ina
ĠÃ¾ung a
ĠÃºtsk Ã½ra
Ġfram burÃ°i
ĠnÃ¡ ist
ĠstaÃ°fest ur
ĠlandbÃºn aÃ°
vi a
Ġregl na
hrepp s
Ġfat l
viÃ° s
ĠP e
ĠV ar
skap ar
sl and
Ġstof nuÃ°
epp ninnar
mÃ¡l inu
ĠÃºt landa
eftirlit sins
Ġum hyggju
ĠrÃ¡Ã° gjafar
naÃ° a
ĠS ol
ĠÃ¾r Ã¡
b akk
gjÃ¶r Ã°
ĠÃŃtal ska
ĠRey kja
ĠSt ar
ĠveiÃ° um
ĠÃĵlafs vÃŃk
Ġhreins a
Sig mundur
ĠhlutabrÃ©f um
Ġbr una
Ġvit nis
ĠmannrÃ©tt inda
ĠG az
Ġskap ar
Ġ196 6
ĠfiskveiÃ° ist
ÃŃm ann
bur n
ĠKal iforn
vop n
or Ã°um
d l
tÃŃm i
ĠniÃ°urskur Ã°
ĠsjÃ¡varÃºtvegs rÃ¡Ã°herra
arg Ã¦slu
ĠgjaldÃ¾r ot
N I
Ġsker Ã°a
ug ur
Ġskip aÃ°i
ĠfjÃ¡rlag anefndar
h et
ĠÃºt lÃ¶ndum
ĠalÃ¾jÃ³Ã° legu
sh lu
Ġhugs anlegt
ĠfjÃ¶lmÃ¶r g
ĠlÃŃkam s
ĠF C
H Ã¡l
Ġtap i
ĠMÃ½ vatn
eg o
Ġvar amaÃ°ur
ĠkjÃ¶r um
h Ã³li
ov a
ĠPalestÃŃnum anna
ĠmÃ¦li kv
le Ã°i
ak eppni
Ġfram ar
ĠÃ¡r Ã¡
ĠÃŀÃ½skal and
heim inum
ĠE ins
ĠsÃ½ ninguna
verÃ° mÃ¦ti
ĠFrÃ©ttablaÃ° iÃ°
ĠÃ¡kveÃ° ur
ag l
sst aÃ°
Ġh ill
mann sins
sg jald
ĠT indast
Ġvinn unni
ĠlÃ½ stu
Ġverkefni sins
ĠÃ¾ re
ĠGre en
Ġm sk
i zt
ĠN a
Ġtil boÃ°i
ĠÃ¡li ta
aut jÃ¡n
ĠSt jÃ³rnar
Ġvar ir
Ġupp boÃ°
ĠsamfÃ©lag s
Ġnafn inu
Ġh rak
ĠEirÃŃk sson
ĠheimsÃ³tt i
Ġtru fl
ĠW enger
ĠÃ¾ ÃŃnu
Ġf agnar
ĠÃŃbÃºÃ° inni
ĠÃ¡g Ã¦tis
ĠmÃ¡l atil
Ġh ik
vald ur
Ġeld g
Ġfrem stu
h ygg
Ġfram boÃ°i
gang urinn
ĠS tu
kk an
Ġsveit arinnar
sÃ¦ i
ĠL S
isk os
enn andi
ĠÃįslandsm Ã³t
ĠV en
ĠÃŀ rÃ¡
Ġs eldur
sk yn
at Ã¶ku
ĠrÃº ma
ĠbÃºs ett
ĠÃ¾ing fest
v ig
ĠSkÃºla son
Ġaldur s
Ġd Ã¶kk
ĠIn st
ĠF L
Ġkjar na
Ġdr Ã¶g
ĠlÃ¶g frÃ¦Ã°i
Ġbrot in
Ġ195 9
ĠviÃ°miÃ° unar
ĠBir nu
ĠLand ss
arf yrirtÃ¦k
ast aÃ°
ĠpÃ¡ ska
Ġfr els
DÃ³m ur
MarkmiÃ° iÃ°
sam nings
verÃ° launin
Ġpla ta
Ġand lega
tÃŃÃ° in
inf Ã³nÃŃu
ĠMagnÃºs ar
Ġbir g
Ġsvip uÃ°
lÃŃ fi
ĠÃŀÃ³rar insson
la pp
Ġborgar stjÃ³rn
Â ´
ĠnÃ½skÃ¶p un
ĠInter national
Ġvand lega
Ġr of
ĠfjÃ¶lmÃ¶r gum
ĠfjarlÃ¦g ja
Ġ ag
Ġs Ã¶f
Ġbr un
ĠÃºr lausn
Ġskatt greiÃ°
h u
Ġskip sins
GuÃ° ni
L D
verk iÃ°
ĠPÃ©tur s
Ġatvik iÃ°
yg lÃ³
Ġvitnesk ju
at eng
ĠstÃºl ka
d el
is st
ĠmÃ¦l st
Ġg as
ĠB ag
ĠÃ³ tt
s rÃ©tt
Ġumhver fiÃ°
b einn
Ġhlutfall slega
ĠÃ³f ull
d rif
ĠverÃ°lag s
ĠrÃ©tt ilega
Ġhugmynd in
lif andi
Ġfj vn
Ġfyrir mÃ¦li
Ġstarf inu
ut ÃŃu
ĠnÃ¡grann al
x e
Ġkeyp tu
jÃ¶l l
Ġ196 3
na hag
Ã¡r in
Ġsv eif
ĠF is
ĠfÃ¦r Ã°i
g unar
ĠlÃŃfeyriss jÃ³Ã°a
ĠSkarphÃ©Ã° insson
ÃŃm ab
Ã¡ kÃ¦r
Ġkosningar nar
Ġeinb eita
ĠA li
ĠB au
Ġ194 4
ĠPÃ³ll andi
sk erfi
ĠFjÃ¶l nir
vir kja
Ã¡ rum
Ã½s ingu
asam taka
8 9
vi sku
Ã¶ ss
ĠauglÃ½s a
um ferÃ°
orÃ° iÃ°
Ġundir skrif
o ga
ĠbÃŃ Ã³
Ġbund in
SjÃ¡lf ur
ĠAlÃ¾jÃ³Ã°agjald eyrissjÃ³Ã°
B erg
ĠlÃ½Ã°v eld
Ġ196 9
ĠÃŀÃ³r ir
ĠÃ¡rangur s
ĠnÃ¡l Ã¦g
Ġveru legu
G ott
Ġh iti
ĠaÃ°stand endur
Eng ar
Ġbrug Ã°iÃ°
ang ar
st aÃ°ur
Ġhl eyp
Ġflutt ist
ĠVal gerÃ°ur
BÃº ist
ĠhÃ¡lf s
ĠAg nar
et s
Ġ9 00
ĠstÃºdent sp
S Ã¶ng
ĠumboÃ° smaÃ°ur
Ġmeidd ist
Ãŀ jÃ³
ĠgÃ³Ã° ra
Ġskemm dir
Ġr ÃŃfa
ÃŃn ur
ĠGuÃ° bjÃ¶rg
Ġlof tiÃ°
Ġeigin maÃ°ur
SjÃ¡lf stÃ¦Ã°i
Ġgr ann
Ġmun urinn
ĠÃįslen ska
un kt
Ġbl Ã¶nd
Ġ196 5
f in
ofn unum
f jall
Ãŀ Ã¡tt
ĠF ulham
ĠyfirlÃ½s ing
ĠhÃ¶r ku
Ġfund a
ĠD jÃºp
Ġrey num
hljÃ³Ã° andi
Ġvar aÃ°
Ġstyr kur
M Ã¶rg
rÃ¦Ã° iÃ°
ĠgÃŃfur lega
ag eym
li e
ĠL ÃºÃ°vÃŃk
Ġskil greina
y ti
ĠSigur bjÃ¶rn
mÃ¡ nuÃ°i
ĠSverri sson
G am
arÃ¶Ã° inni
Ġeld ra
Ġkost um
ĠArnar son
ĠFrÃ©ttablaÃ° sins
Ġs Ã¶nnun
ĠlandbÃºnaÃ°ar rÃ¡Ã°herra
Ġdre p
lau sa
ĠGuÃ° rÃºnar
ĠGuÃ° rÃºnu
ver jum
ĠGuardi an
V est
Ġsv eifl
ĠleikmaÃ°ur inn
w en
sam ningum
ĠBjarna dÃ³ttir
S Ã¦
Ġlands framleiÃ°slu
sl aga
r al
hÃ³p a
ĠÃ¾r ot
Ġs Ã½r
Ġsend u
hlu tum
ÃŃa sson
Ġkraf ta
ĠstÃ½r Ã°i
Ġ an
ĠhÃ¶nd unum
Ġ10 2
ĠsÃŃld ar
Ġkaf li
Ġbl eik
Ġm unar
ĠprÃ³sen tum
Ġskip tingu
sh n
ĠauÃ°veld lega
M eira
ĠrÃ¡Ã° sins
Ġandlit iÃ°
f it
Ġ196 2
ĠSt arf
mÃ¡l in
ĠviÃ° hor
19 5
Ġ36 5
Ġsm ÃŃÃ°a
Ġkirkj unni
ĠJÃ³n sdÃ³ttur
ĠSam bands
Ġr Ã¶Ã°um
ĠljÃ³ Ã°a
A ug
flokk urinn
Ġsamein ast
ĠB S
Ġneit ar
Ãº a
Ġd Ã¦
Ġhr aÃ°ar
ĠSkip ulag
samning num
Ãº ssonar
ĠskoÃ° unum
ĠL Ãį
g en
rek stur
und sson
Ġvest ra
av a
ĠJÃºlÃŃu sson
ĠsÃ¦ l
ĠHafranns Ã³knast
ĠÃ¡rÃ¡s inni
ĠviÃ°skiptavin i
Ġvir kja
ec t
Ġborg in
Ġyfir borÃ°
T h
j Ã¶kul
ĠH S
Ġst imp
B ÃŃ
ĠsamÃ¾ykk tar
ĠS ir
Ġgr ill
ast Ã¶Ã°um
ĠÃ³lÃŃk t
oni o
Ġey Ã°i
mark miÃ°
Ġ196 4
ĠL ista
her berg
Ġskemmtileg ur
Nokk ur
ĠkÃ¶rfu bolta
ĠB ess
Ġfyrr v
ĠÃ¡hrif a
breyt ingum
ĠRo b
bb i
Ġd ram
Ġsvo hljÃ³Ã°andi
ĠfÃ³t bolt
ĠÃ³g ley
Ġsam tal
Har aldur
Ġeindreg iÃ°
c on
s ey
ĠsjÃ¡lfstÃ¦Ã°i smenn
ĠorÃ° aÃ°ur
Ġmat vÃ¶ru
ssk Ã½r
sk ort
hv arf
NiÃ°ur stÃ¶Ã°ur
ĠFram kvÃ¦md
amenn sku
Ġborgar ar
ĠnÃ¡ iÃ°
ĠÃ¾or p
Ġfl ot
ĠsvÃ¦Ã°i sins
ĠHu lda
ĠferÃ° amÃ¶nnum
Ġumhugs unar
ĠSk aft
Ġv eiti
leik inn
H iti
ĠD aÃ°i
Ã³l eik
Ġkepp in
rau tar
Ġminnk aÃ°i
arf jÃ¡r
ĠB ur
ĠB or
j allaÃ°
Ġfram Ãºr
ĠvÃŃÃ° s
ĠFyl kir
ĠGlit ni
ĠhjÃ³na band
Ġ jÃ¶r
t eig
ĠfÃ³r st
ov e
ĠÃŀann ig
rÃ½ mi
Ġ >
BÃ³k in
ĠSkag afirÃ°i
Ġgist i
op n
Ġhug arf
Ġflokk inn
Y R
ĠD on
afÃ©lag inu
ei stur
Ġja p
h liÃ°
Ġkepp nis
Af tur
Ġspenn u
Ġsli tast
Ã¶l sku
V oru
ost on
Ġ195 6
ning inn
ĠAtlantshaf s
st Ã³r
ĠaÃ°st Ã¦Ã°
Ġvak na
I K
al egar
Ġrey nist
Ġf Ã¦kkun
Ġsig rinum
ĠerfiÃ° leika
bjar nar
boÃ° aliÃ°
n una
ĠendurnÃ½ jun
ÃŃm um
ann sins
Ġf ir
ag t
ol e
ĠKÃ¡rahn jÃºka
Ġeld ur
4 1
ĠaÃ°al meÃ°ferÃ°
8 7
ald s
ssk rÃ¡
ar ans
ĠÃ¾Ãºsund a
Ġeig endum
pÃ³ lit
Ġflut ningi
Ġhug ar
Inn an
Ġleik slok
it al
ĠStef an
skur Ã°ur
t unum
n r
ĠTyrk landi
ĠStykkish Ã³lmi
Ġh rÃ³p
Ġfleir um
Ġp all
Ġaf nÃ¡m
Ġdreng ur
Ġst illa
ĠhÃ¦kk unar
ĠH lÃŃÃ°ar
rÃ¡ Ã°u
Ġfelld ur
Ã¡r dal
iss ur
hÃ³p num
Ġh Ã¶nnunar
Ar on
eig nir
Ġkarl maÃ°ur
ĠumrÃ¦dd um
ĠlÃ¦kk unar
Ġendur skipulag
Ġvin Ã¡tt
ĠskÃ³l inn
ĠM ak
ĠmÃ¡l flutningi
ĠaÃ° spurÃ°ur
an ey
ĠhjÃ³ la
Ġer ind
er Ã°ar
Ġskynsam legt
Ġend ar
ĠHring braut
ĠSk y
ĠsvÃ¶r um
ĠÃŃ huga
ĠR od
HÃºs iÃ°
Ġhitt umst
Ġendur taka
ĠlÃŃkamsÃ¡ rÃ¡s
Ġvon brigÃ°i
au kur
amark aÃ°
Ġkon unnar
Ġgrein ingu
ĠpÃŃan Ã³
Ġlif Ã°i
k ust
af ell
ĠKaliforn ÃŃu
hel m
ĠU nd
s Ã¾jÃ³nusta
ĠtÃŃmap unkti
Ġgef ast
Ġungmen na
ĠsÃ© ra
st yrk
ĠÃ¦vint Ã½ri
sh repp
Ġtil ver
FriÃ° rik
ĠdÃ¦m dir
H var
Ã¡Ã° ir
ĠP la
arkost naÃ°ur
Ġungmen ni
ĠbrÃ© fa
Ġk ind
ĠstÃ¶ ddu
f ast
Ġ195 4
ĠA pp
ĠSw ansea
Ġverk in
ĠÃŃs rael
Ġheim amanna
ĠÃ³s Ã¡tt
Ġhorf Ã°i
leik ari
Ġgr afa
ĠvÃ¶r slu
ĠBirk ir
e tti
ĠfÃ©lag sska
v ant
Ġp o
n ana
Ġtit ilinn
ĠIÃ° n
Ã¡ ta
Ġd etta
Ġsk jÃ¡
b yss
Ġm agni
skatt ur
ĠrÃŃkis Ãºtvarp
Viss ulega
re s
Ġfram fyl
w e
ĠfÃ¡ ein
ĠM Ã¼
ĠÃºrvals deildarinnar
es e
Ġheyr ir
ĠBÃ¦ nd
Ġfyrirhug aÃ°
sl ey
Ġauk nar
ĠÃ¶rfÃ¡ um
Ġtug i
ĠlÃ¶g frÃ¦Ã°ingur
ĠSam tÃ¶k
a i
okk urinn
ning num
Ġmennt mrh
Ã¡l s
ĠtjÃ³n s
and alag
ig an
Ġ10 9
ei s
ĠviÃ°tal inu
M Ã³Ã°ir
var n
Ġdug leg
ĠdÃ¦m iÃ°
Ġfram fÃ¦rslu
Ġt ÃŃÃ°ar
N N
blÃ¡ stur
ĠsÃ©r stÃ¶Ã°u
ĠjarÃ°ar innar
Ġbolt inn
Ġupplif aÃ°
ĠHarÃ°ar dÃ³ttir
as jÃ³Ã°
Ãº k
Ġfor tÃŃÃ°
ĠÃ³sam mÃ¡la
Ġmiss eri
ĠhÃ³p ar
ĠÃ¡kv Ã¦Ã°a
ĠÃŃ hug
ĠlÃ½s i
ĠstÃ¶ dd
ĠbÃ³k un
n y
s dal
Ãº f
Ġaf mark
Ġsl Ã¶
ĠH raun
H all
ĠFl Ã³r
bank inn
Ġv Ã¶rÃ°
ĠT e
ĠM ed
lega st
ey gja
ĠKristjÃ¡n s
ĠSand gerÃ°i
Ġh dl
ĠÃ¡ lÃŃka
EC D
ĠHalldÃ³r sdÃ³ttir
ĠstjÃ³rnarflokk anna
x f
K ar
NÃ½ ja
s ef
Ġsig la
ĠG old
i kk
reg lan
Ġskrifstof ust
ĠEgyp tal
ĠmÃ³tmÃ¦l ir
Ġsend ingu
Ġtopp i
FjÃ³r ir
ĠdÃ³mstÃ³l um
Ġmynd avÃ©l
Ġt ort
S M
ĠÃ¾ Ã³knun
ĠrÃ¡Ã° amenn
um aÃ°ur
rÃŃk janna
as Ã¶m
ĠRÃŃk iss
Ġl und
Ġhugs anleg
h ann
Ġheil u
ĠSnÃ¦fell snesi
Ġkost aÃ°
ĠrÃ¦Ã°ust Ã³l
ĠMeistara deildinni
ĠnÃ½skÃ¶p unar
am eistari
Ġd ettur
od af
at Ã¶lur
Ġhreyf ingu
Hel stu
ĠverksmiÃ° ju
h rif
ĠrÃŃkisst jÃ³r
Ã³ si
L it
ĠÃºt svar
ĠD onald
Ġver r
ĠLÃºxem borg
la unum
ĠfrÃ¦ nda
F H
Ġh yl
Ġsn jall
h im
Ã¡ hug
ĠgÃ¡ tum
Ġl Ã³n
Ġgeym slu
ĠC or
ÃŃ an
ĠfjÃ¡r fram
ĠP ÃºtÃŃn
li ki
ĠGr ind
ĠÃ¡hyggju efni
Sv einn
ĠÃŃ hald
ĠRÃºss ar
Ġveik inda
en i
Ġ10 6
ĠRo oney
ĠfÃ¦Ã° ingu
sl Ã¦k
S E
f eng
ĠA dam
Ġlang tÃŃm
ĠfjÃ¡rlag afrv
Ġs Ã¶kk
Ġskip ulÃ¶g
ĠhvÃŃ t
ĠLau f
ĠA ss
ĠtÃ³nleik unum
ĠLandsbank inn
arf rÃŃ
KvaÃ° st
ĠK om
Ġlist amann
afl Ã³a
ĠsÃ½k naÃ°ur
Ġy tra
ig a
Or Ã°
odaf one
ĠS Ã½
skost naÃ°ur
F R
sk r
ĠK eil
Ġv ex
S r
Ġm Ãºs
Ġmennt unar
Ġl eiti
ĠLeif s
ĠbÃŃl sins
Ġrannsak aÃ°
Ã¶g un
ĠlÃŃ tt
Fyr sti
âĢ¦ ]
Ġs Ã¶lum
AÃĲ UR
Ġ11 5
B I
ĠSm ith
ĠHar ry
Ġafur Ã°a
veg inum
ĠvÃ¦g i
amÃ³t in
ĠJakob sdÃ³ttir
al ey
bÃ¦k ur
z e
Ġvaf alaust
ĠN BA
Ġd eginum
Ġgrein ilegt
ĠD Ã³ra
if f
ĠB ill
afÃ©lag a
ĠspÃ¦n sku
ĠgagnrÃ½ ndi
ĠfrÃ¦ ndi
unefnd ar
at h
li pp
ĠBr own
ĠA G
ĠÃŀ ess
end anna
ĠnauÃ° ung
ĠW il
G engi
Ġk ald
ĠhÃ¡ ar
Ġminnk andi
Ġfull nustu
Ġfylg d
19 6
NiÃ°ur staÃ°an
Ġskip i
ĠH ill
ĠSigurÃ° ssonar
Seg ja
sl Ã³Ã°
Ġl am
H and
ĠÃĵlaf i
ĠS outhampton
ĠHen ry
ĠtÃ³n skÃ¡ld
ĠhÃ¡l end
ĠhÃº fi
ĠAkran ess
Ġverk tak
Ġatvinnul ÃŃfiÃ°
Ġflut ninga
ming ham
f la
rÃ³ fi
Ġend alaust
ĠjÃ¶r Ã°u
ning ja
h arÃ°
ĠÃ¦tlu Ã°
ĠfÃ©lag slega
7 00
ĠN ic
Ġflug eld
ĠhÃ¦kk andi
ĠsÃ¡tt ir
Man chester
Ġv ond
Ġerlend ar
j er
ĠHÃ¡ skÃ³lann
MikilvÃ¦g t
ĠeyÃ° il
ĠbÃ¡ ga
Ġleidd u
aÃ° u
ĠF annar
ĠÃ³hjÃ¡kvÃ¦m ilegt
Ġtr jÃ¡
ĠfrÃ¦n ka
Ġm il
ĠrÃ¦k ta
skur Ã°
ĠSt re
RÃº m
ĠF erÃ°
ĠverÃ°bÃ³l ga
ĠsÃ½ ndur
Ġvef sÃŃÃ°
if Ã©lag
eg a
Ġum mÃ¦lum
Ġsystk ina
b Ã¦ri
Ġhug ur
ĠEy Ã¾Ã³r
Ġland slag
ĠdÃ½r t
Von andi
ĠA ld
efni s
ĠsjÃ¡ st
ĠknÃ½ ja
Ġh ey
ĠHeil brigÃ°i
Ġkepp endur
ĠNÃŃ ger
om e
Ġsvip tur
eistaratitil inn
Ġfull n
ĠtÃ¦k jum
O p
ĠÃ¡ skil
A fi
Ġh enda
Ġg oÃ°
Ġsystkin in
hÃ¦ fa
ĠmiÃ° ja
ww w
Ġsner ta
Ġhlutir nir
ĠmÃ¡l sl
jal ar
ÃĿ m
Al Ã¾ingi
Ġmeng unar
Ġ[ âĢ¦]
ĠRagnar s
Ġvei slu
SÃŃ Ã°asta
ĠtÃŃmabil sins
JÃ³hann es
ĠÃģlf tan
Ġfundar ins
Ġflu gum
ĠvÃ©l inni
dag ar
ĠP an
ar n
reiÃ° slur
trygg ingar
Ġvar anleg
Ġfisk im
ĠrÃ©tt l
ĠÃŀÃ³r dÃŃs
ĠHermann sson
ĠfÃ©l mrh
bu x
ĠBandarÃŃkja dal
blaÃ° sins
Ġk or
ĠsjÃºkra hÃºsi
ĠvinsÃ¦ l
b Ã¶ndum
Ã¦tis rÃ¡Ã°herra
Ġskil st
vik mynd
Ġsann leik
ĠJÃ³hanns dÃ³ttir
ĠÃ¾jÃ³Ã°arat kvÃ¦Ã°agreiÃ°
ĠrÃ³tt Ã¦k
ĠÃ¾yr lu
ingar nir
ĠrÃŃk ari
ad ing
ĠFljÃ³ ts
ĠvarÃ°v eita
ĠprÃ³sen tust
vÃŃs ind
Ġgef nar
ĠverÃ° launin
Bir gir
Ġl Ã³Ã°ar
K rafa
ĠmarkaÃ° inn
tÃ¦k t
ag jÃ¶f
Menn irnir
ger andi
Ġh jÃ¶r
til egar
ĠW e
ken nari
ĠbrÃ¡ st
Ġskor ar
ĠfjÃ¡rveit ingar
Ġkl Ã¦Ã°
sn Ãº
e ind
Ġeigin fjÃ¡r
ĠheilbrigÃ°i sst
ĠSauÃ°Ã¡rkrÃ³ ki
ĠdÃ¦m di
ĠhvÃŃ la
Ġerf iÃ°ur
Li verpool
ĠÃ³f Ã¡
G eng
Nokk rir
ĠM ill
ĠaÃ° ferÃ°um
ĠfrÃ³Ã° legt
ĠfÃ¦r ir
ĠÃ¡ramÃ³t um
ĠrÃ¡Ã° un
ĠK i
Ġbl ind
Ġskuld ara
ĠstaÃ°rey ndir
ĠdÃ³m inum
Ġbank ann
el i
ĠskÃ³ gar
Ġleik rit
un ark
ĠElÃŃ as
ĠundanÃºrslit um
ĠSig ga
K UR
sfÃ©lag a
ĠÃ¾y ki
Undan far
Ġatvinnul eysis
ĠGuÃ° finn
ĠÃļ l
as yni
ra ph
Ġung s
Ġfr sm
Ġs est
Ġsam rÃ½
ĠsÃ¡r s
ĠborÃ° inu
ĠBorg arfirÃ°i
Ġsk rey
ĠbandarÃŃsk um
ĠSverri sdÃ³ttir
ĠÃ¡tt ir
Ġfulln Ã¦gt
ĠsnjÃ³ fl
Ġaug n
ĠE v
yÃ° ja
ri ti
Ġupp eldis
ĠG K
ĠÃ³ breyttu
ĠspÃŃtal ans
ĠstefnumÃ³t un
Ġreynd ust
ĠnÃ¦g ja
Ġfyrirkomulag i
ĠN ik
e ing
Ġb an
ĠN Ã³
LÃŃk t
ot h
ĠÃŃbÃºÃ°ar hÃºsnÃ¦Ã°i
Ġmeg um
Ġgeg nir
Ġeinang run
jÃ³n in
Ġpl Ã¶tunni
af ull
ĠfÃ©lÃ¶g in
ĠfÃ³t um
eit anlega
sp Ã¡
Ġsveitar stjÃ³rn
sb Ã³ta
ÃŃ til
Ġand lÃ¡t
Ã¶nd unum
arÃ¡Ã° uneytisins
n inum
ĠhÃ¡lku blettir
ĠÃ¡ sÃ¶k
ĠlÃŃf skjÃ¶r
/ /
ĠL ou
Ġand vÃŃ
ĠfÃ³rnarl Ã¶mb
Ġb yl
ĠB ra
Upp haf
ĠHilmar sson
afn iÃ°
kost naÃ°i
ĠÃ¡hug asam
ĠO ECD
ĠRom a
s orÃ°
lÃ¶g reglu
Marg t
M est
ed s
Ã¶sk un
ÃŃ tar
ĠSvein bjÃ¶rn
ĠfrÃ¦n ku
ĠSt Ã³r
Ġannar rar
afur Ã°a
ĠlandbÃºnaÃ°ar ins
ĠfjÃ¶r utÃŃu
Ġkynnt ar
ĠÃ¡kvÃ¶rÃ° unum
ĠÃŃslensk ur
ĠMa il
Ã¾ yr
Ġdr agi
Ġnota st
ĠH B
i an
ĠHr Ã¶nn
Ġfi skur
sm ÃŃÃ°
: //
Ã³t ek
Ġbrey tti
E A
ĠnÃ½ st
ĠSigf Ãºs
ĠverÃ° brÃ©fa
ĠrÃ¡Ã°ning arsam
al yf
Ġskil ningur
ĠÃŀorvald ur
ĠaÃ°stÃ¦Ã° na
ĠrÃ©tt inda
ut ers
T akk
ĠkÃ¶rf uknattleik
ĠmiÃ° bÃ¦
ĠW ood
Ã¾ ekja
arfÃ©lag sins
ĠframboÃ° s
ĠÃ¾jÃ³Ã°ar bÃº
Ġinn lÃ¡n
ĠfÃ¡ rÃ¡n
lend inga
Ġt Ãºn
A tl
Ġjafn virÃ°i
ĠM un
ĠÃ¡kv Ã¡Ã°um
ĠmiÃ°jum aÃ°ur
efn t
dr ykk
ĠR am
R eik
ĠN eskaup
ĠorÃ° nar
ĠÃ½ tt
ĠfÃ©lag smenn
ĠÃŃbÃº Ã°um
ĠfÃ¡ ist
Ġst afar
t ari
ĠrÃŃkissak sÃ³knara
ĠH alla
ĠleiÃ° ina
Ġd emÃ³kra
Ġd ottiÃ°
Ġhag frÃ¦Ã°i
Ġsk Ã¶mmum
o lu
kom inn
Marg ar
bor Ã°i
ĠÃ³ rÃ©tt
ĠNor Ã°austur
ĠsÃ½ ndar
ĠfrumsÃ½ nd
ĠrÃ³ lega
ĠrithÃ¶f undur
Ġsk arÃ°
Sam an
ĠrÃŃk janna
E G
Ġsam runa
sf yrirtÃ¦k
ĠsÃ½slum anns
ĠhÃ¦f ni
Ġfyrirl iggjandi
h vÃŃ
ak ter
Kjar tan
Ã¦ tta
Ġk alt
B ara
Ġhor fi
ĠsÃ©r t
bank ans
Ġtiltek na
Ġd valdi
ĠF lat
fel li
ĠprÃ³f kjÃ¶r
ssk oÃ°
starf inu
ĠÃ³lÃŃk um
ĠEggert sson
ĠVal encia
Ġheil t
ĠPÃ¡l mi
EF A
ing jum
ss veit
ĠÃŀÃ³r arinn
dag urinn
st aÃ°i
ĠhÃ¦kk anir
7 9
tek jum
Ġ193 6
ĠJÃ³n ssyni
ĠHl ynur
Ġbekk num
leit ni
H jÃ¡l
al e
Ġt olla
Ã¡l k
Enn fremur
Ġheim an
ĠB Ã³k
ĠÃ³ r
ĠbÃ¶n kum
Ġteng t
ĠBr o
Ġf sp
ĠlandbÃºn aÃ°i
au f
ĠskrÃ¡ ningar
hel g
ĠGuÃ°mund ssonar
Ġeignar hlut
ĠÃ¶ fl
veg um
Ġevr ur
ĠÃ³sk ar
ĠEll iÃ°
yg l
Ġflest ra
ĠInd landi
ĠlÃ¡ tum
iss k
flokk sins
ĠrÃŃk t
ĠÃ¦tlu Ã°um
ĠsÃºkkul aÃ°i
ĠOrku veitu
ĠviÃ°skip tan
Ġ10 4
ĠlÃŃtil lega
Ġupp tÃ¶k
ĠKaup Ã¾ingi
ĠV ic
Ġfyrir sjÃ¡
Ġl entu
Ġinn ra
ĠdÃ½r ari
Ġmann anna
ĠT rausta
ĠV ik
ĠSk allag
skrif stofu
enn slu
G unn
ĠFÃ¦r ey
Ġheimil aÃ°
ĠlÃ¦g i
Ġaf gerandi
rÃ¡ k
Ġdeild ina
su Ã°u
ĠF Ã¡
Ġsak sÃ³knari
Ġheyr i
ĠTrygg v
Ġalvar legum
al eysi
Ġr e
sam tÃ¶k
Ġtilgang ur
Ġmarkv iss
ĠS Ã¶l
Ġr ÃŃsa
ĠviÃ° tÃ¶l
ĠÃ¡h eyr
eit u
Ġhvor u
Ġsp ort
Ã¡Ã¦tl unar
ĠgagnrÃ½ nir
ĠfjÃ¶lmarg ir
Ġur Ã°um
ri ch
ĠÃºt fÃ¦rslu
ĠBygg Ã°ast
Ġhald ist
Ġbygg Ã°i
Ġsp jalla
Ġstofn aÃ°ur
ĠboÃ° in
st andi
ĠsjÃ³ inn
ĠaÃ°st aÃ°a
skip iÃ°
ĠiÃ°naÃ°ar rÃ¡Ã°herra
Ã¾jÃ³nust una
or y
sf Ã©lÃ¶g
p unk
ĠhÃ¦fileik a
Ãļr slit
ĠvirÃ°isaukaskatt s
ĠS H
Ġborg aÃ°
Ġfyr stur
andi c
ĠÃŀorvald sson
Ġlag inu
ĠmÃ¡nuÃ° inum
r aÃ°ir
lu s
F ran
Ġy l
ĠB ara
ĠspÃŃtal a
Ġsamver ust
ĠsamrÃ¦m is
Ġsko Ã°uÃ°
ĠmÃ¡ls varnar
ĠsÃ³lar hr
rÃ¡Ã° iÃ°
ĠKar en
ĠÃŀorsteins dÃ³ttir
jÃºk i
eiÃ° a
yfir lÃ½singu
ĠNet inu
Tv Ã¦r
h Ã½s
ĠÃ¾arf ir
ver jal
ĠfÃ©lag smanna
Ġlang tÃŃma
ĠsveitarfÃ©lag iÃ°
skÃ¶p un
ĠÃ¾r ef
sl eysi
ĠstÃ³r ir
her rann
brau ta
ĠEr na
j Ã¶kli
not kun
Ġh raun
Ġvir tust
Ġhn eyk
ĠN eytend
sn es
Ġmannesk ju
Ġafh endingu
ĠÃºtgÃ¡ fa
ĠsekÃº ndur
ĠMÃ½r dal
ĠbÃ³ tak
aleg ur
Ġr enni
ĠValdimar sson
ĠG auta
versl unar
Ã¶ stu
stefnd a
ag ga
hÃ¦ fur
ĠsamgÃ¶ngur Ã¡Ã°herra
ĠmikilvÃ¦g u
Ġsam visku
bo ga
ĠÃ¾Ã½ ddi
ĠPÃ¡l m
ĠÂ ´
Ġnefnd um
S ystkini
Ġhlu staÃ°
Ġ43 3
Ġsk ÃŃÃ°a
ĠsumarbÃº staÃ°
ĠK ong
jan leg
Ġheyr nar
ĠArgent ÃŃnu
u ss
ĠtillÃ¶g unni
af lut
Ġein ir
bund in
ĠM on
Ġkomm Ãºni
marg ir
Ġfagn aÃ°i
ĠsjÃ¡lfst raust
ĠbifreiÃ° a
ĠrÃºssne ska
j afa
Ġbreytingar nar
Ġbl Ã³Ã°i
Ãĸ r
Ġh Ã¶rÃ°
an legu
Ġf ur
frÃ¦Ã° ings
sh l
ĠGuÃ°mund i
ĠviÃ°sta ddur
Ġat burÃ°
s in
ĠsjÃºkdÃ³m a
ĠsjÃ¡lf boÃ°aliÃ°
Ġminn tist
Ġand virÃ°i
Ġeinka hlut
ĠÃ¡rs byrjun
ĠfjÃ¡rfest ar
Ġrekstr inum
Ġinnih eldur
af mÃ¦li
Ġsko ti
skil yrÃ°i
Ġheimsm eistaramÃ³t
her ji
Ġkepp ninnar
ĠhÃ¦ stu
ĠÃ¾jÃ³Ã° erni
Bar na
arfram kvÃ¦md
stjÃ³r anum
ĠAr na
Ġdeil u
agn Ã½
ĠB oston
ĠgrÃ³Ã°ur hÃºs
ĠFljÃ³ts dal
ĠA merÃŃku
Ġ194 7
Ġsk Ã¶mm
ĠSigur Ã°i
ĠBÃ¦ jar
ĠGunn laugur
ĠflÃ½ ta
L Ã¦k
ĠbÃ³kmenn ta
ĠÃ¡r anna
ĠbÃ¦ ndum
el sson
ĠÃ³ merk
Ġkjarasam ningum
L e
Ġvin stra
ĠstaÃ° hÃ¦f
ĠE ig
ort mund
ĠÃ³ Ã¡
Ġk Ã¶r
Ġk ra
Ġber um
sl Ã¶gum
Ġ195 7
Ragn heiÃ°ur
ĠR f
Ġalvar legar
v anda
ĠEy jum
Ġlist amanna
ĠLÃ¡ru s
ĠkÃ¦r umÃ¡l
sp reng
Ġfr eist
Ġst eik
ĠStefÃ¡n s
ĠReykjanes braut
h Ã¡tt
ĠmeÃ° fram
ĠmannrÃ©tt indi
frÃ©tt um
ĠAlÃ¾ b
Ġendur hÃ¦f
ĠfÃ¡ r
x c
Ġj Ã¶fnunar
ĠferÃ° ina
ĠÃºtg jÃ¶ldum
ĠbeÃ° nir
ĠhÃº sleit
ell e
Ġspil uÃ°u
ĠsjÃ³nvarp inu
ĠÃ¾ raut
sig ur
ĠnÃ¡ nustu
Ġgjald skrÃ¡
Ġarkit ekt
Ġr Ã¡n
Ġ22 0
Ġsl Ã¡t
ĠstrÃ¡k arnir
mÃ¦l in
ĠgÃ¦ fu
ĠÃ¾jÃ³Ã° hag
Ġ \
ĠR Ãºn
Ġeitur lyf
Ġhlut aÃ°
Ġv eist
ĠrÃ¡Ã° in
ĠSind ri
M amma
Ġf jÃ¡rauk
Ġbir tir
ĠSam tals
Ġhring inn
ĠklÃ¡r lega
u p
Ġfars ÃŃma
Ġsvo leiÃ°is
Ġundirrit aÃ°
ĠmeÃ° fylgjandi
amenn irnir
ĠkÃ¶nnun inni
ĠBerg lind
ĠÃ¾ Ã¶kkum
est um
ĠÃĸl fu
ĠV odafone
ĠL oft
ĠmÃ³t or
ĠÃ¶flu gt
sv irkj
ĠFjÃ¡rmÃ¡laeftirlit iÃ°
Ġfyrir heit
Ġfors jÃ¡
sm iÃ°ur
Ġk ap
ĠB akk
Ġd ja
infÃ³nÃŃu hljÃ³msveit
ĠsÃ¡ um
Ġlands vÃ¦Ã°i
ĠnÃ¡ um
Ġsjald gÃ¦
S ak
verksmiÃ° ju
Ġrau tt
Ġt sk
Ġlag g
Ġmann kyn
Ġhor fum
ĠO tt
ĠÃ¾jÃ³ Ã°um
arfÃ©lag a
Ġh yg
ĠÃ³sk ir
ĠV opn
ĠC l
N em
Ġum sÃ³knar
and ÃŃs
ĠleiÃ°in legt
Ġsk ygg
Ġr unniÃ°
ĠmÃ¡l efna
ĠbÃºs ettur
Ġsp eg
Ġteik ni
0 6
ranns Ã³knar
Ã¾rÃ³ unar
ĠDan iel
r aliÃ°
st ÃŃg
Ġinn ilega
ĠvÃŃsit alan
Ġs uÃ°vestur
ĠstÃ½r t
m o
ÃŃÃ° ir
Ġd ap
ars Ã½
ĠNorÃ°ur landa
bandalag iÃ°
ĠtvÃŃ vegis
ĠnÃ¡ttÃºr unni
skir kja
ĠM ynd
Ġ194 5
Ġvinnumark aÃ°arins
ĠM essa
Ġskip tist
ĠstjÃ³rn vald
ĠA uÃ°ur
Ġflutt ar
Ã¶g Ã°u
ĠF ri
ĠrÃ¡Ã° uneyt
ab Ã³k
ĠSigurÃ°ar son
ĠforsÃ¦tis rÃ¡Ã°her
Ġh ert
Ġinn Ã¡
ĠfjÃ¶l gar
Ġv anga
er son
ĠtÃ¶p uÃ°u
m arsdÃ³ttir
Ġkepp t
ĠÃºtil oka
ĠhljÃ³msveit in
ĠDal vÃŃk
Ġ10 7
ĠGuÃ° laugur
Ġinn flutningi
ĠbrjÃ³ sti
ĠE iÃ°ur
Ġhla kka
skip tingu
af jÃ¶rÃ°
ĠÃ¡ minn
ĠnÃ½ tingar
Ġslas aÃ°ist
V ig
ĠL ars
ak erfisins
ĠPÃ¡l sdÃ³ttir
Ġskemm ta
abygg Ã°
irr or
yrk ju
Ġk nÃº
Ġbreytt ist
heimild um
A ra
veiÃ° um
Ã¾ing inu
Ġsett um
Ġfel li
ĠlÃ¦kk uÃ°u
lÃŃ na
Ġsett ist
Ã¶ll er
Ãŀess a
Ġstutt um
Ġuppbygg ing
Ġset ji
u e
ĠerfiÃ° um
ĠN o
ĠR un
Ġalmenn ilega
Ġbor inn
ĠÃ¡rÃ¡s ir
Ġg estur
S el
naÃ° inum
fÃ¦r Ã°
ĠglÃ¦s ileg
ĠBerg mann
ĠViÃ° skipta
Ġskemm tist
Ġatvinnul eys
ĠÃŀorlÃ¡k shÃ¶fn
ĠhÃ³t aÃ°
ĠrannsÃ³kn inni
ĠgrÃŃÃ°ar leg
Ġveig amik
s Ã©
ĠEy ja
ar Ã©tt
ĠÃ¡kÃ¦r uliÃ°
Ġhlu tar
ĠU nnur
ĠfÃ¦r slu
ĠV atna
ĠeÃ°l ilegum
leik arnir
viÃ° ri
ĠMatth ÃŃasson
bjar gar
Ġver s
ĠleiÃ°bein ingar
Ġnot endur
ĠfÃ¦r Ã°ur
Ġlagar Ã¶k
d ad
j allar
ĠkÃ³k a
T Ã¦p
Ã¶skuld ur
Ãºtg Ã¡fu
Ġraunver uleik
ĠframleiÃ° endur
ĠBaldur sson
ĠÃįbÃºÃ°alÃ¡nas jÃ³Ã°s
ĠtÃŃÃ° indi
Ġsak aÃ°ur
Ġvo tta
Stefn t
ĠStur lu
ĠfÃ©lag sleg
gang s
Ġsnyr ti
ĠEgil sson
ag arÃ°
d o
Ġskemm ri
NÃ¦ st
Ġopinber ri
ĠK os
Ġspur Ã°
Tv Ã¶
ĠK h
id e
Ġs autjÃ¡n
Ġg Ã¡l
ĠerfiÃ° u
ĠkÃ¦r t
Ġbr eidd
ĠKrist ÃŃnu
yfirvÃ¶ld um
ĠmeÃ° Ã¡kÃ¦r
ĠlÃ¡ nast
Ġgrein arinnar
Ġn au
Ġp akka
ĠaÃ°stoÃ°ar maÃ°ur
Ġkyn janna
Ġvarnar maÃ°ur
Ġsit ji
Ġtit il
F aÃ°ir
Ġfl ogiÃ°
ĠhÃºsnÃ¦Ã°i smÃ¡l
ĠReykjavÃŃkur flug
jar gar
ĠR akel
ĠalÃ¾jÃ³Ã°a sam
ĠP a
Ġ195 2
ĠHarÃ°ar son
ĠviÃ° amik
Ġheimil iÃ°
Ġnot aÃ°ir
ĠS vart
Ġkepp nina
Ã¶ll ur
ĠviÃ° bragÃ°
ĠauglÃ½s ingu
Ġkall aÃ°ir
ĠKol brÃºn
ĠS jÃ³nvarp
Ġskemm tilegar
ĠviÃ°ur eign
Ġaf Ã¾rey
ĠLit la
ann veig
ĠvÃ¡trygg ingar
AÃ° spurÃ°
ĠN ap
Ġm Ã³Ã°
heimild a
ĠÃ¾jÃ³Ã° irnar
ĠM S
jÃ³r inn
Ġsk el
ĠÃ³n eitanlega
ĠV innu
Ġver z
Ġhl eypa
w ard
Ã¡l iti
Ġhlu tu
ĠhÃ¡ t
Ġfasteig nar
ĠpÃ³litÃŃsk um
Ġr amm
S et
Ġfram komu
ĠÃ¡v ana
Ġnot um
Ġinn gÃ¶ngu
as Ã¡tt
Ġgam lar
Ã¶rygg is
berg sson
ĠM et
Ġmarg oft
Ġkon urnar
ĠPÃ¡l ma
ĠM ur
ĠD anir
Ġmisskil ningur
ĠGr anda
Ġvir t
Ãº lu
Ġminningar nar
Ġf im
rein t
A fl
ĠfjÃ¡r hÃ¦
Ġstofn unar
Val ur
ĠÃ¶lv unar
ÃŃ slen
ĠKrÃ³at ÃŃu
v est
tl end
Ġg Ã¶t
Ġfar veg
Ġh unda
Ġstarf sh
Ġ194 9
ĠÃ³s Ã¡ttur
ĠtÃ³nleik ar
ĠundirbÃº ningur
ĠS off
Ġm o
Ġstofn fjÃ¡r
Ã³ fer
j ann
Ġefasem dir
Ġ ara
ĠskÃ½r ingu
Ġm erkja
Ġj Ã¶kul
ĠfrÃ©tt inni
ĠÃ³ b
ĠGunnar i
Ġsal num
ĠÃ¡kv Ã¦Ã°iÃ°
9 00
ĠM essi
ĠPÃ©tur sdÃ³ttir
ĠNorÃ°ur lands
ĠGarÃ°ar sson
Ġstand ast
Ġfyrir var
ĠvÃŃs i
amann i
Ġkry dd
Ġhef jist
ĠF ast
ĠLit hÃ¡
ĠumboÃ° smanns
L Ã¡n
Ġtil h
7 4
hreyf ingarinnar
Ġsk art
ĠstaÃ°fest ingu
ĠlÃ¶greglum anna
Ġrig ning
ĠRÃ³ sa
ĠfjÃ¡rlag anefnd
asam t
ĠjÃ¡ t
Ġleik ara
ĠsviÃ° inu
af sl
Ãºl kur
ĠvÃ¶x t
ĠgerÃ° inni
Ġstyrk ir
ot u
ĠÃºt af
ĠO ddur
Ġtak mÃ¶r
H Ã¶rÃ°ur
ĠaÃ°al fundi
st Ã¶f
ef s
ĠÃ¡ taka
Ġv ins
Ġh Ã³lmi
0 9
ĠmÃ¡l flutning
Ġopinber ar
Ġeinb eitt
S jÃ¶
ĠÃ¡ stv
ĠAÃ°al steinsson
Ġsann g
ĠM ont
Ġsp enna
eng un
ĠfÃ³rnarl amb
Ġall rar
tein i
ug g
Ġeinkar ek
ĠkrÃ¶f ugerÃ°
ĠAnt onio
ĠaÃ°al hlutverk
Fr sm
Ġg o
Ġ195 3
Ġfund u
M orgunblaÃ°
Ġ195 1
ĠrÃŃk ti
Ġbjart sÃ½ni
ĠV R
Ġkl Ã¦Ã°a
ĠÃ¾akk lÃ¡tur
Ġhind ra
Ġtil grein
ĠmÃ³tt Ã¶ku
ĠS V
Ġferm ingar
ĠSigur bjÃ¶rnsson
Ġsinn ti
Ġtilra una
Ġvar pa
ĠstjÃ³rn aÃ°
nir nar
Ġfl Ã³knar
Ã¶l unni
ĠM irror
Ġin ter
ĠBjÃ¶rgvin sson
Ã¦ Ã°ar
Ġmeidd ur
Ġkv Ã³tak
t Ãºn
Ġ194 8
Ġkraf an
ĠtvÃ¶f alt
Ġupp sÃ¶gn
Stefnd a
Ġloftslag s
ĠframkvÃ¦md astjÃ³rn
rÃ¡Ã° sins
ĠHv ol
j Ã¶fn
m Ã¶gn
Ġg il
ĠfÃ©lagsmÃ¡l arÃ¡Ã°herra
Ġreikning inn
ĠÃºt vega
ĠstjÃ³rn unar
ĠfiskveiÃ° a
Ãŀ rÃ³
Ãĸ ssur
Ġdyr um
ĠsveitarfÃ©lag inu
ĠsÃ¶k nuÃ°i
Ġd i
ĠRÃºss land
M Ã¶rk
Ġst ress
ĠtÃ¶lvupÃ³ sti
Ġsakfelld ur
vÃ¦ Ã°a
Ġ194 6
ĠJÃ³ sef
ĠThor odd
Ġafsl Ã¡tt
K os
ĠRo y
St jarnan
ĠB os
ern and
ĠBir mingham
ĠStokkhÃ³l mi
Ġg Ã¶ngum
Ġendur bÃ¦tur
ara dÃŃs
skip um
ĠSÃŃm ans
lend ingar
heim i
ĠkrÃ³n an
Ġundirstri ka
Ġrang ar
ĠH Ã³la
Ġupp tek
s verÃ°
Ġtung u
ĠÃºtb reiÃ°slu
Ġfullv iss
Ġfrumvarp s
reiÃ° slum
rau ta
Ġs ungiÃ°
ĠfjÃ¡rmÃ¡lafyrirtÃ¦k ja
Ġkvar ta
Ġvinnust aÃ°
ĠEyjÃ³lf sson
ĠlÃ¦kk ar
ĠSlÃ³ ven
L yk
Ġ1 000
Yfir vÃ¶ld
ĠBr ag
ĠJ afn
K yn
AÃ° rar
Ãį bÃºar
ĠV ÃŃÃ°i
Ġfast ur
sl unar
ĠP Ã³l
heil su
Ġfrum vÃ¶rp
Ġr itaÃ°
ark aÃ°i
ĠÃ¶ sku
ĠO f
bygg ja
Ġatvinn ust
all iÃ°
Ġn ÃŃt
Rey k
Ġd ÃŃsil
ĠS val
Ġskip tast
ĠnÃ½ tist
ĠÃĵ Ã°
ĠbÃ¦ tast
Ġb ass
At vinn
fr elsi
ĠnÃ¡m smanna
Ġfry sti
Ġskip tin
ĠO li
ul ÃŃf
ĠfÃ³lk sb
ĠSt jÃ³rn
ĠThorodd sen
kast iÃ°
aÃ° ild
ĠH ek
ĠhÃ¦g ra
Ġeinhver ra
Ġfram leitt
Ġlagg irnar
ĠviÃ°skiptavin ir
sb Ã³k
Ġrek tor
Ġums jÃ³nar
ĠmÃ¦tt ust
ĠÃ¡n ni
Ġafh enti
eti co
S tu
ĠaÃ°gang ur
Ġsaman st
Um rÃ¦
ĠsamhljÃ³ Ã°a
Ġu t
ĠnÃ¡ttÃºru vernd
ĠSte ven
red it
v eita
ĠÃ¾yng d
or ka
Ã¡ riÃ°
Ver iÃ°
Ġeinfald a
Ġm el
Ġk Ã³l
li starf
ĠstÃºlk unnar
ĠflÃ½ ja
Ġk Ã¶llu
Ġbik arm
Ġauk innar
Ġveru legar
ĠA ug
ĠvÃ©l in
ĠskÃ½r Ã°i
d ans
ĠV ÃŃf
ĠdÃ³m num
ĠLÃ¦k jar
ĠstÃ½r ir
ann inn
Ġs Ã¶fnun
Ġflugv allar
ĠskjÃ³l stÃ¦Ã°
Ġstopp a
b Ã¶rnum
ĠUng verjal
ĠÃ¡vÃ¶x tun
Ġaftur k
Ġtopp num
Ġvax tal
ĠriÃ° li
Ãŀ org
Ġs o
l una
Ġinn rÃ©tt
ĠhÃ© ldum
ĠslÃŃk ir
skur n
il ju
Ġof s
Ġbyrjunar liÃ°i
ara Ã¾
ĠkjÃ¶r dÃ¦mi
ĠhefÃ°bund num
s an
ÃŃm Ã¡
ĠPal ace
brot um
Ġ it
ĠÂ ½
ĠjÃ³ lag
d yr
ĠhÃ³p s
ĠviÃ°urken ningar
ĠviÃ°sk n
ĠBlack burn
ĠembÃ¦tt iÃ°
ĠstjÃ³rn inni
b ili
Ġlok un
ĠEr lend
Ġleik junum
Ġkvik naÃ°i
ĠsÃ¶ng var
sv Ã¦Ã°um
n em
ĠbÃŃl skÃºr
ĠkvÃŃ Ã°a
efn in
Ġnefnd ur
bÃŃl ar
ĠfrÃ¡bÃ¦r lega
Ġbrag Ã°i
ĠLandssam bands
ĠbjartsÃ½ nn
ang ri
ĠÃ¾ing sal
ĠstÃ³ra uk
Ġframangreind u
Ġmark aÃ°ur
b el
PR ON
Bl ess
is a
ĠstuÃ°ning smanna
Ġhen ta
ingast ofnunar
Ġl Ã³
ĠY o
ĠU r
ĠFinn bog
Ġhaus inn
ĠÃ¾rey tt
Al ex
em an
sf jÃ¶l
Ġbrey ttu
g il
sb jÃ¶rn
Ġ z
ĠauglÃ½s inga
ana d
ĠleiÃ° ar
m ent
Sl Ã¶kkviliÃ°
Ġlyf jum
O W
viÃ° rÃ¦Ã°ur
fylg d
epp i
ĠSkot landi
gef iÃ°
Ġstel pur
ĠhljÃ³ Ã°ar
ĠHv ann
K veÃ°
ĠÃ¦tt ingja
Ġb ili
Ġsak amÃ¡la
ĠM Ã¡l
Ġflug vellinum
ĠÃ¦vin lega
ĠtÃ¦k ju
G l
Ġskip ar
Ġsam tÃ¶kum
re kk
vÃŃ sa
da y
ĠhÃ¦starÃ©ttar lÃ¶g
ĠalgjÃ¶r t
gir ni
f Ã¦
K eflavÃŃk
ĠB Ãº
Ġinn viÃ°
ĠfÃ¶ st
ĠmiÃ° ri
ĠMÃ¼ n
ĠÃ¡rÃ¡ sum
Ġmilljar Ã°i
Ġgeng istrygg
Ġundantek ningar
Ãģg Ãºst
Ġvita skuld
g n
iÃ° naÃ°i
ig ur
ĠbandarÃŃsk ra
Ãŀ iÃ°
ĠÃ³dÃ½r ari
ĠstÃ³r felld
Ġ 00
Ã¦r ir
irk jan
rey nd
Ãĸ R
Ġvir Ã°ingar
K v
ĠU M
oy ota
sv egar
hÃ¦ fir
ĠhÃ¶g gi
ĠguÃ° s
ĠlÃŃ Ã°i
kom na
sk oti
ĠhrÃ³ s
tt eg
Ġm Ã¦Ã°
ĠAnd ra
Ġskip stjÃ³ri
ĠhrÃ¦ ddur
ĠdÃ³ms orÃ°i
V ir
gerÃ° in
rÃ¦ mi
Um hverfis
Ġw ith
B Ã¡Ã°ir
s yni
Ġt akk
ĠD er
ĠÃ¾akk ir
arÃ¡Ã° uneyti
Ġbur Ã°ar
Ġsk raut
Ġbu x
Ġnot kunar
Ġeld hÃºsinu
Ġkva ddi
Ġse ssi
ĠaÃ°al skipulag
ĠdÃ³m sm
At hygli
ĠJack son
ĠHau kum
ĠbifreiÃ° arinnar
ĠM e
ĠStre et
Ġh app
tur nar
ĠU EFA
ĠlÃ¶greglu stjÃ³ra
Ġb ata
Ġkvart aÃ°
g el
Ġland br
ĠL yf
Ġ akk
iÃ° naÃ°ar
at vik
Ġsv ekk
Ġleng ja
m m
Ãŀ vert
Ġhvatt ir
Ġhand tÃ³k
Ġminni hluta
reik ningi
Ġt Ã¦m
Ġleik stjÃ³rn
ĠfÃ¦ri st
Ġfag ur
Ġk unn
Ġtil komu
ĠmÃ¡ ta
ef f
am mar
ĠlÃº x
Ġher ma
Ġp Ã¶n
Ãģ f
at al
ĠÃ³lÃŃk indum
sk y
ĠOl ÃŃs
Ġh rik
lega sta
Ġber ja
ĠIng Ã³lfur
Ġskref iÃ°
ĠD ortmund
jÃ¶ ti
Ġgreidd ur
st il
ĠstaÃ° ist
ĠhÃ¡lfleik num
ĠTÃ³n listar
Ġheilsug Ã¦
Ġfreg nir
H auk
ĠJÃ³hannes dÃ³ttir
ag ram
rygg is
Ġkyn ja
jall ara
Ġlegg st
ofb eldi
Ġhn ot
ĠB urn
Ġl endir
ĠnÃ¦ sti
ĠnÃ¡ miÃ°
K emur
ÃģÃ¦tl aÃ°
Ġh jÃº
ĠskÃ½r ar
ĠÃ¾ekk ing
Ġvik urnar
Ġley ndar
h Ã³f
H ljÃ³msveit
mann inum
ĠJÃºlÃŃu s
ĠmiÃ°borg inni
ĠÃ¡l f
ĠKon rÃ¡Ã°
ĠO ld
Ġn afng
ĠfÃ¶ stum
j e
Ġyfir stjÃ³rn
N D
Ġeld a
Ġrak in
ĠC ard
jÃ³l kur
C hel
Ġmill ig
ĠverÃ°bÃ³l g
Ġleik ina
ok um
rÃ© ti
ĠhlutaÃ° eigandi
Ã¡ her
Ġfor rÃ¦Ã°i
ĠumferÃ° ir
v extir
ĠN es
Ã¶nn unin
Ġney Ã°
ĠÃŀrÃ³ ttur
ĠfjÃ¡rm unir
ĠRÃºnar sson
ĠÃ³h app
Ġhnot skurn
lau gar
s eg
LÃ¶greg lum
Ġbund inn
Ġkann aÃ°
fir Ã°ingar
ĠD ana
ĠPakist an
Ġsann gjarnt
f ars
ĠN jÃ¡l
ĠverÃ°mÃ¦ ta
ĠlÃŃ ti
Ġst emm
Ġalmenn ri
ĠM Ã¶ller
sm outh
Ġbor Ã°um
sp ar
ĠslÃŃk s
ĠFI FA
is ion
as v
ĠskaÃ°abÃ³t alaga
ĠÃ³Ã¡nÃ¦g ju
ĠH old
Ġskor tir
ĠrÃŃkis valdiÃ°
ri ka
Ġfag naÃ°ar
rÃ³ Ã°
al ind
Ġhlut unum
ĠsjÃ³ Ã°i
Ġinnlend um
ĠS Ãŀ
ĠÃ¡lag ningu
efn inu
Ġpip ar
D Ã¦mi
Sk Ã¶mmu
Ġfyrir sÃ¶gn
FÃ³lk iÃ°
ĠGrikk landi
lu p
ĠB Ã¶r
ĠrÃ¦k ju
D avid
at Ã¦kni
ĠSey Ã°is
MorgunblaÃ° iÃ°
ĠHjÃ¶r tur
Chel sea
ĠatburÃ°ar Ã¡s
afur Ã°ir
et ra
ĠFrakk land
Ġbr jÃ¡l
ĠalÃ¾ing iskos
Ġkv Ã¶r
S unnu
ĠfÃ¦r ey
ĠÃ¾Ã¡tt taka
elti c
Ġsk Ãºr
ĠBÃ¡r Ã°ar
l urnar
ĠsjÃ¡lf krafa
ĠÃ¡kveÃ° nu
ĠdjÃº pt
Ġvan skil
Ben edikt
Ġsm ÃŃÃ°i
ĠumrÃ¦ dda
ĠÃ¦Ã° stu
Ġmismun un
brÃ©f um
Ġskipulag t
ĠFlÃ³r ÃŃda
ÃĨ tl
ĠP ost
Ã¾ekk ingu
ig h
se ttu
h Ãº
Ġreyn slan
Ġtakmark aÃ°
Ġ12 9
bÃŃ ll
ĠstaÃ° setningu
ĠfÃ¦ra st
ĠmÃ¡l verk
ĠS Ãį
vÃŃsit Ã¶lu
rÃ¡Ã° um
ĠD Ã½r
ĠHar pa
Ġsterk ar
Ã¾ ro
ast aÃ°a
lu kkan
Ġgest irnir
M att
bÃŃ tur
Ġskap andi
ĠlÃ¶g heimili
Ġskip un
Ġk Ã½r
frÃ¦Ã° ing
ĠsamtÃŃm is
k vÃŃ
Ġhag naÃ°
Ġkon unni
Ġl ung
ĠSeyÃ°is firÃ°i
Ġkl Ã¡m
Ġ18 9
ĠframleiÃ° sla
Ġhau sti
sk emm
greiÃ° sla
Ġskatt ar
breyt inga
ĠskrÃ¡Ã° ir
Ġef nt
ĠM orgun
ĠgarÃ° inum
minja safn
Ġtilheyr a
ĠsÃ³ sÃŃ
ĠtÃŃ g
ĠÃ¾jÃ¡lf a
Ġstytt ri
Ġtiltek in
ĠmikilvÃ¦g asta
Ã° ingum
ĠÃ¶ sk
ĠF al
Ġ11 3
o o
or ri
Ġfull ur
Ġtort rygg
Ġgei sla
ĠF ilipp
stof una
ĠMÃ¼n chen
Ġh ang
Ġtrygg ir
Ġleik ari
gang ast
ĠvÃ¡trygg ing
Ġskip tum
Ġh rygg
Ġbl aÃ°s
Ġinn leiÃ°
ĠsÃŃÃ°astliÃ° in
Ġstofnun inni
ĠdÃ½r um
ĠhÃ³p um
Ġbik ark
Ġkaup i
Ãģ kveÃ°
ĠviÃ° leitni
tÃ¦k jum
Ġupp bÃ³t
b oÃ°a
starf s
Ġbol ta
Ġsn ert
st rey
Ġof arlega
Ġsamning anefnd
Ġe x
rÃ¦n ni
Ġhrey fa
ĠprÃ³sentust ig
hÃ¶f undur
ĠrÃ¡Ã°staf aÃ°
l ÃŃÃ°an
Ġvik una
ĠS PRON
lau sir
ileik a
eig na
Ġslit iÃ°
Ġh issa
ĠgÃ¦ Ã°um
P h
E ll
Ġkar akter
ĠW all
ĠhagkvÃ¦m ni
ĠferÃ° alÃ¶g
ĠlÃŃklega st
ĠmiÃ° junni
ĠEl var
ars al
RÃºm lega
Ġefnahag ssv
L EI
dd ra
ĠÃ¡kv Ã¦Ã°inu
ab b
Ġopinber u
ĠHelgu vÃŃk
arl eyfi
E Ã°
sv eita
ĠgreiÃ° sla
Ġsafn aÃ°ar
ig er
f ist
h Ã¶nnu
p e
Ã¾Ã¡ tta
A ri
Ġlag Ã°ir
skuld a
ĠW ill
ĠRÃº men
ĠHval fjarÃ°ar
H aukur
Ġveru legum
Å Ĥ
Ġh urÃ°
ok iÃ°
list ans
ĠF rÃŃm
ĠN ey
Ġmill il
rÃ½ st
Ġop nunar
Ġfr jÃ³
p la
skuld bind
ĠÃĵ ttar
ĠuppÃ¡ hald
Ġl ita
ĠN d
ĠÃºtskrif aÃ°ist
ĠE s
ak s
stof ur
ĠhÃºs aleigu
Ġsner ist
ĠÃįrak s
Ġru sl
ĠsjÃºtv rh
ins on
ax ta
ĠP Ã³st
ĠBeck ham
B ÃŃl
Ġlof a
v ettvang
kv aÃ°
Ġframleng ingu
ĠyfirvÃ¶ld um
Ġk rÃ¦
Ã¶l unnar
Ġhl Ã³
v Ã¦tt
Ġkon una
Ġlaun in
Ġlagaset ningu
Ġverslun inni
Jo hn
ĠÃ¦ r
ĠalÃ¾ m
Ġk Ã½s
ĠV ill
og ba
Ġkaup verÃ°
Ãįslen sk
Ġsak aÃ°i
bur Ã°um
is h
ing er
Ġ Ã°
ĠsvokÃ¶llu Ã°um
hor ni
co a
ĠfrjÃ¡l st
Ġl jÃºki
vÃ¦ Ã°um
ĠHoll and
nauÃ° syn
ĠC ru
ĠÃ¡kv arÃ°
Ġd rif
N Ã¡m
sk l
BÃ¶rn in
G jald
Ġr Ã¦Ã°i
R B
ĠsamÃ¾ykk tu
Ġth at
ĠÃĵlaf ssonar
Ġn ett
uÃ°v estan
ĠVÃŃs is
lu st
sb undiÃ°
Ġfr Ã¦Ã°a
G etur
ĠskjÃ³ li
ĠskÃ³la stjÃ³ri
sl aun
ĠReyÃ° arfirÃ°i
Ġfram vind
na k
in an
Ġkvikmynd ir
s stÃ¶Ã°um
Ġhen t
ĠdÃ³m tekiÃ°
ĠÃ¡reiÃ° anlega
j arf
Ġbar Ã¡tta
Ġfyrir mÃ¦lum
ĠSk essu
Ġel sta
Ġmynd skeiÃ°
ĠÃ¾rota bÃº
Ġv Ã¶nd
agreiÃ° slur
Ġneyslu verÃ°s
8 4
ĠdrÃ¡ttar vaxta
Sk Ãºli
ĠG R
ĠNorÃ°ur l
ĠHjar t
ĠÃ¡rang urinn
L aun
Ġk eÃ°
ĠgÃ¦ tir
ĠpÃ³litÃŃsk t
HÃ³p urinn
Ġathaf na
ĠKrist ÃŃnar
Ġnu tu
Ġfor dÃ³m
Ã¾ egi
Ġaf num
ĠWilli ams
heim um
ĠÃŀ au
ild a
Ġvan rÃ¦k
Ġsafn sins
u c
E ina
Ġsv eitir
Ġg Ã¦Ã°
Ġaf rak
ĠT ex
ĠmikilvÃ¦g um
eÃ° ferÃ°ar
Ġs onar
ĠM ic
Ã¾ Ã³l
Ġun num
ĠviÃ°tal iÃ°
ĠBla ir
Ãģkv Ã¶rÃ°un
Ġpl Ã¶tur
at ar
ĠfjÃ¶lbreyt ni
Ãģ hug
ei sta
ĠgrÃ³ f
P abbi
Ġ19 30
Ġhugmynd afrÃ¦Ã°i
ĠbÃ¦jar stjÃ³ra
mun ur
D V
it z
Ġt l
Ã¡ num
Ġg ol
ĠjÃ¡ taÃ°i
Ġvand rÃ¦Ã°
Ġg aum
ĠnauÃ°ung ars
Ar senal
sk jÃ¶l
ĠW ar
ĠÃ¾ ok
Ġst rÃ¦ti
ĠSjÃ³ v
y a
og le
RÃŃk iss
Ãº Ã°ur
Ġkrakk arnir
ĠL y
Al men
ĠÃ¦f ingum
Ġstund ina
ĠÃŃÃ¾rÃ³tt um
ĠÃ¶f g
ĠH Ã¶fn
ĠF rÃ¡
samning inn
Ġein sk
Ġatvinnul ÃŃfi
ĠhljÃ³Ã° fÃ¦r
v ita
Ġt or
yr Ã°a
ĠSeÃ°labank anum
aleg ri
ĠÃ¾ig gja
Ġtil vist
Â ½
ung i
K ostnaÃ°ur
di c
ĠdÃ½p stu
mÃ¶r g
ĠL ett
ĠTÃ³m asson
jÃ³l k
di o
ĠÃºt rÃ¡s
ĠmÃ¦l ingar
ĠBandarÃŃkjafor seti
ĠPat rek
ci al
ĠÃ¾ingflokk sfor
Ġfyrra kvÃ¶ld
il ey
ĠÃ¡rÃ¡s ina
st efna
Ġtraust i
V inn
ĠMat vÃ¦last
ag an
Ġben sÃŃ
ĠborÃ° iÃ°
K N
rÃ¡Ã° andi
sveit in
ĠskrÃ¡ Ã°ur
ĠÃģsgrÃŃm sson
ĠsÃ¦r Ã°ust
Ġsk alla
Ġlands hluta
Ġfjar skip
Ġgrun aÃ°ir
Ġatvinnul aus
ĠfrÃ³Ã° leik
F ariÃ°
Ġend anleg
ĠjarÃ° hita
ĠÃ¾ung lyndi
Ġheim aleik
Ġhug tak
Ġfal legu
Ġlista verk
AT T
ĠfrjÃ¡l sum
ul lu
Ġv oÃ°a
ĠRe ading
ĠleiÃ° sÃ¶gn
reg la
rÃ¡ p
sveit um
Ġvar stu
Ġdeild um
ĠskÃ½ rist
ĠsÃŃ mann
ĠÃºrvals deildar
Ġtilskip un
ĠGrÃ³ ttu
Ġger vi
Hann es
ĠlÃ½Ã°rÃ¦Ã°i s
z z
H am
Ġf ÃŃna
ra x
Ġskatt al
yr a
ĠendurnÃ½ ja
ĠsÃŃÃ° unni
Ġver uleik
ĠhvÃŃ ta
Ġhl eypt
Ġun s
Ġh end
ĠlÃŃkam lega
ĠstjÃ³rn andi
ĠÃįslen sku
ĠÃ¾jÃ³nust una
Ġkveik t
ĠI M
Ġbreytingar till
Ġfar nar
Ġundanfar nar
Ġvind ur
re inda
ÃŃ Ã¾rÃ³tt
ast ofu
ĠNew s
ĠMi dd
eld iÃ°
Ġgjald tÃ¶ku
Ġmorgun inn
ĠumhverfisÃ¡hrif um
Ġminn kar
ĠÃ³lÃŃk ar
K Ã³r
ĠstjÃ¶r nur
ĠÃĸ x
ĠSm Ã¡r
ĠupphÃ¦Ã° ir
ĠbrÃ½ n
Ġfyrir bÃ¦ri
ĠbÃ¦ nd
ĠiÃ°n rh
al ÃŃn
ĠJ ens
ĠFinn ur
ĠhÃ¡lf um
ĠjÃ¡kv Ã¦Ã°a
Ġbei tti
Ġh a
Ġmerk jum
ÃŃk ur
Ġhepp in
svar smenn
Ġheyr ist
Ġums agnir
hlu tanum
T Ã³m
s jÃ³nar
ĠtÃ¦ pa
ĠAr ng
Ġkaup ir
Hlu ta
Ġst rÃ¦tÃ³
ĠV og
ĠÃ¶r t
Ġsel ur
ĠaÃ°stand endum
Ġsveig jan
ĠrÃ© Ã°ust
ĠFramsÃ³knarflokk urinn
kv Ã³ta
Ġfullyr Ã°ingar
mÃ¶r kum
ĠviÃ° vÃ¶r
ÃŃm anum
ĠmargvÃŃ sleg
asam band
ĠtÃ¶lu verÃ°
Ġteg undum
ĠframleiÃ° ir
ĠRang Ã¡r
Ġr ass
rÃŃ Ã°u
ĠljÃ³smynd ir
Ġtek nu
rÃ©tt ind
ĠsjÃ¡varÃºtveg sins
ĠMarg rÃ©ti
t Ã¡
sÃ½ ningu
am eÃ°ferÃ°
Ġstarfsl eyfi
ĠHver fis
Ã³tt ir
rÃ© d
Ġsaman burÃ°
Ġjafn rÃ¦Ã°i
H vert
Ġf Ã³Ã°ur
Ġveik indum
fÃ³lk s
ĠH Ã¶nnu
8 2
ĠMal m
H oll
ĠhljÃ³msveit inni
ĠSÃ½r lands
ĠhljÃ³msveit arinnar
jum st
yst al
viÃ° skiptum
Ġles endur
Ġsk ert
sl jÃ³s
ĠbrÃ©f um
ĠSjÃ¡lfstÃ¦Ã°isflokk num
Ġtals verÃ°
R af
Ġt afar
ĠÃ¡sak anir
ĠstÃ¶Ã°v aÃ°i
Ġhen ti
At li
Ãŀ ur
Ġfrumkv Ã¶Ã°
ĠrÃ¦ ddum
Ġsveit in
ĠuppgÃ¶t v
dÃ³m i
Ġfang ageym
u ka
t rÃ©
skost naÃ°
ĠJ ac
jÃ¶r num
Ġverk amanna
Ġvirk an
k jÃ¶ri
ĠW olf
Ġstill t
Ġmann virki
Ġval inu
Ġkrakk ar
Ġsp rakk
Ġfeg urÃ°
ĠKarl s
ĠgjÃ¶r samlega
Â Ħ
ĠR en
Ã³n es
str eng
M inni
ĠT rausti
ĠK ap
Ġsum arfrÃŃ
Ġmet inn
g Ã¦ti
ĠhrÃ¦ dd
ĠsannfÃ¦r andi
Ġsig ling
ĠÃ¾ rif
Ġn jÃ³s
RÃº nar
Ġbind andi
Ġv onar
Ġskilgrein t
Ġskip aÃ°s
eit ar
ĠSig trygg
Ġframleng ja
Ġeigin manni
v arf
Ãį r
Ġst eig
ĠÃ¾r Ã¡Ã°
Ġtex t
or a
ĠÃ¾vo tta
arÃ¡Ã° uneytinu
fi mi
Ġlyf jaf
ĠfjÃ¶l dam
ĠÃŀ Ã³
B S
ĠG olf
Ã¾ ol
Ġhlut ans
ĠB Ãºl
Ġa um
Ġundan sk
T Ã¶l
ĠrÃ¡Ã°st afa
ĠorÃ° aÃ°
Ġvax tar
reik ning
ĠSig rÃŃÃ°ar
Mar ÃŃa
S ann
ĠFrakk a
Ġb iÃ°ur
ĠÃĿ sa
ĠsÃŃ zt
s burg
ĠviÃ° auka
yst ir
Ġfor ustu
Ġmat ur
Ġdram at
ĠO R
fell ingu
ĠH y
Ġkenn ir
vak t
ĠgreiÃ° ist
ĠHÃ¶f Ã°a
b jÃ¶rgu
Ġborg um
ann inum
ĠstjÃ³rnmÃ¡l amanna
ĠÃ¡r Ã³Ã°ur
Ġsam drÃ¡ttur
ĠI S
fyrirtÃ¦k iÃ°
ĠÃ¡tt aÃ°
p ers
at es
eg raph
And ri
Ġfyl gjandi
Ġhlut falli
sly si
ĠrÃ¦ ddu
Ġlang fl
ĠaÃ° gerÃ°ar
fÃ³lk i
Ġs Ã³ma
ĠVinn umÃ¡l
m ingar
fur t
ĠÃ¶ mur
Ġbrot um
T ill
p restur
ĠR eg
ĠÃºr bÃ¦tur
ĠmÃ³tmÃ¦ lum
ell o
Ġbr enna
ĠRanns Ã³knar
Ġmark aÃ°urinn
Ġtil mÃ¦lum
ic ago
b Ãºs
ĠsÃ¶g um
ĠskrÃ½ tiÃ°
Sam ningurinn
ĠLÃ¡ru sson
nefnd arinnar
vÃŃ gi
la h
ĠGr and
Dag ur
ĠstjÃ³rn laga
ĠBjÃ¶rg v
ĠstÃ¦rÃ° frÃ¦Ã°i
ĠAll t
b anni
ĠL eifur
st undir
ĠÃ³ tÃŃmab
Ã¦g ur
SK A
ĠstjÃ³rnmÃ¡laflokk a
V Ã©l
Ġs er
ang eng
Ġg a
Ġhver finu
Ġse ss
arsv Ã¦Ã°i
ĠslÃ¶kk va
Ġv agn
LÃ¶greg lu
Ġyfir veg
Ġ11 1
Ġven ja
ĠhjÃºkrunarfrÃ¦Ã° inga
ĠÃŀ vÃŃ
ÃŃ d
F Ã³r
ĠnÃº tÃŃma
ĠsjÃºk lingar
J AR
ul Ã½Ã°
amÃ¡l i
ferÃ° in
ĠÃįr landi
ĠVic tor
tÃ¦k if
ĠÃ¶f ugt
ĠbÃºn aÃ°i
Ġst okk
ĠrÃ¡Ã° ningu
Ġhl aÃ°
ĠfjÃ³r Ã°u
b eins
Ġr app
ĠA sh
am Ã³ti
Ġhest a
Ġf ingur
ĠKjar tans
ĠstjÃ³rnarand staÃ°an
BjÃ¶rg vin
Ġat burÃ°i
Ġborgarf ulltrÃºi
ĠhÃ¡lft ÃŃma
ĠtÃ¶lv uleik
tÃ³n list
Ġe innar
Ġvinnu brÃ¶gÃ°um
Ġbr eitt
ĠBreiÃ°ablik s
sÃ½ ning
str inum
ĠGaz a
ek tir
TÃ³n list
ĠGyl f
ĠtÃŃm amÃ³t
ĠF ar
ĠTrygg ingastofnun
NÃ¦ sta
s aga
ĠsekÃº ndum
ĠL ad
ĠÃļ lf
st oÃ°ar
Ġvanga vel
Ãº tt
ĠÃ¾ing lÃ½st
Ġinnflyt jenda
ĠkveÃ° inn
K K
H agnaÃ°ur
ĠnÃ½ tast
as i
ĠlÃ¡n sins
ĠJ en
ĠLaugardal shÃ¶ll
ĠframbjÃ³Ã° endur
c ed
ĠD av
Ġupp setningu
ĠhÃ¡ um
menn tun
ĠsÃ¦ tum
ĠÃ³ bygg
Ãģ s
ĠÃ¦fing aleik
ĠHin rik
dÃ³m s
F rakk
ĠÃĿ r
Ġminn ti
ĠnÃ¡lg un
Ġskilgrein ingu
ĠRÃŃkisendur skoÃ°unar
nas yni
Ġfram in
Ġbe zt
eik ning
ver i
ek jum
a in
her e
ĠsÃ½ ningin
h epp
eir anum
ĠÃŀ ur
ĠP ass
ĠBorgar leik
Ġgrunn inn
âĢ ¢
ven Ã¦r
Ġb akk
V ald
Ġfyr ram
ĠnauÃ°syn lega
ĠÃ¾urf tum
ĠSte ind
Hug s
Ġsk rÃº
Ġgagn agr
V estur
ĠfjÃ¡rmÃ¡l um
ung inn
ĠFor d
Ġhim in
G R
ĠF el
kost naÃ°ar
ĠdrÃ³ st
asam tÃ¶kin
ĠhÃ¶r m
Ġvet ri
ĠhÃ¶r Ã°um
Ġn Ã³tum
Ã¶ stur
et iÃ°
Sam tÃ¶kin
fÃ©lÃ¶g in
sb eiÃ°
jÃ¶l lum
Ġfeng ust
ĠÃ¾arf t
Ġveitt ur
Ġfjar skipta
ĠforrÃ¡Ã° amenn
Ġn as
sm un
ĠJ Ã³r
ĠskÃ³l ar
ĠsÃ½ningar innar
ĠfjÃ¡rmagn st
ĠvÃ© k
Ġafgrei dd
ĠFoss vogi
B rÃ©
Ġst rÃŃÃ°i
sv Ã¶r
sflokk urinn
Ġu ll
ĠfrÃ¡l eitt
Ġinn stÃ¦Ã°u
ĠBretl and
Ġforgangs rÃ¶Ã°
Ġvirk ni
Ġsafn iÃ°
Ã¦ fi
Ã¾ing iÃ°
S eÃ°labank
sv eg
Ġ11 6
Ġspill ingu
s stjÃ³ra
ĠstjÃ³rnarand stÃ¦Ã°
Ġvir tu
E irÃŃk
ĠslÃŃk rar
len ska
rÃ³ ma
r on
Ġsterk um
sly sa
Ġhjar tan
Ġverslunar manna
Ġtilfinn ingu
Ġf ing
E L
Ġs Ã³p
Ġb einu
Ġeinstakling s
ileg ast
ĠfjÃ¶lmarg ar
Ġsam vist
fjÃ¡r fest
Ġd rÃ¦
ĠjÃ¡ taÃ°
nÃ¦g jandi
leif sson
ĠVatn sm
Ġbygg inga
ĠB A
ĠliÃ° unum
Ġs uÃ°
nefnd in
Ġbein ist
ĠM erk
ĠstjÃ³rn endum
Ġloft inu
ĠIngvar sson
ĠjarÃ° veg
ĠlÃ¡n shÃ¦
Ġr Ã¶ng
or Ã°a
Ġhygg jast
Ġframangreind um
Ġdans a
ĠSa dd
ĠÃį S
Ãģf rÃ½
ĠframsÃ³knar menn
ĠrÃ¡Ã° gjafi
Ġ4 50
ĠgagnrÃ½ n
nÃº mer
ĠHorn afirÃ°i
ĠÃŃbÃºÃ° ina
leik num
ĠSÃ¦var sson
ly sa
Bre ska
Ġfyrram Ã¡liÃ°
ĠsÃ¡ tta
.... ....
gef andi
ĠFriÃ° jÃ³n
ĠÃ¡form um
f rum
Ġstandi st
Haf t
Ġst Ã¶ng
Ġe i
ĠfÃ³l gin
re al
ĠAustur lands
ĠM inn
of andi
kaup a
Ġmisnot kun
Ã¶g uleika
ĠkjÃºk ling
ĠhljÃ³ mar
ĠÃ¾riÃ°jung ur
8 3
Ġb elg
ĠK iel
ev illa
brey tta
ÃŃu s
m y
ja x
Ġhorf ast
Ã¾ing sins
Ġfl Ã³tta
Ã¦kk anir
ĠC eltic
Ġsvok Ã¶lluÃ°
S vÃŃ
ĠspÃ¡ ir
l ana
ĠSk Ã³g
Ġgagn kvÃ¦m
Ġgr eip
ĠfjÃ¶lmiÃ° laf
ĠstjÃ³rnskip unar
Ġkl Ã³
S uÃ°ur
Ã¾ rif
ĠviÃ°urken nd
Ġveit ingar
smÃ¡l in
Frumvarp iÃ°
Ġsv iss
ĠlÃ¶g mÃ¦
Ġlau f
ĠÃ¾r Ã½
ĠÃ¡frÃ½ jandi
Ġfeng in
Ġendur grei
ĠÃ³Ã¾ ol
Ãº rum
Ġn oti
ĠD ÃŃs
Ġh un
ĠBjÃ¶rg Ã³lf
h ildi
Er f
Ġfjar skipt
Un niÃ°
Ġj eg
ĠÃºr lausnar
vet na
Ġsl ÃŃta
M ARK
Ġy tri
it ch
ĠhÃºs in
ust in
Ġeld inn
ĠrÃ¡Ã°her r
ĠlÃ¦g sta
Ġmarkv isst
bl Ã¶nd
Ġvega brÃ©f
Ġfram gang
N jarÃ°
B reiÃ°
K IRKJA
ir kja
au ki
ĠSeltjarnar nesi
ĠK ing
jo hn
ĠS he
ĠÃ¶ xl
ÃŃsk ir
ĠÃ³ raun
ĠupplÃ½sing afulltrÃºi
ĠÃ¾or ski
ĠIcel andic
ĠhÃºs ak
c an
Ġfer linum
Ġb eyg
Fors Ã¦tisrÃ¡Ã°herra
alÃ¦k nir
ĠEyjaf jarÃ°ar
ĠH Ã©Ã°
Upp lÃ½singar
Ġk Ã³ng
ĠvandamÃ¡l iÃ°
ĠSt und
Ġp ort
Ġh tt
Ġm Ãºr
ĠtÃŃm aset
Ġkosning anna
ark rÃ¶fu
beiÃ° ni
ĠÃ¡horf enda
Ġjafn rÃ¦Ã°is
vÃ¶r Ã°u
Al Ã¾
Ġrafmagn s
ĠS Ã¶gu
Ġnor Ã°austan
Ġbank ana
Ġmis stu
af yrir
Ġp restur
Ġf arg
ĠFrjÃ¡lslynd a
ĠO kkur
ĠrÃŃk a
Ġh ur
K raf
Ġkirkj ug
ĠÃĸ gmundur
ĠmatvÃ¦ li
Ġhar Ã°a
Ġall shn
Ġk Ã¡
Ġmorg nana
afjÃ¶l da
ĠaÃ° sÃ³kn
Ġdug legur
ĠkÃŃk ja
ĠÃŀjÃ³r sÃ¡r
ĠL inda
Ġbl essi
ĠbÃº nar
Ġlit um
ĠsiÃ° ferÃ°i
ÃŃ ll
Ġleik hlÃ©
Ġvenju legum
Ġst ur
ĠsamÃ¾ykk tum
asam takanna
sl oka
Ġyfir tÃ¶ku
ĠÃ¡hrif in
Ġnefnd ina
S y
rÃ³ s
Ġ21 0
Ġdreng urinn
ÃŀÃ³r Ã°ur
b eina
ĠalÃ¾ Ã½Ã°u
Sam fylk
Ġfl Ã¦k
ĠiÃ°naÃ°ar ins
sveitar menn
ĠÃ¾akk ar
ÃĨt li
ĠrÃ©Ã° st
ĠfjÃ¶l menn
ĠB akka
ĠsjÃ¡lf sm
Ġmun aÃ°i
Ġley fir
ĠMark Ãºs
ĠviÃ°rÃ¦Ã° na
Ġst inga
rÃŃk in
sm orgun
ĠT oyota
ĠBer n
ĠrÃ¡Ã°un eyta
ĠiÃ° naÃ°
afur Ã°um
ĠlÃ¡n in
ĠHann esson
ĠrÃŃkisskatt stjÃ³ra
ĠHjÃ¶r dÃŃs
Ġundar legt
7 2
ĠorÃ° rÃ©tt
Ġmilljar Ã°ur
Fr v
M S
mynd um
ĠbiÃ° u
ot o
ĠSjÃ¡lfstÃ¦Ã°isflokk inn
st raum
ĠÃ¡gÃ¦ tu
ĠÃ³ fÃ¦r
ĠBaldvin sson
bl e
Ġseld ar
V Ãį
Ġskot um
Ġtengd am
ĠGuÃ°mund sdÃ³ttur
ĠFisk ist
ĠTel egraph
fall iÃ°
ed a
Ġgrundvallar atriÃ°i
ĠB ang
Ãģ st
skyld ur
Ġp Ã¶r
Ġm eistari
ĠMeistara deild
H ans
enn ur
Ġtug ir
Ġsundur liÃ°
ĠlÃŃk ar
ĠÃģ sa
Ġbl aÃ°i
ĠEvrÃ³p ur
ĠN A
Ãĸ gmundur
ĠÃºtg jalda
Ġr ÃŃs
G e
ĠPort smouth
ĠPalest ÃŃnu
ĠSer bÃŃu
Ġtil n
ĠrÃº tu
skrÃ¡ in
Ġspenn tur
Ġaf drif
ĠNoreg ur
ĠI sa
Ġell ilÃŃf
ĠSig rÃŃÃ°i
Ġhv ass
Trygg vi
Ġvan ti
ĠvÃ© la
ifr Ã¶st
m agni
Ġtil hneig
Ãģ stÃ¦Ã°a
ĠstÃ¶ Ã°ur
Ġkost naÃ°urinn
ĠumrÃ¦ ddu
C O
Ġframher ja
EirÃŃk ur
ĠÃ¾jÃ³Ã° garÃ°
heim a
sb raut
ĠÃģsgeir s
ĠkjÃ¶r in
ĠÃ³viÃ° unandi
ĠB Ã³nus
skip tar
john sen
ang e
alla s
ĠfjÃ¡rfest ingum
ĠverÃ°lag i
ĠlÃŃ tum
Ġl Ãºt
Ġfermet rar
val iÃ°
ÃŃ ur
ĠferÃ°a Ã¾jÃ³nustunnar
ĠT al
Ġfer sk
ĠÃĵ slÃ³
ĠStr and
ĠeinkavÃ¦Ã° ingu
horf endur
ĠVald ÃŃs
ĠhÃ¡tÃŃÃ° ina
ĠveiÃ° ir
ĠMarg rÃ©tar
Ġr jÃºp
Ġsk yr
ĠstÃ¦r Ã°ar
rit un
n Ã¡
Ġtog ara
ĠPÃ¡lm ason
vÃ¶r num
Ġhand tÃ¶ku
ĠgrunnskÃ³l um
Ġk afl
Ġkeppni stÃŃmab
var Ã°a
Ġaf drÃ¡ttar
Ġtil vit
ĠsjÃ³ Ã°a
ĠÃ¶r yrk
7 3
Ġg Ã¶tunni
Ġhendur nar
Ã¾ or
ĠaÃ° fanga
Ġlau su
Ġkraf na
ÃŃk i
ĠhjÃ¡lp aÃ°i
ĠL ak
ĠI llu
ĠbarnabÃ¶rn in
l la
Ġheil sa
Ġhugs ar
m d
Ġeru Ã°
ĠhÃ¦ttu legt
ĠS jÃ¡
ĠdÃ³m arar
Ġhag sbÃ³ta
ĠAkran es
ĠhÃºsm Ã³Ã°ir
Ġlaun Ã¾ega
ĠveiÃ°ig jald
ĠFinnbog ason
Ġh olu
ĠviÃ°skip tin
Ġdr eym
Ġfylg is
ĠnÃ¡ttÃºr una
Ġsamkeppni sh
Ã³m ynd
sam a
Ã¶rf um
ĠÃ¡sÃ¶k unum
su Ã°ust
Ãģ sta
Ġbreg Ã°a
ch t
ĠStein Ã¾Ã³r
ĠAtl etico
ĠB ifrÃ¶st
Ġaldur shÃ³p
ĠÃ³full nÃ¦gjandi
Ġheim amÃ¶nnum
Ġkom umst
Ġst efni
b Ã¦ru
ĠGrÃ¦n landi
ĠlÃŃtil s
sk aÃ°
ĠVÃŃk ing
Ã¾jÃ¡lf un
Ġeftir laun
sh afi
Ġsk ella
ĠF a
ĠKe vin
ĠSk Ã³
NÃ¡ nari
Ã¾jÃ³n n
atn aÃ°i
ist ar
ĠrÃ³m ant
ĠviÃ° brÃ¶gÃ°um
endur skoÃ°un
Ġspil uÃ°um
ĠlÃ¶greglum aÃ°ur
ĠBryn jÃ³lf
Ġendur upp
p ort
Ġg eys
ĠV ir
at er
ĠsÃ©r frÃ¦Ã°i
ĠK enn
or ent
ĠskÃ¶p um
Ġt efla
m ari
ĠÃļ tlend
Ġleik stjÃ³ri
Ġkl of
Ġel li
arf yrirtÃ¦ki
Ġl ykt
liÃ° inn
ĠvarÃ° aÃ°i
ĠW hit
vald inu
Ġundirrit un
risti ano
Ġkref jandi
Ġreik ningi
ĠSigur geir
ĠstyÃ° jast
L augar
Ġver jast
ĠbÃ¦r inn
g Ã³
Ġtrygg ingu
rar d
Ġeinstak ar
ĠSnÃ¦fell s
G u
Ġlak ari
Ġbr Ã¡tt
Ġk jaf
ĠA uÃ°vitaÃ°
ak en
Ã¶k ull
R Ã¦tt
Stefn endur
ĠÃ³h ef
ĠmÃ¡l sgrein
Ġbland aÃ°
ĠtvÃŃ bur
ÃģkÃ¦r Ã°a
Ġsend ar
Ġor sÃ¶k
Ãĵ skar
Ġstefn an
rek stri
Ãŀeir ra
Ġvel tir
arfÃ©lag i
Ġm ans
ĠlÃŃf sst
P restur
f Ã¶llum
sm ÃŃÃ°i
ey ju
sskoÃ° un
ĠmiÃ° bÃ¦num
ĠkvÃ¦n tist
Ġstelp urnar
ĠstjÃ³rn lag
ĠB rad
A L
g s
ĠÃ¡ star
Ġst j
ĠNeskaup staÃ°
ĠHallgrÃŃm ur
ĠflugvÃ©l ar
Ġinn leiÃ°a
ĠJÃ³hann ess
ljÃ³ st
ĠslÃ¶ suÃ°ust
ĠmÃ¡l staÃ°
bÃŃ lum
ĠSc ott
Ã½ pur
Ġgang ast
ĠGr en
ĠB li
ĠfrÃ©tt irnar
Ġfram gÃ¶ngu
ĠCh ris
Ã¶l una
Ġg eymi
ken nar
Ã¶ Ã°v
ĠHÃ¡ k
stjÃ³r ann
Ġtakmark anir
ĠsÃ¡l frÃ¦Ã°i
Ġbarn inu
Ġhlut hafar
ÃĲ UR
l endur
ĠV I
Ġt yrk
B aldur
Ġhug leiÃ°
Heim ir
Ġfl aug
riÃ° li
ĠG la
ĠLe e
ĠleiÃ°to gar
ĠÃ¾arf nast
Or ganisti
R it
Ġheims Ã³knir
Ġvinn ing
ĠÃ¡g Ã¦ti
om a
mÃ¦l endur
ĠLi on
Ġfram sel
berg s
Ġk jallara
arfÃ©lag inu
ĠgrÃ³Ã°urhÃºs alof
5 9
Ġupp sker
sv ald
Ġhvers dag
Ġheimsstyr jÃ¶ld
Ġgl aÃ°ur
ĠlÃ¡ naÃ°
Ãŀ Ã½
ĠÃ¾ingmaÃ°ur inn
Ġland anna
ĠmarkaÃ° sv
Ġkv att
Ã³ sa
Ġspur ninga
Verk iÃ°
à ¸
Ġg Ã¡m
ĠL ok
Ġtengd um
Ġslys inu
Ġsund laug
Ġhugmynd a
ĠÃ¾jÃ³Ã°fÃ©lag i
ĠÃ¡lag i
ros oft
Ã¡tt an
nd ist
ĠmeÃ° tÃ¶ldum
Ġmest i
ĠhjÃ³n anna
ch i
ĠhvÃŃ lir
Ġskulda brÃ©fa
Ġspur ningunni
bur Ã°ir
e ck
ĠlÃ¶g sÃ¶gu
ĠMar c
ĠÃįslandsm eistari
ĠE ddu
ar anum
ĠjÃ¡ ta
ĠandrÃºmsl of
ĠfÃ¦r um
ĠFM E
F isk
ĠM in
ĠÃįsland ss
g Ã¶gnum
vop na
h Ã³la
Ġsamkomulag iÃ°
ĠBerg Ã¾Ã³r
Ġeld i
ĠInst agram
lÃ½s inga
ĠÃ³ljÃ³ s
ĠUn nar
ĠÃºrvals deild
ĠgrÃ¦ nt
Ġp rÃ©d
sh yggju
nÃ¡m s
am ÃŃni
Ġgr jÃ³t
set inn
ĠEy jÃ³lfur
Ġf Ã³ta
ĠÃ¡r eit
ĠmÃ¦l ti
ĠÃ³f yrir
Ġum gjÃ¶rÃ°
Ġbr enni
s undi
Ġgrun s
ĠvÃŃ tt
miÃ° stÃ¶Ã°
Ġauka spyrnu
Ġdeil um
ul t
um anna
S G
Ġrey kja
Ãºra t
ĠvÃ¶ Ã°v
ĠrÃ¦Ã° st
Ġbreyt ingin
Ġlaugardag skvÃ¶ld
ĠliÃ° smenn
ĠKrist insdÃ³ttir
Ã¶tt ur
ĠS infÃ³nÃŃuhljÃ³msveit
ekt or
ĠeyÃ°ileg gja
lÃ¶g u
Ġs Ã³m
Ġbless un
Ã¾ Ãºs
ĠmÃ³t um
ĠOr kust
Ġvel gengni
ĠgrÃ¦ Ã°a
Ã¾ Ã³knun
Ġher num
Ġvettvang ur
ĠSte ve
N Ã½r
Ġb all
ĠfÃ³l st
Ġmag naÃ°
ĠmeÃ°li mir
ou d
Ġeigin leika
her rar
ĠmÃ¶guleik um
ĠGuÃ° johnsen
ĠheiÃ°ur s
ĠAl coa
les bro
Lyk il
ĠspÃŃtal anum
B R
unn inn
ĠK jalar
Ġvatn inu
Ġgr Ã¶mm
ĠVerk amann
rÃº mi
ĠHr afni
eng ju
ĠhljÃ³ tum
ĠafleiÃ° ing
afr en
ĠCh am
re inn
Ġg ilt
ĠrÃ©tt ind
ĠvinsÃ¦ ll
Ġhn ef
Ġvir kur
Ġkaup unum
au tur
et er
ĠstuÃ° laÃ°
bar Ã¡ttu
ĠvandamÃ¡l um
ĠKaupmanna hafnar
Ġork ug
ĠstaÃ° greiÃ°slu
ru stu
ĠÃģ stu
n ota
Ġof ar
Ġdval iÃ°
ĠGuÃ°jÃ³n sdÃ³ttir
Ġkl st
ĠstÃºd enta
ĠdÃ³m kva
L ilja
ĠL of
Ġinn rÃ¡s
sk aga
Ġsam fylgd
Tek iÃ°
ĠL Ã½Ã°
Ġath afn
ĠhÃ¶fuÃ° stÃ¶Ã°var
dÃ¦m is
Ġl o
Ġtug um
ĠfjÃ¡rmÃ¶gn unar
ĠfÃ©lagsska p
ĠM ig
ĠlÃ¦r dÃ³m
ĠstrÃŃÃ° inu
ĠjÃ¶f nu
ĠF ernand
ĠVeÃ°ur stofu
eistur um
ĠfjÃ¡rmagn s
ĠrÃ©tt mÃ¦
ĠfrÃ¡bÃ¦r an
J arÃ°
Ġvarp aÃ°
Ġkos ningu
j on
ĠpÃ³lit ÃŃsku
ola s
stand iÃ°
Ġkaup endur
Ã½r ar
stof na
Ġfor mennsku
Ġe t
v eÃ°ur
ul aus
Ġupp eldi
Ġflokk arnir
Sam tÃ¶k
ĠriÃ° linum
sk rÃºÃ°
Ã³l m
ĠS aga
ĠÃĨ var
Ġt Ã¡r
Ġsakarkost naÃ°
ĠÃŀjÃ³Ã° verjar
0 3
Ġhollen ska
ĠlÃ¶g Ã°um
ĠK Ã³r
r oss
ĠhÃ¡ riÃ°
ĠÃ¡s Ã¦tt
ĠGrÃ¦n lands
g mund
ĠkÃ¦m ist
Bless uÃ°
Ġneyt end
am mi
Ġsaman tekt
ĠE rik
o vo
Ġm essu
m Ã³ti
Ġdraum ur
Ġskil uÃ°u
ĠrÃ¦k tunar
d reif
Ġt aug
lÃ½s ingum
lÃŃk t
N ew
I Ã°
Ã¾ m
Ġsam einu
ak irkju
ĠRe uters
hald iÃ°
Ġbir tust
ĠBreiÃ° holti
ĠAndrÃ© s
v iÃ°ur
K jÃ¶r
ĠhÃ¶f und
ĠfÃ¦kk aÃ°i
Ġmerk t
L eit
Ġfr iÃ°ur
ĠÃ¡frÃ½ junar
Ġtil lagan
jÃº fa
ĠlÃ¦ kki
lau sum
Ġ194 2
ĠHjÃ¶r var
ĠhjÃ³l reiÃ°
Ã¶g unni
Ġs miÃ°
ak repp
sl ÃŃf
h und
ĠC ra
Ġv atna
ĠÃį ris
ĠÃ¦f inga
ĠendurgreiÃ° a
Ġtap iÃ°
is co
Ġlang s
ĠvÃŃta teig
ĠL ilju
ĠM A
Ġkast aÃ°
rÃ³ nu
ĠlÃ½Ã°veld isins
ĠNÃŃger ÃŃu
ĠnÃ¡ttÃºr unnar
Ra unar
Ġhag nast
ĠÃ¾Ã¡tt unum
ĠStein bÃŃtur
ĠstyÃ° ji
ĠL ew
ĠÃŀjÃ³Ã° verja
Ġvar nir
ĠvÃŃs inda
rau tir
ĠsnjÃ³ Ã¾ekja
Ġslag inn
Ġh as
ĠLÃŃf eyriss
Ãĸll um
ag jÃ¶ld
ĠsjÃºk raliÃ°
ken nd
Ġsamein ingar
ĠH al
DÃ³m sorÃ°
Ġsystk ini
Ġund ra
Ġbygg Ã°ur
ĠHaf stein
sk aut
arf a
si c
ul li
M ich
se yri
ĠV el
ĠMagn Ãºssonar
v ofandi
ĠÃŀ jÃ³
Ġinn ilegustu
Ġor Ã°ast
ĠstrÃ¦ti sv
ĠFax aflÃ³a
or ti
Ġeignar rÃ©tt
ĠVÃŃk ings
ĠNor rÃ¦na
LÃŃk lega
Ã¦ l
Ġeld fl
K Ã¡ri
ĠW OW
ĠJu li
ĠBlÃ¶ndu Ã³si
ma ti
ĠauÃ°lind ir
Verk efniÃ°
K onur
ĠBag dad
stu Ã°u
aÃ° lÃ¶g
ab Ã¦tur
Ġeink alÃŃf
ĠÃģsm undur
yr ki
ĠP ri
ĠstuÃ°ning smÃ¶nnum
h Ã¶gg
to gar
Ġveitt ar
Ġb jÃ¶rg
Hauk ar
Ġbir st
sliÃ° iÃ°
Ã¾ ola
Ġlandam Ã¦ra
ĠCard iff
Ġpla tan
ĠgrÃ³Ã°urhÃºsalof tteg
ĠLe eds
Bandar ÃŃska
ĠApp le
ĠHag stofunnar
F ast
ĠNorÃ°url andar
Ãį tal
ott inn
ad eil
ĠskerÃ° ingu
Hr afn
ĠskÃ³g rÃ¦kt
sam takanna
ĠbjÃ³ st
Ġumtals efni
leiÃ° ir
Ġhann a
geng t
ĠaÃ°il inn
El ÃŃn
ĠN as
ĠstÃ³r lega
Ġspreng ja
v Ã¦r
Ã¶f lunar
Ġskuldbind ingum
sl ista
ĠÃŃt Ã¶lsku
ĠhÃ¡lfleik inn
Ġkross ins
Ġg Ã¶tuna
ĠÃ¦ ft
lu gi
B u
heimil iÃ°
ĠhagvÃ¶x tur
jÃ³ la
Ġsp ennt
ĠVal geir
B Ã¡
ĠhÃºs frey
ĠembÃ¦ttis manna
Ġald raÃ°a
Ġr aÃ°a
Ġgam ans
ĠSk el
Ġveik ur
ĠCh icago
lau sar
ĠVÃŃk ingi
Ġframlag i
MÃ¡l sÃ¡
Ġafl amark
j Ã¶fnunar
Ġb uÃ°u
ĠsveitarstjÃ³rnar kos
ĠaÃ°al stefnanda
Ãŀing menn
g inn
av es
Ġbr en
uk ust
vin t
Ã¶ skur
n or
Ġbot ni
ĠEyr ar
ĠSamfylk ingunni
Ġy ou
ĠrÃ¡Ã° andi
lÃ¶g Ã°
Ġpl Ã¶tuna
Ġsvar tur
ĠsÃŃÃ° kastiÃ°
Ġveik tist
ĠriÃ° lak
bre kku
sem jara
NorÃ°ur l
Ġsum t
fÃ¦r slur
ĠHauk sdÃ³ttir
w a
Ġskatt ur
ott er
Ġreg n
ĠdrÃ¡ttarv exti
ĠbifreiÃ° ina
b la
ĠsveitarfÃ©lÃ¶g unum
Hvor ki
Ġvar ak
ĠHÃ¡ skÃ³lanum
Ġraunver uleg
Ġefnahag sh
ab oÃ°um
Ġlag fÃ¦r
Ã° andi
amÃ¶rk uÃ°um
jÃ¡ ni
vÃ¦g is
Ġskuld ar
Val gerÃ°ur
sl Ã¡na
Ġp ÃŃnu
Ġsam kvÃ¦m
Ġlok ast
Ġsn il
kirkj unnar
sk s
ĠkÃ¶r lum
ĠnÃ½ tti
Ġra ddir
ĠyfirlÃ½s ingunni
ar on
ĠBreiÃ°ab liki
K lukkan
ig t
Ġdag legu
Ġg jÃ¶rg
mar sson
O l
Ġe kk
ĠÃŀing valla
Ġam er
Ġheim av
sliÃ° i
ĠmÃ¦tt ur
ĠsamgÃ¶ng um
Ġgr Ã¡t
Ġf Ã¦Ã°i
ĠfÃ³r ust
ĠPh il
K on
okk ar
ĠrÃ©ttar stÃ¶Ã°u
bÃº Ã°a
ĠfÃ¶ tum
Ġ16 1
ĠA la
ĠsÃŃÃ°ar nefnd
ĠÃ¡tt aÃ°i
Ġleyf Ã°i
ĠsÃ³larhring inn
Ġsk ep
Ġlag st
ĠreiÃ°u bÃºinn
ĠSt rÃ¦tÃ³
Ġhef Ã°ir
ĠrannsÃ³knar innar
ĠE ist
G Ã³Ã°
ĠB og
ĠnorÃ°ur hluta
B ak
Ġspjald iÃ°
Ġfr estur
ĠrÃ¡Ã°staf ana
E iÃ°ur
Ġgreind ist
Ġmiss i
ĠÃŀÃ³r u
ĠReykjan esi
ĠupplÃ½ sti
ĠVegagerÃ° inni
k eppninni
alÃ¶g in
ĠT ony
sam tÃ¶kin
Ġeignarhald sfÃ©lag
skar andi
ĠsuÃ°ur hluta
Ġbr u
hr ÃŃÃ°
N orÃ°
ĠLax ness
ĠP ek
ĠÃ¡r Ã©tt
ĠK er
ĠSigurÃ° ssyni
ĠÃ¾olinm Ã¦Ã°i
Ã°u g
ĠhlÃ½ tt
Ġfall inn
Ġf ÃŃ
Ġskil virk
ĠG issur
Ġfors ÃŃÃ°u
ĠÃŃ Ã¾yng
Ġopinber t
Ġstarfsem ina
ĠS i
Ġj ukust
ĠfrÃ¡ vÃŃsun
ĠEin ari
Ġfl ey
Ġhygg ist
ĠSteind Ã³r
ĠBlÃ¡ a
ĠbÃº ning
ĠE ir
ĠsjÃ¡lf ra
h reins
ĠmarkaÃ°sset ningu
Ġverk taka
Ġnor rÃ¦nu
if t
ĠÃ¶ld unga
Ġmiska bÃ¦tur
ĠtrÃº aÃ°
br ug
Ġly ft
Ġor gel
ĠrÃ¡Ã°her rans
ĠSt yr
Ġhor fur
D e
ĠÃŃÃ¾rÃ³tt ir
ri ki
g uÃ°
Ã¾ rÃ½st
ĠÃįslend ingur
Ġsla ka
ĠembÃ¦tt inu
Ġvernd un
0 1
ĠÃ³g eÃ°
N auÃ°
ĠN e
VÃŃs ind
Ġtilgang urinn
Ġundan skil
Ġfyrirhug aÃ°ar
Ġmat inn
af Ã¦ri
ĠstrÃ¡ kar
ĠRÃŃkisendur skoÃ°un
ĠfrÃ¦ nd
s vert
Ġfram bÃºÃ°ar
Ġskil mÃ¡la
ĠmÃºsl ima
ĠmÃ¡l unum
M egi
Ġinnihald a
ĠfrÃ¡ vik
Ġfor kaup
Ġfars ÃŃm
sk ju
ĠsamrÃ¦ ma
hjÃ¡l par
ĠÃĵsk arsdÃ³ttir
ĠÃ¾ingsÃ¡lyktunar tillÃ¶gu
Ġsak nÃ¦m
Ġs or
Ġsn ill
hÃ©r aÃ°i
ĠfjÃ¡rfest inga
ĠRo ck
ĠÃ³Ã¾ arfi
fyrirtÃ¦k jum
Ġsp Ã¡r
Ġsk afren
ĠfÃ©ll st
Ġskemmt un
At hug
ĠskÃ³ na
Ã¶r Ã°urinn
BÃŃ llinn
sam legt
ĠlÃ½s ing
Ġyfir vofandi
samning urinn
Ġris ast
Ġvar ar
eig endum
Ġk alli
Ġgekk st
Sag an
b anda
Ġhlaup i
Ġatkv Ã¦Ã°um
Ġm Ã¦ti
ĠIng imar
Ġathug aÃ°
Ġstig in
Ġst ungiÃ°
ĠÃ¡tt ina
ĠK u
ĠtÃ³nlist ina
ĠKrist Ã³fer
rÃº ar
Ġ11 7
Ġleit uÃ°u
ĠalÃ¾jÃ³Ã° leg
st unda
Ġr at
Ġendursk o
ag s
ĠK ald
ĠstjÃ³rnar sÃ¡tt
ĠW ales
M ennt
f Ã¶ng
leys is
yl e
ĠveiÃ° im
ĠkynferÃ°i slega
Ġsk ÃŃÃ°
ĠmÃ³tmÃ¦l endur
ĠUmhverfis stofnun
dag skrÃ¡
Ġleik stÃ½r
Ġhr yll
ĠheilbrigÃ°isk erfinu
Ġ jÃ¡r
i j
Ġafur Ã°ir
Ġt org
Ġv ang
ĠtÃ¶lu Ã°u
ĠmÃ¡lsvarnar laun
h Ã³tel
Ġhugmynd ina
Ġlok uÃ°
Br ot
araÃ¾ on
Ġskip tar
all inn
ĠSam tÃ¶kum
Ġsveit um
ĠHalld Ã³ra
Ġh old
Ã¾Ã¡tt um
Ġfal in
as vÃ¦Ã°i
Ġl ÃŃm
Ġhr uni
ĠS y
Ġtann lÃ¦k
ĠBrag ason
Ġlandam Ã¦ri
ĠTex as
sm Ã¡
Ġkringum stÃ¦Ã°um
Ġv eir
Ġmilli bili
ĠCh ristian
ĠÃºti bÃº
ĠP ed
Ġerl ent
g iÃ°
ĠlÃŃk legri
Ġkost ir
ĠBandarÃŃkjafor seta
ĠtÃ³nleik ana
Ġinn byrÃ°i
kl Ã¦
ĠbÃ¡t num
h Ã¡ttum
frÃ¦ Ã°a
ĠBjart rar
ĠtÃŃÃ° ni
ĠÃºrskurÃ° aÃ°ur
Ã½s a
brag Ã°a
ĠKv enna
ĠÃ¾ing skÃ¶p
Ġhlutfall iÃ°
Ġt aum
ĠÃ¡Ã¦tl unum
7 1
v ing
amer on
aney slu
k e
st Ã¶k
ess en
H Ã¡tt
Ġb andarÃŃk
Ã©tt indi
ĠvÃ¶x tur
ĠGunnar ssonar
ĠliÃ° lega
arf rÃ¦Ã°i
ÃŀaÃ° an
s ur
eftirlit s
arf erÃ°
Ġel stu
ĠljÃº f
Ġm Ã½
ĠFjarÃ°a byggÃ°
eg as
hor fur
Ġsl Ã³Ã°
Ġmennta skÃ³la
ba ch
Ã¶r kun
alest ÃŃn
b all
ĠgjaldÃ¾rota skipti
Ġfi ska
ĠsÃ³l in
and yra
19 9
Ġmillig Ã¶ngu
ĠhefÃ°bund na
Ã¦Ã° unum
ĠHv amm
? ?
Ġsex tÃŃu
M art
ĠhagrÃ¦Ã° ingu
Ġ24 0
Ġvak naÃ°i
g Ã³Ã°
ĠC ent
Ġendurskipulag ningu
ĠmikilvÃ¦g ar
ĠnÃ½ ting
Ġsner ti
ĠpÃŃan Ã³leik
ĠbÃ³k st
Ġskattlag ningu
Ġv alt
ĠW igan
s eÃ°
ann anir
8 1
Ġbann i
Ġheil la
ĠÃ¡ m
ĠÃ¡grein ings
lend i
ĠFrank furt
m e
ĠS unda
Rey n
ĠrÃ©tt ri
ĠskÃ½r slunnar
rÃ³ t
leg iÃ°
ĠbÃŃ Ã³mynd
S ver
Ġupp ist
dal s
ans Ã¶gÃ°u
Ġrig ningu
an Ã¡mi
Ġs uÃ°vestan
ĠnÃ½ mÃ¦li
Ġa ir
Ġf oss
Ġm jÃºk
bygg ing
ĠÃ¶r lÃ¶g
Ġhald nar
ĠH ita
Ġkarl mann
am o
ĠskÃ½r ari
Ġbygg Ã°ir
Ġgr ennd
Ġrekstr arkost
ĠfrÃ¦g a
bra uÃ°
ĠnÃ¡gr annar
ĠhÃ¡ u
ĠsamfÃ©lagsmiÃ° lum
Ġv Ã¶l
Ġk orn
Ġbar Ã°ist
ĠÃºt bÃºa
ĠB el
Ġsvar ta
ĠÃŃslen ski
fÃ¦r sla
Ġfram ang
s agna
ĠIngib jargar
Ġsv ak
ĠS T
Ġauk ins
ĠhvÃŃ tl
ĠThor s
Ġdeildar stjÃ³ri
ĠhÃ¶fÃ° aÃ°i
ĠarÃ° semi
ÃŃf u
ĠÃ¾rÃ³ unin
ĠsÃ¦k jast
Ġdug Ã°i
ĠHol ta
Ġdag bÃ³k
ĠfjÃ¶lskyld na
Ġhlutaf Ã©lÃ¶g
Ãģ fram
ĠÃ¡f Ã¶ngum
ĠskoÃ°anak Ã¶nnun
ĠrÃ³ a
ĠS uÃ°vestur
Ġkvikmynd agerÃ°ar
Ġbjug gum
Ġk ÃŃsil
ĠÃ¦ vis
Ġkv iÃ°
ĠÃ¾ekk tu
ĠlÃ¶g bund
ĠFrakk ar
rÃ¡Ã° inu
v on
ĠGuÃ°mund ssyni
ov ision
ĠsambÃ¦r ilegt
ĠE yglÃ³
ag ang
g agna
kom um
mark a
SÃ¶m uleiÃ°is
Ġfor menn
Ġbyrj uÃ°um
ĠÃ³k unnu
lesbro ugh
ĠS lysa
in Ã³tt
ĠskrÃŃ tiÃ°
rÃ¦ nar
ber gur
Ġfag lega
Ġversl unarinnar
Ġor kumÃ¡l
tal a
ĠsjÃºkra hÃºsinu
ĠIngib jÃ¶rgu
ĠÃŀing vÃ¶llum
ĠskÃ½r ir
ett e
Ġbl Ã¶Ã°um
ĠÃ¡Ã¦tl aÃ°ur
o ol
Ã½s ing
Ġhr undi
Sum ar
Ġ13 5
ĠOrkuveit unnar
Ġveg al
ĠC la
ningarf r
lend um
ĠklÃ¡r t
Ġum Ã¶nnun
ĠgarÃ° inn
Ġjafng ildir
Ġr eif
ĠO n
Ġd ygg
arf lug
Ġrey nast
ĠBir gis
Ġvan efnd
vettvang i
Ġ20 20
ĠstjÃ³rnar mynd
Ġr i
V ER
Ġhag frÃ¦Ã°ingur
jÃ³ nir
ĠlÃŃfeyrissjÃ³Ã° anna
Ranns Ã³knir
Atl ant
ĠlÃŃk um
Ġmarg an
MeÃ° an
MÃ¡lsÃ¡ stÃ¦Ã°ur
ĠstjÃ³rnar maÃ°ur
ĠrÃ¡Ã°her rum
liÃ° um
ĠB yl
Ġfyrir svar
l arnir
Ġinnflyt jendur
ĠHreiÃ°ar sson
Ġgjaf ir
ĠHÃ¡ kon
Hlu ti
Ġsam drÃ¡tt
Ġv asa
ĠframtÃŃÃ°ar sÃ½n
Ġhjar taÃ°
Ġm l
ĠÃºt sÃ½ni
ĠGo ogle
ĠL A
ĠlÃ¡n tak
Ġkrabbam eins
s Ã¦t
Ġh Ã¶m
Ãŀ angaÃ°
Ġdeild in
ow er
Ġjafn aÃ°
ĠÃ¡lyk tanir
Ġfr eista
ĠÃ¦ vil
as jÃ³Ã°i
ĠHjart arson
Ġklukkust undum
sl Ã³Ã°um
ĠSteingrÃŃm sson
Ġher Ã°a
sm ÃŃÃ°a
ley fis
Ġkvikmynd inni
ĠFjÃ¶l brauta
Hin ir
Ġund angeng
Sam hliÃ°a
ĠfullorÃ° na
ĠÃ¶ku tÃ¦ki
ĠhÃºsn Ã¦Ã°iÃ°
ĠÃŀÃ³rhall sson
Ġalmenning ssam
Ġspar naÃ°ar
ĠÃ¡ lÃŃt
Ġk jÃ³l
ek stur
S u
ĠviÃ° stÃ¶
ĠvÃ¦ ndi
Ġdja ss
Ġlandbr h
Ġbir tu
fest u
v eldi
Utan rÃŃkis
Ġmynd unum
ĠWilli am
ĠBurn ley
b n
Mik lar
SÃ©r frÃ¦Ã°ingar
Ġvar ast
Ãģ tta
ĠR agna
Ġka Ã¾Ã³l
ĠlÃ¡ nar
Ġsm ella
regl na
e en
stefnd i
amÃ¡l in
Ġbreytt um
ĠflÃ³tt amenn
en num
jÃº f
Ġskrif uÃ°u
ĠP en
Ġmest an
sb ar
ĠL az
Ġdyr a
Ġ12 6
Hug myndin
TÃ³m as
Ġfl aut
ĠskÃ½rslu tÃ¶ku
ĠFramsÃ³knarflokk s
HljÃ³msveit in
ĠB Ãºr
Ġfe ta
V an
ĠSam Ãº
t jÃ³n
Ġgef nu
h Ã¶nnun
Ġhl Ã¡tur
Ġeftir sÃ³tt
ĠhÃ¦tt um
Ġsameigin leg
ĠstrÃŃÃ° iÃ°
n unum
ĠaÃ° lag
Ġp Ã¶nnu
Ġlang varandi
ĠÃ¡k Ã¦ra
ĠkÃ¦r leik
ĠtÃŃm ans
Ġtillit s
as jÃ³Ã°s
ĠsÃ¶lu skatt
ÃŃsk ar
ĠrÃŃkisfjÃ¡r mÃ¡lum
ĠbÃ¡t inn
Ġheims vÃŃsu
Ġbro tist
b et
ĠHÃ¡skÃ³la bÃŃÃ³
Ġkvikmynd um
ol o
ĠÃ¾v ing
Ã¦Ã° ingar
Ãºr rÃ¦Ã°i
GuÃ° laugur
Ġvin konur
T ak
eftir liti
ĠÃ¶r ork
ĠauglÃ½s ingum
ĠfjÃ¶l bÃ½lishÃºs
Ġpr jÃ³na
asafn s
Ġfeng inn
Ġnefndar Ã¡lit
Ġlag Ã°ist
ĠÃ¦tt ingjum
hagsm una
n ÃŃu
ĠFis cher
Ã¡rÃ¡ sir
leg Ã°
Ġhl unn
Ġhug bÃºnaÃ°
ĠverÃ°bÃ³l gan
M o
Ġk anad
el e
ĠLÃŃ ban
ĠbÃ³ nd
ĠKast ljÃ³
ĠiÃ° ju
Ġ2 30
ĠH Ã¡lf
stofn anir
Ġsk Ã¦r
Ġstund irnar
Ġb if
ĠJÃ³n ÃŃna
Ġvel ur
aferÃ° ir
Ġkirk jan
vax tar
h yl
ĠS evilla
eyr ar
ĠC le
ĠBS RB
arf jÃ³rÃ°ung
ĠÃ¡kÃ¦r Ã°ir
ĠK y
Ġfjar veru
I L
ĠviÃ° tÃ¶lum
ĠÃ¶rug gan
Ġgl Ã¶Ã°
ĠGylf ason
ĠfrÃ¡ drÃ¡ttar
S P
Ġsinn ir
ĠÃ¾rÃ½st ingi
vÃ¶rÃ° ungu
ĠSam bÃŃÃ³
ĠÃŀÃ³rÃ°ar dÃ³ttir
Ġstarf rÃ¦k
Ġ17 5
k arl
Ġundantek ning
H u
st Ã½ra
ĠhÃ¡skÃ³la sjÃºkra
A uÃ°
ĠHans en
ĠtakmÃ¶rk uÃ°
ĠF ab
ĠsjÃ³narmiÃ° i
ĠhÃ¡mark sh
h y
Ã³l inn
ĠrÃ¡Ã°stefn unni
ĠB ach
g andi
sam bandi
hver finu
ĠnÃ¦r veru
ĠgÃ¡l eysi
aÃ° gerÃ°a
Ġlau g
ĠsÃŃÃ°ar nefnda
Ġuppfyl li
ĠtjÃ¡ Ã°i
mÃ¦l alaust
g rÃ¦Ã°slu
ĠTyrk lands
s ug
ney slu
Ġtil tÃ¦k
hÃ¶f Ã°
Ġatvinnurek enda
ĠB as
Ġsv Ã¦Ã°a
Ġutan aÃ°
tÃ¦k ja
Ġar e
ĠglÃ¦s ilega
Ġm ess
ĠRagn hildur
Ġsn jÃ³r
ĠlÃ¦g stu
Ġvott orÃ°
tek tir
ĠÃ¾Ã½ tt
ĠgrÃ¡ Ã°ur
Ġnor Ã°austur
ĠskoÃ° aÃ°i
Ãºst af
Ġs mi
hÃ³p sins
âĢ¦âĢ¦ âĢ¦âĢ¦
Ġvins am
ĠKring lunni
Ġbl Ã¦
rÃŃk ja
ĠFÃ¡ skrÃºÃ°
Ġsamstarf iÃ°
F undurinn
yr ra
ĠÃ¾Ã¡tt urinn
Ġg ÃŃr
ĠSveins dÃ³ttir
sjÃºk dÃ³ma
aliÃ° i
ĠInd Ã³nes
Ã¡frÃ½ janda
ĠU td
Ġfelli byl
ĠGeir s
ĠÃ¡horf endum
ĠÃ³lÃ¶gmÃ¦ t
ĠGal lup
m inni
Ġveg ir
Ġfull s
Ġhreyf ingar
yl or
ĠHrafn hildur
af elli
Ġein vÃ¶rÃ°ungu
b ot
ĠHvol svelli
Ġl Ã¦t
Ġbirt ingar
Ġleigu bÃŃl
6 9
yn t
ĠframÃºr skarandi
Ġnot uÃ°u
ĠbÃ³ nda
F ljÃ³t
V ÃŃÃ°a
in c
Ġl estur
Ġs ax
bank anum
ĠH aga
ĠHam ar
ĠauÃ°l inda
Ġfram kvÃ¦mt
ĠMak ed
ĠS Ã¶ng
ĠprÃ³ fi
ĠgjÃ¶rg Ã¦slu
Ġfyrir Ã¦tl
ĠCr ystal
ĠrÃ¡ s
Ġhol lustu
Ġ0 1
Ġskrif uÃ°
verk efnum
ĠsÃŃÃ°ar a
ĠmÃ¡nuÃ° ina
Ġreik ningum
ĠgÃŃ sl
LiÃ° in
ĠvÃ¦ nd
V atn
ur r
Ġgeisla di
Ġr epÃºblik
Ã° unar
Ġsam gr
Ġsel st
tion s
Ġeldg os
ĠniÃ°ur lÃ¦g
Se inna
Ġpen ingast
Ġv as
Ġbr ost
ĠtÃ¶lv ur
Ġh rÃº
riÃ° ill
St Ãºl
ĠÃ³venju legt
ĠfiskveiÃ°ist jÃ³rn
ĠvÃŃÃ° svegar
skrif tir
ĠBri em
D Ãĵ
er en
ĠliÃ° u
str ÃŃÃ°
ĠÃ¡Ã¦t la
Ġhver fur
Ġskil anefnd
ĠÃŀ ver
Ġh opp
Ġhjar t
ĠBarna verndar
Ġpist li
K ost
ĠH Ãºna
al it
ak ona
ĠNjarÃ° vÃŃkur
ĠÃ¡ lÃ¶g
ĠG all
ĠR Ã¶gn
ĠP i
Ġhreyf ing
Ġskip in
Ġfasteig nir
Ġgleym t
ĠsÃ½slum aÃ°ur
erg y
E Y
ĠlÃŃk nar
ĠA jax
FjÃ¶l miÃ°
Ġhark alega
Ãº tu
ĠNor d
f eÃ°
Ġt e
Ġst Ã¦Ã°u
ĠSam kvÃ¦mt
Ġsann girni
ĠÃ¡kveÃ° inni
ÃŃ ga
ka ss
U G
ĠlÃ½s ingar
ĠfrÃ©tt amenn
Ġsigurmark iÃ°
ck s
Ġlaus afjÃ¡r
dÃ¦m um
K ona
ĠvefsÃŃÃ° unni
v Ã©la
v or
Ġver sn
ĠHel lu
ĠstjÃ³rn aÃ°i
ĠFI SK
ĠhagrÃ¦Ã° ingar
ĠBÃ¶Ã°var sson
ĠLou is
eÃ° a
mynd a
hÃ¦Ã° in
Ġfor ust
Ġkrepp u
skip an
Ġhrif inn
ĠG um
ĠfullorÃ° ins
sÃ¦ l
ab org
ĠbÃ¡ tar
yr kur
Ġinn flutnings
ĠGrafar vog
Ġsk Ã¶ttum
ĠH or
frÃ¦Ã° in
ĠEur op
ĠmÃ³t un
Ġfram ansÃ¶gÃ°u
ol ves
ĠKol bein
heiÃ° ar
ĠbrÃ© fiÃ°
f ot
eng t
Ġ194 1
rey nslu
gjald a
ĠÃºtlend ingar
ĠvinsÃ¦ lt
ĠdÃ³msm rh
Ġmal bik
Ġl eir
Ġm Ã¡ttu
Ã¡Ã° sins
ar ann
Ã³ lit
Ġein ok
stjÃ³r um
ĠV ÃįS
aÃ° ferÃ°
ĠFran c
Ġsk ammar
Ġstarfsmann i
ĠAÃ°al steinn
Ġtv enn
ĠÃŀÃ³r arins
ĠrÃ©ttar hÃ¶ld
Ġa ur
brÃ© fiÃ°
ĠfÃ¦r Ã°ar
ĠhÃ¶f unda
Ġmynd aÃ°
is m
h rauni
Leik menn
V ill
T ekjur
Ġvant raust
Ġ jarÃ°a
ĠWat ford
Ġsum ars
stÃ¶Ã° unni
Ġbikar num
ĠorÃ° aÃ°i
Ġeld urinn
ĠÃ³tvÃŃ rÃ¦tt
Ġsam run
ĠtillÃ¶g una
ĠÃ³ vin
Ġleik manni
Ġrif tun
ĠB M
ĠveiÃ° ist
sp re
Ġlist ans
ĠsjÃ³Ã° inn
ĠflÃ³k in
smark aÃ°i
um b
Ġe p
ĠC amp
ist i
Stein unn
ĠbeÃ° inn
ĠsÃ½ ndir
ĠverÃ° skuld
ad al
um a
Sk rÃ¡
Ġheim aland
Ġver stu
ĠÃºtgÃ¡ fur
ag naÃ°
ĠsÃ½k na
sinn is
komulag iÃ°
Ġhygg ju
Ġbre skum
Ġdr jÃº
ĠnÃ½ i
ĠsÃ©rstak rar
g egn
Ġlyf ta
ĠeÃ°lileg ra
ĠLauga vegi
Ġmargf alt
ĠÃ¡ tÃ¶kin
ĠsÃ¦ ng
ĠLS H
ĠfÃ¦r st
ĠsjÃ¡lfs vÃŃg
Ġp ok
Ġfund urinn
Ġsamsvar ar
Ãºtg Ã¡f
B irk
Ã³n list
Ġval ko
MARK AÃĲUR
Ġleik arinn
Ġaf brot
E inu
Ġvar anlega
ĠaÃ°fanga dag
ĠOdd nÃ½
ĠÃįsrael a
AF P
Ġop nast
ÃŃm ans
ĠlÃŃfsh Ã¦ttu
Ġdrag ast
Ġ %
ĠvÃ¶rn inni
ĠH and
ĠfÃ¶studag skvÃ¶ld
Ġverkefn in
Ġapp els
ĠhlÃ½ Ã°a
Ġvit ley
Ġvirk junar
st j
bÃ¶rn in
vinn ust
ĠnÃ¦r ingar
ĠT Ã¦kni
ĠdÃ³m arinn
borÃ° inu
Ġsaum a
ĠbrÃ©f in
ranns Ã³kn
Ġ11 4
ĠGrÃ©tar sson
ĠfrÃŃ tt
Ġh um
ĠBreiÃ° holt
nd al
Ġfor rÃ©ttindi
ĠJes Ãº
F Ã¦r
ĠviÃ°urken ning
S onur
k inn
Ġk aus
F rum
Ġn auÃ°a
on na
tÃ¶l v
Ġbygg Ã°u
Ġver tÃŃÃ°
N Ã¦r
Ġminni hÃ¡ttar
hÃ¡tÃŃÃ° in
Ãĵ lÃ¶f
ar Ã°ur
ĠH rÃ³
Ġteng ingu
F rek
ĠfÃ©lag sheim
ĠskÃ½r ing
ĠÃ¶flu gur
Ġfr om
ĠgÃ¦r dag
ĠF jarÃ°ar
eig in
Ġdug ar
Ġk Ã½
FramkvÃ¦md astjÃ³ri
K ÃŃnver
veiÃ° a
deild ir
Ġveitingast aÃ°
ĠaugljÃ³ s
ug la
T Ã³k
ĠnauÃ° gun
Ġtraust s
kirkj unni
ĠboÃ° aÃ°i
ĠSteingrÃŃm s
el son
at ÃŃma
ĠÃ¾Ã½ Ã°i
ĠÃ¦Ã° r
Ġsterk u
sÃ½ ningar
Ġver jandi
LÃ¶g in
af undar
Ã¡r ra
Ġsamanst endur
For svarsmenn
Ġefnahag smÃ¡l
Ġfram andi
ĠstÃ³rkost lega
ĠHu ldu
ĠtÃ³n listarf
ĠÃģr borg
ĠfrÃ¡ farandi
Ãģ hrif
ĠÃ¡ bÃ³ta
ĠÃ¾ Ã¶gn
gi o
Ġgeng ist
NÃº verandi
ĠÃºt fÃ¶r
sm a
Ġstiga hÃ¦
ĠÃ³ sp
Ġtekjur nar
Ġframfyl gja
ĠÃ¡kveÃ° nir
Ġey junni
ung in
ab ba
ĠmeiÃ° slum
Ġsamkomulag inu
ĠkÃŃnver ska
ĠembÃ¦tt isins
ĠÃį Ã¾rÃ³tta
ĠvÃ¶ld in
h ildar
ĠB ig
eld a
ĠH ull
ĠskÃ½r sluna
ĠbÃŃla stÃ¦Ã°i
Ġhver rar
ĠC NN
ĠsmÃ¡ bÃ¡ta
ein sson
Ġlaus nar
ĠfÃ¡r ra
Ġspar naÃ°
m eg
Ġ193 9
ĠtvÃ¶f Ã¶ld
Ġupp skrift
ĠT orf
ĠmÃ¶gu legum
ĠutanaÃ° komandi
s end
ĠHjal ti
heil brigÃ°i
ĠÃģ l
ĠÃ¡reit ni
ĠsamningaviÃ° rÃ¦Ã°ur
ĠT jarnar
ĠMat hi
ĠSoff ÃŃa
Ġtilheyr ir
Ãŀ ykir
ĠHeilbrigÃ°i sstofnun
ĠrÃŃkis valdsins
V Ã¦ri
ar anns
Ġmann skap
rest s
ĠtvÃŃ gang
ĠtjÃ³n iÃ°
amÃ¡l arÃ¡Ã°herra
Ġvand ann
b rÃ¦Ã°
ĠBandarÃŃk jast
Ġstig u
ĠKat ar
ĠsamtÃ¶k unum
ĠE ski
Ġum hv
ein kunn
DÃ³m urinn
ĠK B
geng i
ĠlÃ³Ã° inni
ĠFÃ¦r eyja
ĠÃ¾urr t
Ġt Ã¶ku
Ġor ka
ĠfjÃ³r Ã°i
bikar num
Ġundan Ã¾eg
opp iÃ°
Ġhl Ã¦ja
ĠfrÃ©tt amaÃ°ur
ĠfÃŃkni efnum
Ġm ÃŃl
Ġnot enda
sh ygg
ĠÃ¾jÃ³Ã°fÃ©lag iÃ°
Ġloka umferÃ°
and ina
ĠIsa via
fÃ©lag anna
Ġsameigin legu
ĠMarg eir
Ġyng stu
ĠGer rard
Ġsag st
ĠNorÃ°urland anna
it o
ÃŃ unni
Ge org
Ġaf rit
ĠBÃºl gar
ĠnÃ¦g ilegt
ĠAndre a
ĠpÃ¡ sk
Ġakk Ãºrat
Al mennt
Ġf Ãº
ĠÃº l
ĠfrjÃ¡l slynd
Ġkirk jum
ĠÃ³sann gjarnt
ĠstjÃ³rnar menn
ĠUni vers
Samfylk ingin
Ġ19 18
ĠbÃºn aÃ°ar
ĠmatvÃ¦ laf
S jÃ³
Ġfullyr Ã°ir
Ġley n
Ġ194 3
ĠaÃ° hl
Ã¶g unnar
ĠS ant
ol ÃŃa
ĠaÃ°dÃ¡ endur
ĠIng u
ĠhefÃ°bund in
eyr ir
StuÃ° ning
rÃ¡Ã° staf
ĠLe Ã³
in et
Ġtal smenn
ĠD agnÃ½
in efnd
ĠL ag
c u
ĠGuÃ° brand
Ã¦ li
l und
Ġfast a
ĠtvÃŃ mÃ¦lalaust
skip un
ĠMi ami
St aÃ°a
Ã¶kk unum
Ġnem andi
Ġkeyr t
Ġb Ã¶r
Ġfram tak
ard y
Ġkynn tur
Ġfram burÃ°ur
ĠhÃ¡l s
ĠAlÃ¾jÃ³Ã°agjaldeyrissjÃ³Ã° sins
pp a
Ġsl Ã©tt
ĠviÃ° gerÃ°
Ġeinb eit
Ġregl urnar
Ġhor finn
ĠorÃ° rÃ³
ĠmÃ¡nu Ã°ur
ĠÃĸ gmund
ÃŀriÃ° ja
Ãģ horfendur
Ġstefnum Ã¶rkun
Ġfyrirspur nir
Ġgr Ã¶f
ru s
ab raut
k uÃ°
ek ta
Ġkveik ja
kyn s
t witter
Ġh Ã³g
ĠrÃ¡Ã° legg
A P
Ġu gg
ĠJÃ³nas ar
R I
Ġung ar
ĠGau ti
V innu
Ġv Ã¶n
Ġvor i
mund sson
ĠÃ¾Ã¡tt inn
ReykjavÃŃk ur
Ġmest ur
ĠhÃ© ldi
ĠES A
Hlut verk
Ġh legiÃ°
ĠupplÃ½singar nar
ĠsambÃ¦r ilegum
ver um
eim ur
liÃ° in
Ġaf koma
Ġdag blaÃ°iÃ°
et um
ger s
erk jum
v Ã¶rn
ĠhÃ¦ Ã°um
ĠrÃ¦ nt
oll ur
auk ningu
em ar
Ġp anta
jÃ¶kul s
af undur
Ã¦kk unin
ĠPalestÃŃnum enn
ĠAra son
T ÃŃu
sam ningar
amiÃ° stÃ¶Ã°
Ġfram arlega
k aÃ°i
ĠÃ¾ingflokk s
Ġsann fÃ¦ra
ei sla
ĠF Ãį
Ġh em
ÃĲ A
ĠfrÃ¡ bÃ¦ru
ĠÃ¶flug ri
ak er
ĠSt Ã³ra
Ġvand rÃ¦Ã°i
ĠKrist in
ĠVer slunar
Ġs h
tÃ¶l ur
RÃŃk iÃ°
Ġber n
ĠHag stofu
Ġgjald iÃ°
Ġn Ã¶fnum
Se inni
Ġse inu
ĠHelli sheiÃ°i
Ġstel a
mÃ¶gn un
nar nir
Ġd l
Ġrit aÃ°i
bÃ¦ ndur
Ġheimsm eistar
ĠlÃºt andi
ni e
sk erfiÃ°
Al la
ĠA k
Ġak stri
Tel st
ĠK Ã½pur
Ġsameigin legum
ĠF en
ĠsmÃ¡s Ã¶lu
ĠviÃ° varandi
Ġbein ast
mark aÃ°i
Ġkeyr Ã°i
lag na
ĠÃĨ gir
Ġken nd
r ana
end unum
ĠDan i
ĠEur ovision
aflokk urinn
ĠskrÃ¡ ning
Ġskatt heim
ĠH ow
Ġvinnu afl
Ġheimil in
ĠhÃ¡l si
fi skur
ĠframkvÃ¦md astjÃ³rnar
Ġgam lir
ĠrÃ³ leg
Ġspor na
Ġval i
arfÃ©lÃ¶g in
met ra
eti c
ĠMic rosoft
k Ã¶ll
ang an
Ġr yk
ĠsjÃºk lingum
ĠAnd ersen
Ġg ista
Ġlist ann
Ġhug takiÃ°
ÃŃsk ri
Ġvan ta
sh Ã¡
Ġfal ist
Ġfram lÃ¶gum
ĠgrÃ¦n s
ĠB HM
ĠÃ¡bÃ³ta vant
Ġ201 9
ĠÃ¡ leiÃ°is
ĠKrist ins
Ġbak ter
Ġhund ruÃ°um
Ġsamband inu
Ġmegin reglu
ĠSt ra
raun ir
Ãºss yni
ĠEyjaf irÃ°i
ĠfjÃ¶l l
ĠnauÃ° g
aÃ° stÃ¦Ã°ur
ĠL Ã¶
Mynd ir
an es
ĠHverfis gÃ¶tu
ĠaÃ°al hlutverki
r ari
Ġlyf ti
Ġend aÃ°
ĠHÃ¡k onar
ĠgÃ¶gn in
ĠSam band
ĠsÃ¦k i
Ġ193 8
Ġseinu stu
kom ur
ĠÃ¡huga verÃ°
Ġhrein skil
au stur
Gr indavÃŃk
ĠT raf
Bryn jar
Ã¶k in
sv ip
Ġh ass
n inu
ĠsÃ©rfrÃ¦Ã° ingum
i es
ĠaÃ° fÃ¶r
ein i
Ġkapp i
ĠhÃ¶nd ina
Ġyndi sleg
ĠumsÃ¦k jenda
v iss
tak an
Ġdap ur
ĠArn alds
ĠMen ningar
o sta
greiÃ° slum
ĠaÃ°lÃ¶g un
n est
ĠrÃ¶k st
org an
Ġsal an
r ag
mik ill
ĠÃ¾Ã³tt u
Haf Ã°i
B ent
nÃ¡m skeiÃ°
ĠsamÃ¾ykki s
Ġg en
Ġfl ÃŃs
ĠstaÃ° ir
o se
b aki
ĠrÃ©tt ir
ĠfaÃ° m
I A
Ġflut nings
ĠK n
ĠinnbyrÃ°i s
H anna
ĠÃ³ d
Ġk lapp
ĠaÃ°ildar rÃŃki
ĠframsÃ³knar manna
ĠS em
ĠÃŃmynd aÃ°
e ttu
Ã¶t num
Ġaustur hluta
ĠtjÃ¡ ningarfr
ri tuÃ°u
N AR
Ġaug unum
ĠbÃ³kst aflega
ĠrÃŃkis Ã¡byrgÃ°
ĠfÃ¶ tl
ĠskÃ½r slum
Ġmarka skor
Ġd eig
ĠBir ni
ĠbrjÃ³ ti
ĠskilorÃ° sbundiÃ°
kom iÃ°
ĠSkallag rÃŃm
auÃ° lind
ĠÃ¾ekki st
hÃ¦kk unum
ĠtÃ³nleik aferÃ°
and ra
ĠHaf steinsson
ĠSÃ¡ di
ĠFram sÃ³kn
ĠGar y
Ġb rasil
ĠHvann eyri
Ġsta ddir
ĠÃ³ form
if e
stÃ¶ ng
iss v
Ġbrey ti
ĠWa yne
ĠÃ¡h Ã¦tta
ĠÃ¡stand inu
Ġeinsk is
flokk ur
Ġflu gu
ĠÃŀÃ³ri sson
ĠÃºtreik ning
ĠgyÃ° inga
ĠmatvÃ¦ lum
Ġand liti
Ġm yrk
land iÃ°
sv egi
FjÃ¡r fest
ĠgrÃ¡ Ã°u
ĠHam as
ĠM y
St rax
af rÃ©tt
ĠAll ir
ĠHam ra
F Ãį
ĠskÃ³l anna
Ġsl Ã¦r
ĠPek ing
Ġfram burÃ°
Ġp alestÃŃn
ĠlÃ¦g st
ĠT erry
ĠJ ona
D Ã³ttir
Sk rif
Ġdreif ingar
alÃ¶g gjÃ¶f
sl av
ĠveiÃ° if
G est
ast efnu
Ġkjar adeil
NÃ½ lega
ĠNorÃ° manna
slum Ã¡l
ĠstrÃ¡ kur
ĠMalm Ã¶
ĠM od
ĠNor dal
ĠSel f
ĠVestur lÃ¶ndum
ĠfiÃ° lu
ta vis
svÃ¦Ã°i sins
ced es
ekk ja
M is
rÃ¶f um
r ing
Ġaug lÃ½
Ġtil hl
sf undi
Ġhag kerfiÃ°
ÃŃsk an
Til gangur
ĠfarÃ¾eg um
Ã¾jÃ³Ã° ir
Br ota
Ġku ld
kk aÃ°
vinn sla
ĠmÃ¡naÃ°ar ins
H il
Ã°u Ã°um
ĠH ins
ĠÃ³ komna
ul and
v andi
Ġp ant
Ġmisjafn t
tÃŃm ann
Ġb jÃ¶r
Ġfisk inn
Ġal a
ĠfjÃ³rÃ°ung i
Ġvopna hlÃ©
Erf itt
Ġskemmtileg ra
Ġhag kerfi
Ġseg jum
Ġsum ra
Ġstarf smanns
ĠDi ego
ĠStraum svÃŃk
ĠJakob sson
ĠVegagerÃ° in
ĠlÃ¡nsf Ã©
Ġgam lan
Ġfal legum
Ġsann i
O dd
ĠÃ³hjÃ¡kvÃ¦m ilega
c ri
Ġbor nar
ĠKol beinn
Ġvand inn
as Ã¶gu
ĠD ow
ĠW ik
Ġveru legur
Ġsp jÃ¶ld
Ġher manna
h and
is on
s und
Ġlaga Ã¡kvÃ¦Ã°i
Ġbjar gar
ĠStur la
Ġsterk ir
Ġdreng sins
Ã¡kv Ã¶rÃ°un
ast Ã©tt
Ġhend inni
bÃ³l gu
ĠSiglu fjarÃ°ar
ĠÃ¾jÃ³f naÃ°
L AND
Ãģ n
Ġ7 50
isku p
ĠH it
Ġatbur Ã°ir
f li
ĠB ull
ĠfriÃ° helgi
ĠfÃ¡ein um
ĠsvÃ¶r uÃ°u
Ġhvor um
ĠH rein
F al
b asti
Ġsameig n
Ġmyndband iÃ°
ĠCharl ton
FjÃ¶l skyldan
ĠÃ¡kÃ¦ru valdsins
ĠLa ur
FljÃ³t lega
Ġseld u
ĠsÃ©rstak ra
Ġfors Ã¦ti
I n
ĠsÃ½ nis
Ġyfirheyr slu
ĠleiÃ°rÃ©tt ingu
Ġheyr st
ĠSmÃ¡r alind
Ġfj mrn
ĠPÃ¡l i
Ġefnahag ssvÃ¦Ã°i
ÃŀÃ³r unn
ag en
ĠlÃ¶greglu stjÃ³rans
ĠÃ½ su
Ġken nit
vist ar
Ġsk Ã³li
Ġ unnar
ĠSkel jung
st aÃ°ir
ĠDanmÃ¶r k
veik i
Ġt Ãº
Ġmeistar aflokk
hr aÃ°a
ĠLu is
ĠevrÃ³p ska
ĠJÃº lÃŃ
sen e
nar r
Ġmynd un
Eitt hvaÃ°
ĠKÃº bu
Ġbl Ã¡s
T Ã¶lu
Ġneyt endum
Ġk urt
R au
et ro
ĠlÃŃk urnar
Ġvarnar mÃ¡l
Ġ andar
afer li
Ġendur reisn
Ġnefndar Ã¡liti
sk Ã³g
J u
Ġkyn nir
P A
amiÃ° lun
ĠEn ergy
Ġupp nÃ¡mi
Ġskil mÃ¡lum
Fram leiÃ°
Sn Ã¦
TÃ³n leikarnir
ĠÃ³ verÃ°
Ġmyndband inu
ning jar
ĠhvÃŃ tt
ĠkjÃ¶ ri
Ġfj alli
Ġinnan hÃºss
lÃ¡ ta
S katt
ĠnÃ¡ttÃºru verndar
Hluta brÃ©f
ĠvÃ¦nt ingum
h at
ĠAftureld ing
Ġkaup samningi
ĠFl Ã³
ĠP ro
ĠfjÃ¡rhag sleg
Ġsveit ina
N ES
ĠstÃ¶rf uÃ°u
Ġmegin atriÃ°um
ĠÃ¾yng ri
Ġ13 8
Ġra ung
Ġmatar Ã¦Ã°i
Ġsp rett
ab ÃºÃ°
Ġs yÃ°
sf erÃ°
skur Ã°ar
ĠGrund art
ĠE inn
Ġmynd aÃ°ist
Ġor s
ĠL ill
ĠlÃ¡nshÃ¦ fis
ĠVil helm
Ġleikmann inn
Ġtilgrein t
ĠundirbÃº nings
regl unnar
ĠT Ãº
ĠlÃŃ st
ĠKos ovo
is ma
Ġtiltek inn
ĠatriÃ° a
Ġvin ar
Ġyfir vinnu
Ġfor Ã°a
br eidd
g rÃ¦nna
ĠnÃºtÃŃm ans
Ġhr inda
jÃ³ num
Heim amenn
ĠHeiÃ° a
ĠYo ung
ĠskÃ½r um
ĠpersÃ³n ur
g rÃ³
ĠMagnÃºs i
f si
Ġli fi
Ġst afi
ĠbÃº fjÃ¡r
Er lend
Ġlax ar
ĠÃ¶ kk
jÃºk run
ĠÃ³ end
ĠviÃ°sk rh
Ġmi sl
ĠstÃ¶Ã°v aÃ°
Ġuppg jÃ¶ri
Ġsl Ã³Ã°ir
Ġher bÃºÃ°um
sÃ¡ ri
ĠuppÃ¡ haldi
Ġvit und
Ġframvind u
trygg ingu
ĠSvÃŃ ar
Ã¦ lingar
Ġm old
Ġs yk
Vin stri
hÃ¶ll in
ĠbrÃ¡Ã°abirg Ã°
Ġfram farir
Ġsm yg
sst jÃ³rnar
Sver rir
rabbam eins
ĠG rÃ©t
veit ingar
hlaup i
Ġgagn stefnanda
en berg
Ġheim alandi
Ġmerk ingar
ĠJ Ã¶r
ĠV all
ĠHaf steinn
ĠsÃ¶l una
ĠfÃ¶g nuÃ°u
ĠviÃ°sta ddir
of na
Ġfit u
ĠP ress
ĠG il
ot her
ĠkjÃ¶ ti
Ġst k
ug ar
ĠRÃŃk i
ĠnÃ¡gr enn
Ġundir tektir
D eil
ĠInd riÃ°
I nd
Ġvon t
Ġtef ja
Ġst oÃ°um
ĠHer dÃŃs
gr unni
ĠferÃ° alÃ¶gum
ĠlÃ¶g gÃ¦slu
Ġb ull
Ġumhverfis mÃ¡l
Ġupp sagnir
ViÃ° skipta
ĠtÃ³nlistar menn
Eg ill
ĠIng ason
Ein ungis
ĠFiskist ofu
al ar
TÃ¦p lega
Ġsum s
ĠhÃ³tel i
hit un
v ek
Ġheim urinn
Ġforeld ri
Ġhreyf ingarinnar
Ġfiski skip
ĠlÃŃf st
Ġfyrirl estur
ĠJ ean
ÃŃm ar
ĠliÃ° na
Ġinn flutt
ĠK Ãºr
Ġhv eiti
ĠkjÃ¶ tiÃ°
Ġb Ã½Ã°
lag g
j ans
ĠF u
ĠH ong
g Ã¡
ĠsjÃ¡lf ar
Ã¶f l
O kkar
jÃºk dÃ³m
Ġkyn nu
sk unni
Ġsek tar
ĠheilbrigÃ°is starf
ĠutanrÃŃkis rÃ¡Ã°uneytisins
Ġstarfsem inni
ĠFÃ³t bolti
sfÃ©lag i
ĠbensÃŃ ni
ĠsjÃ¡lf sag
Ġvil t
ug ir
ĠR annveig
of an
Ġefnahagsh run
r enn
Fyl gi
Ġvenju legt
Ġhyg Ã°ist
ĠsiÃ° areg
LÃŃk legt
Ġh andar
sÃ¡ kv
ta p
ĠskÃ½r inga
Ġyfirg af
b en
Ġr Ãºt
ĠstjÃ³rnarskrÃ¡ na
Arn Ã³r
ĠÃ¡ skrif
Ġald arinnar
ĠÃ¡ lÃŃ
Ġmenn tak
ĠÃ¶flu ga
StaÃ° reynd
ĠM ir
t org
ĠT our
ĠJÃ³hannes ar
ĠSig gi
ĠSta te
mat s
ĠSigmund ar
al em
Ġkeyp tur
ĠÃºt lÃ¡na
Ġ ab
ĠBorg arfjarÃ°ar
iel sen
ĠÃ¡ratug arins
ĠViÃ°ar sson
er u
Ġforvit n
ĠR io
ĠBr om
Ġsy nir
ra sk
Ġtiltek nu
Ġsystk inum
Ġmann virk
ĠveiÃ° arf
ĠK as
sk una
lÃŃ fiÃ°
Ġh reind
ot s
ĠViÃ° reisnar
ĠfrÃ©tt amann
Fram sÃ³knar
stÃ¶Ã°var nar
ĠlÃŃfsst ÃŃl
Ġsam vinna
ĠMar el
ĠerfÃ° agrein
andar d
Ãŀess um
g ast
Ã¶ nu
ĠB Ãį
H ildur
ĠhefÃ°bund nu
Ġdreif bÃ½li
ĠviÃ° halds
Ġvald ir
gerÃ° inni
A g
Ġ11 8
Ġtrygg Ã°u
kvaÃ° ningu
ĠE ric
D i
Ġhag kerfinu
ĠnÃ¦g ir
ning sins
ĠumsÃ¦k jendur
bÃ¦ nda
ĠSam herja
ĠbiÃ° jum
Ġfund argerÃ°
ĠalÃ¾jÃ³Ã°a vettvangi
Ġver sla
Ġeinst Ã¶ku
Ġung an
ĠSamkeppnis eftirlitsins
Ġafl Ã©tt
ĠgrÃ¦ na
ĠtÃ¶lu liÃ°
aleik ur
ĠSch ram
lin e
ĠatriÃ° iÃ°
R Ã³bert
l aup
ĠniÃ°urskur Ã°i
asÃ¡tt mÃ¡la
ĠHl ÃŃÃ°
fÃ¦r ni
Ġsamkynhneig Ã°ra
Ġd Ã¦gur
ssk rif
ĠdauÃ° sf
ĠCarl os
ĠaÃ°hl yn
ĠhjÃ³ num
v Ã©lum
Ġk alda
UN D
ĠfjÃ¶l lum
ĠBjÃ¶r t
Ġmyr t
ĠviÃ° tÃ¶kur
Ġop nu
sg reina
Ġatbur Ã°um
Ġat kvÃ¦Ã°
Ġend i
hlut un
S ala
Ġl iti
rÃ¦n n
ĠsviÃ° iÃ°
ĠT inna
lad im
ĠG narr
kom una
hver fiÃ°
ĠO slÃ³
ĠEr lu
Ġhand verk
ĠSÃ³l ey
Ġor ganisti
ĠfÃ¦r Ã°u
oss i
O piÃ°
v ana
Ġend ann
afl ot
Ġs jÃ³r
k erfis
v ic
ssÃ½ slu
v andamÃ¡l
Ġum mÃ¦la
framleiÃ° sla
afyrirtÃ¦k iÃ°
NauÃ° syn
ĠskÃ½r ingin
Ġlamb ak
ark erfi
ĠKatrÃŃ nar
nahag s
on to
ĠsÃ¦ tti
Ġhagsmuna aÃ°ila
ĠInd lands
G arÃ°ar
Ġlof aÃ°i
ĠArng rÃŃm
ĠÃ¾ekk tum
Ġverslun ina
D onald
Ġkr u
Ġ15 5
NÃ¦ stu
ĠniÃ°urstÃ¶Ã°ur nar
ĠÃ¾ aki
viÃ° rÃ¦Ã°um
Ġr aka
w ell
ĠandrÃºmsl oft
ĠsjÃ³ Ã°um
Ġvangavel tur
Ġm ild
v efnum
ĠGrafar vogi
ĠÃ Ĳ
ĠÃºthlut unar
Ġney tt
Nokk uÃ°
Ġlang m
Ġvott um
ab l
ĠMeistara deildarinnar
sp ili
Ãįs rael
ĠhvÃŃtl auk
ĠniÃ°urskur Ã°ar
Ġax la
Ġlands vÃŃsu
ĠLithÃ¡ en
o tti
Ġp ru
Ġlandsleik i
Ġathugasem da
og n
Ġlag afrumvarp
ĠÃ¡ verk
Ġdraum a
Ġleikk onan
Tel ja
ĠhljÃ³ ma
Ġp oka
Ġfj Ã¦r
m Ã¶nnunum
Ġskil ji
Ġlykil atriÃ°i
Ġbr yggju
nast arf
hÃ³p inn
ĠFinn boga
EN N
Ġhugs unar
Ġn ag
Ġstr eitu
Ġung lingur
ĠJo e
ĠmeÃ°al tal
Ã¡Ã¦tl anir
Ing a
ĠmÃºs ÃŃk
rÃŃk junum
p ÃŃ
Ġgjaldeyris hÃ¶f
Ġdag urinn
mann anna
ÃŃÃ° andi
far ar
Ġset u
Ġnokkur ri
ĠMidd lesbrough
Ġtil vÃŃsun
Ġland smÃ¶nnum
ĠMar in
ĠP u
lÃ¡ num
ĠÃ³lÃ¶g lega
Ġk Ãºn
ĠHallgrÃŃm skirkju
ĠgÃ³l fiÃ°
ĠstÃ³rkost legt
Ġumhver finu
h alla
ĠgarÃ° yrkju
ĠSt jÃ¶rnu
ĠbandarÃŃsk ir
S h
ĠÃ¡kvÃ¶rÃ° unin
Ġ11 9
ĠundanÃ¾Ã¡ gur
Ġhef i
ĠhÃ¡skÃ³l ann
Undanfar in
ileg asta
lut ninga
g rÃ¡Ã°u
ĠliÃ° nu
Ġfor rit
ĠL enn
hÃ³p ar
ĠmÃ¡l aflokki
Ġamfet amÃŃni
ĠLauf ey
ĠIndÃ³nes ÃŃu
Ġs Ã¶fn
ĠlÃ¶g bann
Ġinter net
Ġatvinnust arfsemi
Ġatvinn umÃ¡l
ĠmÃŃnÃºtur nar
ĠUnivers ity
Ġverkfall s
hlut ann
ĠNorÃ° vestur
ord an
ĠhÃ¦ttu leg
g rÃ¦Ã°
vÃŃ a
fÃ¦r um
Ġbygg Ã°um
Ġkosningabar Ã¡ttunni
af greiÃ°slu
arg Ã¦
ĠtÃ¦kn ilega
ĠSambÃŃÃ³ in
hÃ¶f Ã°a
ĠÃģ slaug
Ġbak viÃ°
Ġbjarg aÃ°i
Ġsk jÃ¶ld
Ġf estu
ĠstjÃ³r num
h ony
ic an
Ġum b
kenn slu
ĠlÃ¡gmark s
ĠÃģrmann sson
Ġbros andi
Ġforset afram
ÃģkveÃ° iÃ°
Ã³tt Ã¶ku
Ġhjar tans
epp a
ĠV Ã¶ls
Ġlaun amun
ĠÃ³ vÃ¦n
ust on
Ġkepp ti
sl agi
Ġtim bur
sskÃ½r slu
ĠaÃ°skil naÃ°
alla st
ĠÃºtreik ningum
Ġveg an
Ãĸkum aÃ°ur
ĠT ÃŃ
ĠlandsliÃ° smaÃ°ur
ĠÃ¡frÃ½ j
F jallaÃ°
ĠlÃ¶greglu stÃ¶Ã°
skost naÃ°ar
r of
sv ell
sum ar
yn ja
ett inn
ĠSport s
ĠlÃ¦k num
ĠThe od
ĠFoss vog
Ġend ingu
skÃŃr teini
helg ina
ĠG Ãºstaf
m on
el ta
Ġhaf Ã°ur
ĠK Ã³lum
rÃŃ Ã³
Ġframhaldssk Ã³lum
Ġsp ili
rÃº Ã°ur
Ġfund ir
ĠlÃŃfeyriss jÃ³Ã°i
ĠatvinnulÃŃf s
ĠÃ³ bein
aleg an
al ÃŃtiÃ°
Ġleik list
Ġleig um
ĠblÃ¡ sa
Ġl im
ĠlÃŃk amann
ĠuppÃ¡ halds
Ġsam fara
fi ski
ĠO s
Ġflugum ferÃ°ar
kir kja
ĠM jÃ³lkur
Ġaf urÃ°
ĠLands net
ĠstÃ³r leik
Ġlit u
ĠÃ¡r st
Ġinn sig
Ã¡ p
ey Ã°
ĠSigur geirsson
ĠbÃº vÃ¶ru
Ã¾ykk t
Ãģ L
Ã¦f ingar
ĠHafrannsÃ³knast ofnunar
Ġlag ast
v ent
ĠnauÃ°ungars Ã¶lu
h jar
Ġbe ind
ÃŃn unni
Ġkosningabar Ã¡ttu
ĠEyst ras
Ġflutt um
ĠslÃ¦m a
ĠFÃ©lag i
SK IRKJA
skjal i
tt ir
Ġk erfisins
Ġlaun afÃ³lks
sp urnar
Ġhill una
Ġd o
Ġleik listar
ĠN ick
Ġber ist
ĠSvÃŃ a
Ġbar dag
ĠmÃ¦likv arÃ°a
h ton
ĠM ax
ĠfljÃ³ tur
Ġgengi sl
LjÃ³ smynd
ĠGauta borg
ik a
et ri
Ġlit rÃŃk
Ġhor ni
Ġhann aÃ°
ĠHaf dÃŃs
ĠhljÃ³Ã° fÃ¦ri
stefn an
Ãįsl ands
ĠblÃ³m a
ĠauÃ°l indum
ĠdÃ³mstÃ³l ar
Ġskafren ningur
starf a
ĠQ PR
J Ã³la
ĠÃ¡ set
ok o
Ġr ist
Ġfram fara
sku Ã°u
ĠgrÃ³Ã°urhÃºsaloftteg unda
m una
Ġskyn semi
ĠtÃ³nlistar maÃ°ur
ĠfjÃ¡rmÃ¡larÃ¡Ã° uneytisins
ĠEyjaf jalla
ĠÃºr bÃ³ta
Ã¡s Ã¦tt
Ġpr jÃ³n
ĠÃ³Ã¾arf a
en e
ĠÃ¾Ãºsund um
ĠH reyf
ĠbjÃ³ Ã°i
N Ã¡tt
Ġken ndir
ĠÃ¡ na
ÃŃÃ° unni
ĠGl ob
Ġmynd bÃ¶nd
Ġsvip aÃ°a
ĠhÃ³tel inu
ĠviÃ° bÃ¦tt
ĠS Ã³
Ġstof unni
ĠviÃ°urken ni
ĠdÃ³ sent
ĠÃĵlympÃŃuleik unum
Ġframhald snÃ¡m
Ġkenn urum
FjÃ¡r mÃ¡l
ĠHrafn k
ĠÃŀorg erÃ°ur
sem in
Ġkos inn
Ġveru legt
ĠBr and
Ġsvip ta
Ġst orm
bandalag inu
ĠK et
ĠstÃ³r ra
Ġfrek ara
ir Ã°
Ġst Ã¶ku
ĠÃ³g nar
Ġd Ã¦t
ĠÃ¶ld runar
grÃŃm ur
ĠfjÃ¶lmÃ¶r gu
G era
Ġr eit
ĠhÃ¶f nina
ĠC an
Ġhver f
ey Ã°ingar
ĠÃ¦ s
Ġm er
steins dÃ³ttir
M ÃŃn
fÃ³lk iÃ°
Ġhr yg
ĠM Ã¡s
frÃ¦Ã° ingurinn
Ġgrein arg
ĠLo ga
Ġskrif lega
ĠbandarÃŃk ja
A nt
ĠskoÃ° ana
Ġstarf rÃ¦kt
ĠKatrÃŃ nu
ĠsjÃ³nvarp iÃ°
ĠsÃŃm tal
gÃ¦ f
ĠglÃ¶g g
ĠgÃ¦ lu
ĠstaÃ°ar ins
Ġvegfar endur
Ġsafn inu
ĠstÃºlk una
ĠrÃ© Ã°u
ĠG ir
Ġr Ã¶ngum
ĠF ag
ĠgjaldÃ¾rota skipta
menn ta
ĠÃŀar na
Ã© tri
ĠsÃŃm anum
til boÃ°
ĠFISK MARKAÃĲUR
ĠGrund arfirÃ°i
Ġ14 5
ĠKarl sdÃ³ttir
ĠsÃŃ man
Ġind ver
0 8
o tur
Ġhtt p
ĠÃģr bÃ¦jar
ĠGar Ã°i
sl un
n ag
Fl m
ĠÃºt hluta
Ġsm ell
Ġsamkeppnish Ã¦f
Ġt augar
ĠnÃŃt jÃ¡n
I T
ĠGu Ã°i
ĠVig fÃºs
ĠsjÃ¡lfsm orÃ°
Ġd ey
ĠveÃ°ur s
ĠviÃ°rÃ¦Ã° unum
Ġveg urinn
Ġst jÃºp
ĠGuÃ°finn sson
ĠnÃ¡m inu
ĠRÃŃkisÃºtvarp inu
x g
Ġv aka
ĠB andalag
ĠfrÃ¡ fall
ĠhÃ¡skÃ³l ans
ĠlÃ¦kk uÃ°
Ġles endum
Ġtrygg i
Ġinnl enda
Afl eiÃ°
b elti
bÃ¦r t
ĠC lau
di d
S al
ĠR auÃ°
Ġf em
Gagn rÃ½
ĠniÃ°ur stÃ¶Ã°una
ĠsÃ©r tÃ¦k
Ġm isk
list inn
Ġg agni
arfl okk
Ġf Ã³Ã°
Ġsam ferÃ°
Ġlek a
ĠParÃŃs ar
Ã¡kv Ã¦Ã°a
Ġforsend u
Ġtengd ar
Ġn eg
ĠÃ¾ekk tir
S Ã¦n
Ġm etur
g o
ĠrÃºm u
ĠstjÃ³rnsÃ½slu laga
ĠI ndi
ĠÃ³sÃ¡tt ir
ĠS Ãº
arfÃ©lÃ¶g um
0 4
ĠGrundart anga
Ġlau sir
z u
Ġheim sf
Ġsamning sbund
ĠsÃŃ t
ĠvÃ©l arinnar
ĠbÃ¦ jum
NÃ½ tt
ĠfrÃ¡ brug
Ġgrann t
hjÃ³ la
z k
komulag i
ĠstuÃ°ning smaÃ°ur
shl ÃŃÃ°
Ġinn t
ĠgerÃ°ar beiÃ°
Ġums jÃ¡
ĠskÃŃr skot
Ġst ÃŃg
Ġaf kast
0 7
ast er
ĠV ÃŃÃ°ir
al in
ĠR yan
arf ar
ĠframtÃŃÃ°ar innar
en st
ri sta
Ġskrif um
ster dam
Ġkl ÃºÃ°
ĠrÃ©tt an
Ara bÃŃu
All ur
ĠÃ³per u
Ġeinka aÃ°ila
ĠÃ³gley m
ĠPar is
Ġumtals verÃ°
Nem endur
V Ã¦
Ġvax tak
ĠSnorra son
Ġborgar bÃºa
L es
Ġhar ma
Ġvinn utÃŃma
T ÃŃm
Ġl Ã³Ã°ir
ĠviÃ° burÃ°i
ĠdemÃ³kra ta
er ling
ĠkartÃ¶f lur
Ġheil mikiÃ°
Ġkynnt umst
Ġh att
Ãŀ yr
ald urinn
nas jÃ³Ã°
ĠE li
Ġskemmtileg u
L ÃŃ
ĠvanrÃ¦k slu
ĠhjÃ³ last
ĠD em
val i
ĠnÃ½ t
K rÃ³
ileg rar
Birk ir
ĠLeik nir
Ġvit naÃ°i
SÃ¶m u
ag ildi
ĠljÃ³s iÃ°
ĠtÃ³bak s
Ġsp Ã½
ab ÃŃl
ĠHu ss
ĠhvÃŃ tu
reg lunni
tak mark
Ġrif jar
ĠÃģ sbjÃ¶rn
ĠD es
L ey
ĠAl an
Ã¾eg um
Ġv Ã¦rir
lu b
ĠA Ã¾
li m
ĠMerk el
kaup um
E T
Um boÃ°
ĠHrafni stu
Ġb ez
ĠÃ¡Ã¦tl unar
Ġ19 23
Al Ã¾jÃ³Ã°
Ġh atur
Ġseld ir
Ġleik vang
z i
ĠvÃŃ x
Ġvestan hafs
ĠC ameron
ĠjÃ³ lum
ĠbauÃ° st
F C
mÃ¡l anum
ĠljÃ³smynd ari
ĠBaldur sdÃ³ttir
ĠkÃ¶llu Ã°u
D reng
ĠaÃ° setur
sh Ã©r
Ġeinstak ur
H ingaÃ°
Ġbl aÃ°a
ut il
ĠGeir sson
viÃ° miÃ°
T Ã¦k
Ġb ita
aup a
Ġkant inum
ĠmÃ¡naÃ° amÃ³t
ĠstjÃ³rn ina
vÃ¦Ã° ingu
ĠsamÃ¾ykk tir
Ġstem ning
Ġhygg ja
Ã¾ rÃ¡
Ġein rÃ³ma
ĠAf rÃŃk
ĠnÃ¡m smenn
Ġlax a
Ġsu Ã°austan
ĠsÃ¶ng vari
Ġef lingu
o ver
ĠbjÃ¶rgunar sveit
ĠstrÃ¡ ka
Ġlauna hÃ¦kkanir
ĠvÃŃsind amanna
ĠMennta skÃ³lanum
grund velli
SjÃ¡lfstÃ¦Ã°i sflokkurinn
S ch
ĠÃģr nes
ĠkjÃ¶rtÃŃmab il
ĠlÃŃt illi
Ġinn blÃ¡stur
Ġfrest un
Ġh u
Ġteik ningar
d jÃºp
Ġyfir menn
ĠNÃ¡ttÃºru frÃ¦Ã°ist
ĠtÃ¶l urnar
ex t
ĠrÃº st
Ġuppreisnar menn
ing ham
ĠD ig
ĠAtl anta
Ġinn flutningur
eil is
ĠC am
Ãºm m
ad or
bolt inet
ĠlÃ¶g gil
Ġeignar innar
ĠrÃº mi
Re al
Ġlag fÃ¦ra
Ġn Ã¦m
sst efnu
ĠÃļt varp
Ġstrey ma
0 2
at her
hrepp ur
ĠEgyptal andi
ra t
Ġtengd ist
ĠFriÃ°rik sdÃ³ttir
ĠSelf yss
bund inn
ĠÃ¾Ã¡tttak enda
ĠlÃŃk ja
ĠferÃ°a skrif
b ri
Ã¡ standi
ĠF inan
Ġsof andi
Ġjar Ã°ir
t andi
ĠÃ¾ yk
ĠEll ert
ĠK Ã³re
Ġv eÃ°i
ĠÃŀ Ã¦r
ĠÃŃbÃº anna
V ef
g Ã³Ã°ur
Ġsp rey
Ġfull gild
ĠS P
j anum
Ġpening ana
ĠÃ³ skaplega
Ġl Ã³Ã°um
ĠsjÃ¡lf smynd
ĠÃ¡r amÃ³ta
hÃºs in
ĠkrÃ¶f ul
l s
ĠH um
Ġ3 20
ĠstÃºlk na
ĠMathi esen
Ġhepp inn
ĠÃ³ Ã¡sÃ¦tt
aliÃ° iÃ°
ĠV o
Meiri hluti
ĠfrÃ©tta stofa
ĠBjÃ¶rg Ã³lfur
ĠstjÃ³rnar her
BlaÃ° iÃ°
ĠP ersÃ³nu
Ġ13 4
ĠbÃ¦ ttu
DÃ³m ari
ĠnÃ¡ st
Ġsvip t
ĠÃ¡lver sins
ĠmÃ¡ls aÃ°ila
ĠÃ¾en slu
Ġtilh Ã¶gun
pr ins
ĠAustur velli
ĠB ÃºÃ°ar
ĠA P
Ġsumar sins
Ãĵ mar
fer Ã°is
ĠÃĸ skju
Ġs afni
eiÃ° um
Ġatvinnurek endur
ĠandstÃ¦Ã° inga
Sv ip
ĠN i
Ġkepp ir
na p
hÃ³p um
ĠbrÃ½ na
ĠKen nara
ĠBandarÃŃkjadal a
ĠhjÃºkrunarfrÃ¦Ã° ingur
var d
Ġsig ruÃ°u
ĠrÃ¡Ã° gjaf
ĠÃ¡kvÃ¦Ã°i sins
ssam band
si e
Ġvan ur
ĠÃ¦sk ulÃ½Ã°
ĠGunnar sdÃ³ttur
Ġreik nings
Ġyfirgef iÃ°
Ġn afna
Ġfl Ã¦Ã°i
ĠsÃŃ gar
Ġhr Ã¶kk
Ġlaunak jÃ¶r
I F
Ã¡r unum
heimil um
Skip ulag
eng en
Ġ16 5
ĠCol e
yr Ã°um
mik la
ar ÃŃ
Ġney ta
ĠundirbÃº iÃ°
Ġst jÃ³ra
ĠtilboÃ° iÃ°
ĠÃºrslitak eppni
s Ã©r
ĠskerÃ° ingar
Ġendur Ãºt
ĠframkvÃ¦md astjÃ³r
bÃº skap
Ġung i
ĠvÃ¦g ast
Ġrannsak ar
ĠBÃŃ Ã³
ĠÃ¡kvÃ¦Ã°i s
Ġm m
Ġtilkynn tu
Ġst afa
Ġheimspek i
Ãŀ jÃ¡lf
Ġc on
an esi
nd ÃŃs
ĠliÃ° inni
Ġfasteig ninni
el ja
Ġpar tur
ĠmÃ¡l flutningur
H O
au gum
ĠgjaldmiÃ° la
Ġskil aboÃ°um
Ġbank astjÃ³ri
Ġvand anum
Ġau st
Sag t
Ġ12 3
ĠEl sa
B o
Ãį R
et rar
ĠprÃ©d ikar
al eiti
Ġfors jÃ¡r
od y
sv eif
ĠgreiÃ°slu aÃ°lÃ¶g
LÃ¶greglum enn
Ã¡ Ã°a
ĠAm sterdam
Ġb a
ĠR h
Ġw as
Ġlands hlutum
FjÃ¶l margir
ĠmetnaÃ° arfull
Ġveitt u
ĠCap ital
ĠsveitarfÃ©lag i
ĠhÃ³tel iÃ°
Spur ningin
Ġein bÃ½lishÃºs
Brota Ã¾oli
Ġe il
Ã¡tta semjara
ĠÃ¶rork ulÃŃf
at hÃ¶fn
ĠrÃ¡Ã° gert
Ġraf magni
ĠSig rÃºnu
ĠÃŀjÃ³Ã° hag
ĠGrÃ³ tta
ĠlÃ©tt ir
Ġver aldar
ĠkrÃ¶f unni
Sigur jÃ³n
ĠglÃ¶g gt
hÃ¦ far
HÃ¡l ka
ĠLang holt
Ġtengd ust
Ġmein ta
ĠJap ans
Ġg rÃ¦Ã°
hall arinnar
Ã½s ingar
unn in
Ġt auga
ĠMcC art
n Ã¦mi
ĠB rim
Ġd skj
jÃ¶ Ã°
ĠsambÃ¦r ilegar
ĠVald im
Ġfyrirspur num
sem bÃ¦tt
Ġkjar k
rÃŃk jum
ĠS on
ĠVig nir
h lÃŃÃ°ar
p oka
ĠfÃ¦r ni
ĠÃ¡lver s
V ÃŃ
ĠÃ¡rsreik ningi
vit andi
ĠEski firÃ°i
leif sdÃ³ttir
ĠSjÃ³v Ã¡
sv eifl
Ġfal legar
Ġbarna barna
Ġv ett
Ã¶ s
Ġbr oti
pl Ã¶n
Ġ27 0
pÃ³ st
Nokk rum
ĠSt an
Ġhl Ãºa
Ġval kost
ĠÃŃslenz ku
ĠGuÃ°bjar t
Ġkvikmynd agerÃ°
ĠstÃºdentsp rÃ³fi
ĠskipulÃ¶g Ã°
Ġkrakk a
ĠtrÃºverÃ°u gleika
Ġs yr
ĠÃ³ rÃ³
sm eÃ°ferÃ°ar
ja k
Ġb Ã³tum
Ġdag bl
ĠI V
L ÃŃtiÃ°
var ar
Ġrekstur s
Ġn Ã³t
Ġtrey stir
ĠleikskÃ³l um
Ġ19 29
ĠrannsÃ³kn ina
ĠnÃ¡grenn inu
Sn orri
Ã³ num
Ãŀ Ã³ra
af nar
ĠÃºt liti
Ġ19 20
ĠAc tavis
ĠorÃ° inu
ĠhÃ¦kk unin
var Ãºtveg
ĠbÃ³k asafn
ĠnauÃ° gaÃ°
ĠbÃ¶n nuÃ°
ĠLy on
ĠvinsÃ¦la sta
ĠTryggv ason
Ã½ mi
ĠbÃ¦ st
veg g
Ġfyrir gef
ĠhÃ³t anir
ĠsÃ©r eignar
ĠL eir
Ġskamm tÃŃm
ĠUmhverfis stofnunar
ĠlÃ¦kk andi
Ġ aga
skyld um
ĠArnar dÃ³ttir
Ġtilra unum
Ġkaup anda
skuld ir
ĠmÃ¡lskost naÃ°ur
Ġ18 5
Ġstr ang
re t
e ar
Ġeinstak ir
ĠHÃºsa vÃŃkur
Ġhrey ft
ĠerfiÃ° ari
ĠkjÃ³s endum
Ã¾ Ã¡ttur
ĠM ass
Ġheimildar mynd
ĠÃ³ af
Ãŀ Ã½skal
ĠhÃ¡tÃŃÃ° in
Ġein ingar
Sag Ã°ist
ĠvinsÃ¦ ldir
Ġlif um
Ġhet ja
Ġal tari
Starf sfÃ³lk
ĠAtlantshafs bandalagsins
ĠÃŀjÃ³Ã° minjasafn
ĠÃ¶nd unar
Ġafborg anir
ĠnÃ³tt u
ab ri
Ġk ak
Ġfyrir skip
e kki
lag anna
Ã° ina
Ġver Ã°u
ĠLand ak
Matt h
aÃ° ferÃ°ir
ĠhÃ©r aÃ°s
ĠrÃºssne sku
men ning
bund num
Ġtilnefnd ur
Ġop naÃ°ur
ĠgrÃ¦ num
Ã³lf sson
ĠS or
upp lÃ½singar
a eda
est ar
Ġminn umst
ĠBjar kar
Ãĸ rn
ĠkostnaÃ° inn
ĠTraf ford
ĠP aradÃŃs
ĠTa ylor
s o
ĠIn vest
tar lega
ĠLauga veg
ing en
ĠH R
ĠM P
ĠRo bb
Ġteg undar
Ġst or
ak sÃ³knari
s afni
Ġv og
ey tt
Ġein ar
Ġslitast jÃ³rn
Ġum boÃ°i
ĠhÃ¦starÃ©ttardÃ³m ararnir
ĠÃ³ stÃ¶Ã°u
stig iÃ°
ĠfullnÃ¦g ja
ĠorÃ° sins
Ãºg Ã³
ĠtrÃº lega
ĠkveÃ°ju stund
Ġof boÃ°
Ġgest anna
ĠSand ra
Ġfinn um
ĠellilÃŃf eyris
pp u
Ġvirkj anir
shlu ta
Ġein bl
Ġlang stÃ¦r
ĠvÃ© lum
Ã¶g urnar
SlÃŃk ar
Ġb indi
Ġskil um
Ġgist ingu
Ġatvinn umenn
ĠJo hann
ĠHannes ar
Ġn m
Ġhag ur
ĠgÃ³lf inu
ak t
Ã¶ng ur
ĠvinsÃ¦ lustu
en tur
Ġrekstr arg
ĠD is
Ġtal ib
asam tÃ¶kum
ĠsjÃºkra hÃºsiÃ°
Ġgrein ina
ĠfÃ¡ ar
fl Ãº
ĠfÃ³tbol tanum
am pa
ĠrÃ¡Ã° gjafa
ĠfÃ© Ã°
ĠsvÃ¶r tum
ĠLaugardal svelli
Ġley s
Ġmarg sinnis
ĠbÃ¡ tum
ĠX X
ĠAust f
Br yndÃŃs
Ġstu ddi
Ġath s
vÃ©l in
al var
ĠT u
ĠskÃ½r slan
ĠB rÃ¡
Ġbl Ã³Ã°u
Ġgrein st
ĠsvÃ¦Ã°i s
ĠHarald sdÃ³ttir
ĠSv andÃŃs
ĠÃ³g naÃ°
Sn jÃ³
ku ld
ĠviÃ°skipta bank
ĠdÃ³mst Ã³ll
versl unum
Ġendurspeg la
gerÃ°ar innar
ĠgÃ¦ fi
sy stur
Ġsum ur
ĠN ielsen
Ġafh jÃºp
Ġheilsu far
ĠP art
or ra
eig anda
ĠÃºt lÃ¡n
ĠÃŃslenz ka
Ã¶l v
Ġeftir vÃ¦nt
ĠsiÃ° ferÃ°
ĠboÃ° skap
ĠRagnar sdÃ³ttir
ĠkÃ¦ra sta
miÃ° a
Ġbyrj aÃ°ur
framkvÃ¦md ir
dd an
Ġinnlend ra
Ġs eÃ°
ĠLeik ni
Ġsig lt
Ã¾Ã¦tt ir
Ãģ sm
bakk anum
ĠtvÃŃ mÃ¦li
t la
v itaÃ°
Ġfang ar
ĠfÃ¡ menn
Ġ 0000
Ġsigurvegar i
ell tu
en su
Ġ12 1
ĠaÃ° bÃºnaÃ°
ĠBerg sson
Ġdyr nar
Ġpress u
jÃ¶r nur
ĠferÃ°alag i
ĠbÃ¦jarf ulltrÃºi
ĠÃŃtar legri
ĠhÃ¦kk uÃ°
Ġsamkomulag s
ĠprÃ³f kjÃ¶ri
stofn ana
Ġmann ÃºÃ°ar
ĠÃ³ hug
Ġk inn
sÃ¡r unum
Ġk Ã¶nnunar
Ġveit ingu
Ġhl ynn
ok i
ĠElliÃ° a
vÃ¶r Ã°urinn
Ef ni
Ġhet ju
Ġheyr Ã°ist
Ġvak in
Ġfr os
Ġ19 28
Ġfyrirhug uÃ°
N ey
auk ning
Ġstutt an
ĠsÃ¦m ilega
ark oli
ĠstrÃ¡k unum
au lt
Ġc om
Ġafskrif tir
ĠC re
ĠrÃ© Ã°i
ĠU ndir
at ÃŃÃ°
Ġger vig
ĠHold ing
Ġsamgr h
ĠÃ³verÃ° trygg
Ã¾ing maÃ°ur
Ġsann k
F Ã³t
ĠHaf Ã¾Ã³r
ĠsÃ¡ tum
s enda
g ra
er e
ĠÃģg Ãºsta
ĠÃ¾rÃ³ aÃ°
Ġrit stjÃ³ra
Ã¡frÃ½ jandi
ĠÃ³ p
Ġpers Ã³na
H eldur
ark o
ein kenni
ĠbÃ¦k urnar
Ġskil in
J akob
ĠL ove
rei st
pl Ã¶tu
t en
Ġf eim
ĠsmÃ¡ vÃ¦g
ĠMiÃ° jarÃ°ar
ĠharÃ° ri
ĠSunda y
b it
ar Ã©ttar
eikk onan
b els
Ranns Ã³knar
Ġbe indi
lÃ¶greglu Ã¾jÃ³nn
Ġverk falli
ĠH Ã¡t
Ġeins og
il ton
braut inni
ĠÃ¾Ã¡tttak andi
ĠbÃ¦jar rÃ¡Ã°s
Ġsameigin legri
K a
Ã³ h
ĠstÃ¶Ã°ug leik
S TA
ĠC ristiano
amÃ³t inu
Ġey ddi
ĠgagnrÃ½ nd
ĠrÃºm an
Skip iÃ°
ĠGest sson
ss emi
z en
ĠvirÃ°u legur
ĠÃ¶ryggis mÃ¡l
ĠnÃ¦g janlega
frÃ¦Ã° ilega
Ġb in
Ġaf sk
Ã¶ lut
ĠfrjÃ¡l sa
ĠS Ãģ
sv ott
Ġmist Ã¶kum
ĠAr t
m Ãºla
Ġbl okk
hagsm uni
Ġfl otta
Ġkvenn alandsliÃ°
6 7
in ja
ĠÃ¶ld um
Ġd imm
ĠjÃ¡kv Ã¦Ã°ar
ĠNorÃ°urlandar Ã¡Ã°s
sh ip
ĠkrÃ¶f unnar
hÃ¦ fi
nefnd ur
Ãŀr jÃº
Ġsigur s
Ġvak nar
ĠVal a
ĠhvÃŃ tur
fre tta
Ġstof nuÃ°u
Ġh Ã¶tt
esk irkju
ĠhÃ©raÃ° inu
ĠArnar sson
Ġs ell
Ġvar ÃºÃ°ar
ĠSpÃ¡n n
Set jiÃ°
ett um
Matth ÃŃas
ei fa
ĠÃ¡gÃ¦ tum
ĠleiÃ° sÃ¶gum
ÃŀÃ³r arinn
en ningar
et nam
Ġrei sn
ĠfriÃ° argÃ¦slu
frÃ©tt ir
es Ãº
Ġskemm d
ĠsjÃ³narmiÃ° a
Ġgam l
ĠflÃº iÃ°
Ġald eilis
Ġtrygg inga
Ġdug i
af ulltrÃºa
um i
Ġvin Ã¡tta
an Ã³
Ãŀ Ãºs
Ġley nt
ĠB ibl
ĠBryn ja
Vig dÃŃs
ĠdÃ³m nefnd
t li
ĠV ÃŃn
Ã¡ tak
Sk emm
t han
t na
agerÃ° in
Eftir lit
ne sku
ĠmÃ¡l ar
ab i
ĠU fsi
afyrirtÃ¦k ja
Ġmat smenn
ĠaÃ°al atriÃ°iÃ°
HÃ©raÃ°sdÃ³m s
ĠÃ³ eir
ĠgÃ¶ng in
en o
rar nir
sskil yrÃ°i
tÃŃm inn
ĠÃ¡lit amÃ¡l
ĠvÃ¶rum erki
Ġafh endingar
Ġlag ningu
Ġkvart aÃ°i
ĠferÃ° al
Ġmest um
ĠhÃºsn Ã¦Ã°inu
in os
Ġkaup andi
Ġfast ir
ÃŃk a
ĠsjÃ¡lf stÃ¦Ã°a
ĠÃºrskurÃ° aÃ°
eild ar
Ġland lÃ¦knis
ĠU NI
Ġnet fang
stÃ¶Ã°v un
VÃŃk verji
HÃ³p ur
Ġleikk ona
hÃ³p s
Ġven jast
ĠHoll ands
ĠefnahagslÃŃf inu
ĠÃŃÃ¾yng jandi
Ġhitt ir
Ġtra ustur
Ġland aÃ°
sg Ã¶gnum
jÃ³ lu
al ÃŃfi
Ġhag aÃ°
ĠÃ¡lÃ¶g ur
m eta
v eir
Ġall skonar
Ġgeng inn
Ã³ fi
ĠSk arkoli
b ÃŃa
Ã¡ si
Ġtrom p
Ã³l fi
Ġgag nast
b eit
Ġeignar hluta
ĠHeim i
Sk oÃ°
ĠC al
am ba
vÃ¶r pum
ĠTa ÃŃl
ĠmÃ¡lsÃ¡ stÃ¦Ã°u
Ġkref jist
Ġrang lega
Ġupp reisn
Ġborg urum
Sp il
rÃ¡k arnir
ĠP re
ĠhÃ¡r rÃ©tt
ĠrÃŃkisstjÃ³rnar flokk
pl Ã¡n
Ġhand legg
Ġkjarasam ningi
Ġtit la
h rygg
Ġeink amÃ¡l
hygg ja
ĠEvrÃ³pu keppni
ĠverksmiÃ° junnar
n Ã³tt
ĠSv eit
ĠG y
For stjÃ³ri
Ġvak naÃ°
P ort
ĠlÃŃkam anum
Byr junar
ĠmiÃ° stÃ¶Ã°
borg ara
Grein in
Ġhitt ust
ang s
Ãºs a
ast Ã¶Ã°
Ã¾Ã¡tt tÃ¶ku
ĠlÃ¶nd unum
Ã¾ Ã³ra
Ġefnahagsl ÃŃfi
f eld
vatn s
ard o
ĠalÃ¾jÃ³Ã° legri
Ġsjald nast
ĠÃ¶ tu
H A
ĠNap oli
ĠH art
Ġp unkt
men ningar
ĠrÃ¶Ã° inni
ĠskÃ¡ p
ak on
Ġsp re
ni k
Ġet ja
Ġ una
ĠÃºt flutningi
ĠS ec
tÃ¦kif Ã¦ri
Ġt Ãºr
ut s
ĠHer manns
Ġl aÃ°a
ĠIngim und
Ã¶r gum
ĠsÃ¦ i
Ġmarkv Ã¶rÃ°
ĠÃ¾eg iÃ°
Ġbre skra
est one
ib al
ĠskaÃ°ab Ã³tak
ĠEx ista
ĠSÃŃ ldar
ĠT er
ĠtÃ³nlist in
f rÃº
ĠSv ava
ram leiÃ°
ĠforgangsrÃ¶Ã° un
sk eyti
Ġsku tu
EÃ° l
Ġb entu
staÃ° num
Ġupp tÃ¶kur
vop num
pr ent
ĠHoll endinga
Ġminn stu
Ġdreng inn
ĠmÃ¦ last
Ġhag naÃ°ar
ĠniÃ°urskur Ã°ur
b ab
ĠkvÃ¶ld mat
ĠÃŀor varÃ°ar
ĠP rest
Ġlok aÃ°ur
ĠglÃ¦s ilegt
ĠK V
ĠÃ¡rek stur
Ġgol fi
ĠbifreiÃ° um
ĠrannsÃ³knar nefnd
frÃ¦Ã° ingi
Ġhaf s
ĠmÃ¦ Ã°ur
ĠfÃ³r na
Ġdan skra
Ġskrifstofust jÃ³ri
ĠÃį ra
vil ja
ĠP ap
sv ettvang
Ġall n
Ġafrak stur
f Ã¶t
tÃŃm anum
strey mi
Ã¶ ttu
ĠjarÃ° var
Ġsam rÃ¡Ã°s
ĠK ir
Ġ193 4
ĠÃ³sann aÃ°
sÃ½ slum
ĠSu Ã°austur
Ġj ur
arsam tÃ¶k
ĠfjÃ¶lmarg ra
HjÃ¡l mar
ĠC ur
ett inum
ĠK nattspyrnu
V eit
ĠT w
vin ur
ĠalÃ¾ingis menn
Ġhv ol
Ġ193 7
ĠEgil shÃ¶ll
Ġung menn
Ġbein ir
ĠstÃºlk unni
Ġs ma
ĠBir g
ĠverÃ°mÃ¦ tum
ĠÃ³ Ã°
ĠÃ¾ jÃ³n
ĠKr oss
f ri
ĠSvavar sdÃ³ttir
ig n
ĠfrÃ¡bÃ¦r um
ĠheilbrigÃ°isk erfiÃ°
eig ar
Ġhrey fi
bra him
og an
ĠfÃ¦kk ar
ĠtillÃ¶g urnar
ĠbÃºn aÃ°ur
ĠÃ¾vÃŃ lÃŃk
Ġlandam erkja
bo gi
ĠMann rÃ©ttinda
Ã½ slu
Ġath Ã¦fi
leik jum
ĠSt aÃ°
Ġsn Ã¶gg
H und
iÃ° naÃ°
Ã¡rÃ¡ sum
m andi
Ġyfir sÃ½n
ĠhagvÃ¶x t
Ġsag Ã°ar
ĠHr efna
ĠHÃ³l ma
StÃºl kan
na dal
Ġ12 2
for eld
ĠSig hv
Ġteng da
Ġ0000 00
Ġb Ã¶ndum
ĠÃŀor bjÃ¶rn
ĠfjÃ¡rmÃ¡l amarkaÃ°i
ĠviÃ° haldi
au tar
Ġein stÃ¦Ã°
ĠrÃ©tt inum
dr Ã¶g
ĠSlÃ³ vak
Ġminn ingunni
ĠGarÃ°a bÃ¦jar
Ġbat naÃ°
sv Ã¶llur
vel and
Ġupp alinn
ĠSt uÃ°
Ġkepp nin
ĠAg nes
KN ATT
ĠL engju
Ġland nÃ¡m
ĠviÃ° h
ĠbÃ³k mennt
f ulltrÃºi
ĠGuÃ°jÃ³n s
deild um
Ġ193 2
Ãº nist
Ġst aÃ°urinn
Ġ13 6
ĠÃ¾jÃ³Ã°fÃ©lag sins
Ġfynd ist
I cel
ĠFilipp s
ĠsamningaviÃ° rÃ¦Ã°um
Ġefnahag sÃ¡
ĠklÃ¡r aÃ°i
Ġsnyr t
Ġb oÃ°ar
ĠP SG
dÃ³m stÃ³ll
h lÃŃf
ar ez
ĠV ÃŃg
v ill
ĠmargvÃŃ slegum
Ġmet rum
ĠfrÃ©tta skÃ½r
G rÃ©tar
T aldi
eig num
ĠaÃ°stoÃ° aÃ°
ĠÃºrslit unum
Ã¡kv Ã¦Ã°um
ĠverÃ° andi
ĠPatrek sfirÃ°i
Ġeig ninni
Ġ19 22
Ein stak
stÃ¦ Ã°ari
Ġleikmenn irnir
ĠE vu
ĠÃ¡f angi
til laga
Ġl Ã³Ã°a
ĠfÃ¡ u
ĠgreiÃ° slna
stÃ¦Ã° na
ĠmeÃ°hÃ¶nd lun
ĠVÃŃk verji
ĠSch engen
ĠrÃ©tt inn
ĠviÃ°skiptal ÃŃf
Ġinn a
ĠÃ¡Ã¦t luÃ°
Ġsum a
Ġbygg Ã°ist
ĠskÃ¡ld sÃ¶gu
ĠjÃ³la trÃ©
Ġtil boÃ°um
Ġley nd
Ġbrey tta
Ġbyrjunar liÃ°inu
Ġl endi
ĠF o
Ġkynn tust
Heim ildir
ĠhÃ¦Ã° inni
ĠA bb
ĠbÃ³k ar
sk erfinu
ĠFl ens
ust ofu
Ġsel janda
Ġskemm dum
ÃŃ unnar
ĠviÃ° haf
Ġal ÃºÃ°
LÃ¶g maÃ°ur
amark aÃ°num
Ġvallar ins
v ina
Ġg jÃ¶ldum
StaÃ°reynd in
Ġsamfylgd ina
Ġskemm dar
ĠÃģr ness
ĠM jÃ³
Ġlyk ta
r und
Ġr ita
ĠÃ¾r ennu
ĠFlug mÃ¡l
ĠstÃºlkur nar
Ġinn sÃ½n
Ġmynd uÃ°
Ġvand aÃ°
Ġne inni
hÃ¦f ni
ĠSind ra
ef u
ĠL es
Ġamfet amÃŃn
Ġstofn andi
ĠfjÃ¡rm una
ĠklÃ³ sett
Ã©tt u
K rÃ¶fu
ĠM ah
ĠMari a
S jÃ¡l
Ġ193 3
Ġendurheim ta
ĠrannsÃ³kn in
Ġhim ins
jÃ³t andi
Ġpunk ta
Ġumhverfis mÃ¡lum
ĠbifreiÃ° in
mÃ¶rk uÃ°um
dÃ³mstÃ³l sins
ĠLÃŃban on
Ġ26 0
ĠStefan ÃŃa
an ce
Ġskipulag ningu
ĠsjÃºkra bÃŃl
Ġholl t
ĠÃ¾ agnar
Ġw e
mÃ¦l t
ĠÃŃtrek aÃ°i
Ġkirkj una
ĠÃ¶flu gu
Ġgag ng
k eyr
Ġ193 5
Bank inn
Ġbekk jar
Ġlist i
Ġel ta
Ġb eiti
ĠÃįslend ing
vin ir
ĠÃ¾akk aÃ°i
ĠÃ³Ã¾ol andi
Ãŀe kk
fell ingar
et z
ĠM agni
ru fl
Ġsamt Ã¶l
ĠOl sen
ĠLak ers
L oka
v efur
ĠKrist jÃ¡ni
ĠtÃ¦k ist
Ġglugg ann
ĠE sp
Ġbyrj uÃ°
Ġvir Ã°ing
ĠdÃ½ pi
Er la
ĠsÃ¶ng kon
ĠDag s
ĠsvÃ¶r in
Ġbla sa
ĠlÃŃk leg
gj endur
Kom iÃ°
t og
ĠSh ak
Ġhra p
ĠH ot
ĠjÃ¶rÃ° in
Ġhrun sins
ĠhljÃ³m sveitir
ĠÃ³ dÃ½ra
ĠRagnar i
Ġth is
Ġdrykk jar
Ġken ni
Ġkynsl Ã³Ã°ir
ĠÃ³ Ãºt
Ġrau Ã°u
Ã½sk Ã¶p
vÃŃk ingum
h lÃŃ
Ġein skonar
Ġfund aÃ°
Ġrisast Ã³r
Ġ12 4
Ġhorn spyrnu
ĠJ ÃºgÃ³
Ġgef andi
h yr
Ġsv al
l unnar
Ġm Ã¶nnunum
Ġ ilm
Ġhandtek in
Leik ur
Ġforsend na
ĠÃļl far
am eistara
ĠGold en
ĠKap lak
pers Ã³n
ĠsÃŃman Ãºmer
ĠÃŃ vil
Ġveg gja
Ġhn Ãºt
Ġeignar skatt
al ands
Ġefnahag sleg
Ãºs alem
Ġsig raÃ°
ĠvarÃ°v eitt
ĠÃ¶kutÃ¦k ja
Ġvill andi
ĠÃĨ gi
Ġrif tunar
orent ina
Ġsk oÃ°ar
Ġveik ind
ak ost
O S
Ġveg iÃ°
ĠÃ¡kÃ¦r unni
ĠMer cedes
S und
ĠhlÃ½ ja
ĠlÃ¡nt Ã¶ku
Ġhag vexti
Ġsvip aÃ°ar
ĠAtla son
Ġb jÃ¶rt
jar i
gerÃ° ina
sÃŃ Ã¾rÃ³tt
Ġhand an
c ar
Ġris iÃ°
ĠH afn
ĠiÃ° naÃ°i
ĠstÃ¶Ã°v aÃ°ur
ons o
Ġinnheim t
ĠB Ãºst
tur e
sk jÃ³
Ġsal ti
ĠKÃ¡ra son
ĠVilhjÃ¡lm s
ĠHjar tar
Ġveg ferÃ°
ĠFriÃ°rik s
ĠrÃ¦ st
Ġstefn una
hÃ¶f undar
ĠhÃ¡lf ri
ĠskÃ¶p unar
ĠÃ¶kum anna
Ġhelgar innar
Ġhug si
ĠorÃ°alag i
Ã³r inn
ĠÃ¡grein ingi
Minn ingar
Ã¡l i
ĠtvÃŃ tug
NauÃ°syn legt
sg l
ĠÃºtreik ninga
ĠW BA
trygg ing
ber gja
sar ar
ĠtvÃ¶f alda
ĠB il
ans a
ĠsjÃ¡lf smark
Ġheill andi
kk aÃ°i
Ġskip tu
rÃ¡Ã° inn
amm er
ab lik
akl Ãºbb
ara d
E M
F S
Ã¦tt ir
Ġdr Ã¶gum
ĠG ood
Ġstimp il
5 4
F L
Ġvetur na
Ġku su
sp ort
vÃ¶r Ã°ust
ĠÃ¾ung ar
ÃŀÃ³r dÃŃs
m as
ĠÃ¾Ã¶rf in
Ã¶g nuÃ°
Ġsv epp
ald ir
sm Ã¶rk
Ġt Ã¡
Ġlag aÃ°
Ġh ands
eÃ° riÃ°
ĠW olves
Ġd eyr
ĠnÃ½ ttu
Ãļr skurÃ°ur
ĠlÃ¡t na
ver jinn
ĠframkvÃ¦md ina
bÃ³t ar
Ãĵ li
ĠBÃ¶r kur
ĠlandsliÃ° shÃ³p
Ġfullkom iÃ°
ĠÃ¶kur Ã©tti
l eidd
Ä Ļ
Ġmark aÃ°arins
Sam ning
Breyt ingar
Ro bert
J am
l Ã¦tis
Ġbre sk
ĠEystras alt
Ġlist amaÃ°ur
ĠD ep
Ġskor Ã°ur
ĠgÃ³l fi
b bur
ang urinn
ĠB art
TÃ³n listar
b us
ĠGrikk lands
Ġs okk
Ġaf plÃ¡n
Ġefni sskrÃ¡
finn ur
Ġsorg legt
ĠrÃ¶ksem d
er Ã°i
Ġundir b
Ġlandam Ã¦rin
Ġhv ala
Ġstarfsem in
ĠumrÃ¦dd ri
Ġbak grunn
shaf nar
Ġm e
Hver su
aÃ° la
ĠtÃŃmabil s
ĠÃ³b eint
b at
r anir
Ġl ektor
ĠÃ¦ ru
ĠBjar nasonar
ĠmÃ¶gu leg
ĠVig gÃ³
Ã¥ r
P aul
ĠneÃ° sta
Ġmik li
Ġsly sum
Ġatvinnurek stri
Ã¡r inu
ĠGr unn
Rek strar
5 2
For setinn
Ġlok ak
Ġap Ã³tek
Ãįslen skir
S L
ĠmÃ¡l tÃŃÃ°
eyt ingar
Fl okkurinn
l aÃ°ist
t orgi
ĠÃ¡r ar
ell y
en tum
ĠfrÃ¡ dreg
flu gi
ĠmeÃ°li mur
Ġh Ã¶ll
Ġkross inn
ĠrÃŃkisÃºtvarp sins
ĠKaup hÃ¶ll
ĠÃ¡f Ã¶ll
sett ur
ĠhryÃ°juverk um
ĠÃºtg jald
Ġsko Ã°um
Mich ael
ĠD am
Ġhug Ã°ist
Ġbank arÃ¡Ã°
ĠjarÃ°skjÃ¡lf ta
b rÃ¦Ã°ur
ĠÃ¡ taki
ĠferÃ° amÃ¡l
Ġsunnudag s
Dag inn
Ã¶k una
Ġb ag
shlut deild
Ġ12 8
ĠT ri
ĠvÃ¦nt um
ĠsamgÃ¶ngu Ã¡Ã¦tlun
Ġr est
StjÃ³rn endur
Ġfylk ingar
Ġr jÃºfa
ĠÃ¶lv un
StuÃ°ning smenn
flut ninga
ĠÃºtveg smanna
Ġstarf slok
Ã¶tt inn
ĠhÃºsfrey ja
ĠgrÃŃÃ°ar legt
vÃŃsit ala
s ing
ĠS Ã©r
Ġhrun inu
Ġsn Ã©
ann y
bro ddi
Tilkyn nt
Ġvit undar
eld inu
Ġset jum
Ġtilnef ningar
ĠsÃ¡rs auk
Ġeinu stu
Ġforyst umenn
Ġp yl
ĠgÃ³Ã° rar
ĠrÃŃkisborgarar Ã©tt
Ġmeiri hlutans
Ġlit li
Ġbund nar
ĠRÃºmen ÃŃu
ĠH olt
sv einn
mennt unar
Ġreglu gerÃ°ir
ĠReyni sson
Ġmann lÃŃf
ĠdÃ½r in
sskip ulag
sag Ã°i
ĠÃ¡her zlu
hÃ³l um
Ġset ningar
ĠsÃŃm tÃ¶l
ĠvÃ¶rum erk
ĠstÃ¦kk aÃ°
ĠvÃ¶k tu
Ġnefndar menn
ĠHÃ³lm frÃŃÃ°ur
ĠlÃ¡nveit ingar
Ġmeir u
bur Ã°urinn
Ġraunveru legt
S tur
Heim ild
vax andi
TV R
Ġb Ã³nu
Ġhaf inn
Ġk olt
Al menn
Ġfr ÃŃm
K epp
v agn
ĠhÃ¦ Ã°a
strÃ¶nd inni
ĠB on
Ġbygg ingum
Ġk Ãºl
Ġspur Ã°ir
fr y
at hug
Her mann
op le
Upphaf lega
Ġ13 1
ĠboÃ° aÃ°ur
stÃ³l um
ĠandstÃ¦Ã° ingar
Grein t
ĠinnleiÃ° ingu
Ġg Ã¡f
Ġfullyr Ã°ingu
ĠAndre w
p unni
Ġal ast
din and
z o
Ġframangreind s
bar Ã¡ttunni
ast Ã¶Ã°u
x a
Ġvar amanna
ĠSel ja
mÃ¡ nuÃ°
Ġmannesk jur
ĠA p
ĠI s
sk inn
ber a
Ġfisk eldi
l yg
Ġsnil ld
ĠG rein
gang inn
ĠSkÃ³la vÃ¶rÃ°ust
Ġdre piÃ°
Ġeyr um
Ġkynn tu
ĠSil va
c ott
e o
Ġreik nar
c tic
Ġsn Ã¶g
vÃ¶ld um
ĠEr ni
ĠB lo
Sk ot
ĠÃį hald
ĠfjÃ¡rveit ingu
ĠhÃ¶r k
Ġforn leif
ĠseÃ°labank astjÃ³ri
j end
Ġher Ã°ar
hÃ¡ skÃ³lann
mÃ¡laeftirlit iÃ°
arfer li
ĠB lik
ĠI m
sÃŃ Ã°a
ĠdÃ¦m ig
Ġatvinnurek stur
ĠlÃŃfsg Ã¦Ã°i
ta sta
Ġfelld i
I G
H Ã¦g
sk erÃ°
Ġfeg ur
Ġm jÃ³
ĠÃįslands banki
supp ort
Ġlu kku
und in
ed er
s Ã©Ã°
sf yrir
Ġg Ã³ma
Ġsnjall s
Ġopinber ir
Ġsamstarfs verkefni
H venÃ¦r
c er
ver ur
ĠSo ci
ĠsjÃºkraf lutning
ol li
Ġvak andi
ĠsjÃºtv n
Ġdrukk iÃ°
ĠWhit e
Ġraun hÃ¦ft
ĠrannsÃ³knar nefndar
ĠFlug leiÃ°a
Ġelsk aÃ°i
ĠÃ³ skipt
ul aust
ow s
ck er
ĠNey Ã°ar
Ġheimil isins
Ġor kun
ĠsannfÃ¦r ingu
Ġyndi slegt
ĠEinar ssonar
Ġnor sk
Ġheit u
Ġt Ã¶kur
Ġfasteignar innar
ĠtÃ¦k nin
ĠB ent
Ã¶rÃ° unar
Ã¶ skum
for seti
Ãŀor valdur
alk e
ĠfjÃ¡rhags stÃ¶Ã°u
svirkj un
ĠA h
5 7
ek a
ĠlÃŃk legra
Ġfal legur
Ġsterk lega
Hil mar
ĠHel ena
ĠSt Ãºd
StjÃ³rnar and
ĠLÃŃ bÃŃu
ĠalÃ¾jÃ³Ã° legt
At vik
Ġgu fu
Ġefnahag smÃ¡la
Ãį BV
Ġheil um
Ãŀ arf
Ġvald ar
ĠLaugar vatni
U ÃĲ
c ent
Ġfyrirhug aÃ°a
ĠSt ÃŃg
rÃ¦Ã° unum
Ġfyrr inÃ³tt
sp rett
Ġk Ãºg
Ġt ey
em y
mÃ¦ liÃ°
au ti
ĠCh ar
ĠFerÃ° amÃ¡l
Ġvinnu stÃ¶Ã°um
fram lag
afl inn
ĠdÃ½r alÃ¦k
Ġend uÃ°u
Ġmat sbeiÃ°
a ur
of unni
ĠLÃį Ãļ
L ÃŃfiÃ°
N ot
fel lda
rÃ¦ nir
Ġvirk jan
Ġumhverfis mat
Eig endur
ĠÃ¡f alli
And re
ord on
Sk Ã³la
ĠvarÃ°v eislu
ĠAlÃ¾Ã½Ã°u sambands
ĠÃ³ not
ĠrÃ¦ tast
Ġfasteig num
Ġfullkom na
stof um
Heil brigÃ°is
ĠÃ³ Ã¦
Ã¶nd in
Ãŀorg erÃ°ur
Ġlit lir
ĠgrÃ¦ nir
t amÃŃn
Ġsv ind
ĠSk jÃ¡
ĠÃ³v eÃ°ur
Lykil orÃ°
om s
ĠrÃ©ttlÃ¦ tan
ĠhÃ³t unum
arl ey
ĠFjÃ¡r fest
ĠStep hen
Ġveg u
Ġendur fjÃ¡r
Al freÃ°
Ġknattspyrnum aÃ°ur
Ã°um st
Ġfjar verandi
ĠTor onto
ĠÃ³ lÃŃ
ĠJ enn
ĠhÃ©raÃ°sdÃ³m ara
Eftir farandi
jÃ³ tum
M aki
arg jald
Ġum burÃ°ar
ĠF imm
tal eik
Ġsum u
Sk al
ĠStef Ã¡ni
Ġhl ekk
ĠR ay
ĠsÃ½ ningum
ĠkostnaÃ° arsam
sf yrirtÃ¦ki
Ġal heim
ĠT rum
ĠstaÃ°fest u
ĠreiÃ° a
ĠSÃ¦m und
ans anum
est r
Ġumhverfis vernd
fjÃ¶l lun
Ġeinkenn ir
ĠKÃŃnver jar
har Ã°ur
as e
Ġbank astjÃ³ra
ĠSa int
ÃŃmÃ¡ nuÃ°i
sg Ã¶tu
ĠS ÃºÃ°a
ĠmÃ³tmÃ¦l enda
ĠÃ¡lag iÃ°
au gu
reiÃ° ur
ĠmÃ¡l shÃ¶f
ĠrÃ©ttlÃ¦ ta
Ġminn ingin
ĠlÃ½ Ã°i
ĠgreinargerÃ° inni
am erki
ĠÃŃmynd a
Ġsveifl ur
ĠÃ¡kveÃ° inna
Ġskuld av
ĠaÃ°lÃ¶g unar
Ġd em
Ġsam spil
Ġdeild ir
Ã¦f andi
Ġ19 27
Ġsterk an
teng d
Ġhl Ã½r
Ġnor rÃ¦na
ĠlÃ¦kni sfrÃ¦Ã°
Ġtaf ir
Ġvit laust
g ust
Ġklukk ut
Leik stjÃ³ri
Ġkann anir
ĠS unna
Ġinn legg
ĠtÃŃmarit iÃ°
ĠÃģsm und
ĠE itt
BreiÃ° ablik
ul eys
ĠaÃ°lag ast
ĠTindast Ã³ll
Ġkl Ã¡
ĠÃģrness Ã½slu
leg Ã°ar
Ġeins dÃ¦mi
fram boÃ°
val ar
RannsÃ³kn in
ĠFernand o
ri tum
ĠÃ³bygg Ã°an
p all
Ġh anga
ĠflugvÃ¶ll inn
ei d
ĠA ft
ÃŃsk ra
ĠskÃ³la stjÃ³ra
ĠVik ing
Ġun aÃ°
5 8
ĠT Ã³k
Ġhr aÃ°i
ĠFjÃ¶l nis
as viÃ°s
skrÃ¡ nni
Ġskart grip
ĠF ella
St ofn
ĠbrjÃ³ tast
Ġundir rituÃ°u
hugs un
Ġslas ast
Ġsvonefnd a
Ġstytt ist
ĠvÃ©l ina
ĠorÃ° anna
ĠStefÃ¡n ssonar
ĠJÃºlÃŃu sdÃ³ttir
bb y
ĠreiÃ° ur
ĠÃ¡rÃ¡s in
Vest f
Ġ193 1
ost en
Ġspil um
Ġein rÃ¦Ã°is
ĠrÃ¡Ã° ningar
Ġhl yti
ĠupplÃ½sing agjÃ¶f
ĠBara ck
p lan
Ġhlust aÃ°i
Ġmat smanna
ĠI mp
ĠLaz io
Ã½r inni
Ġung lingum
ĠAt vinn
ĠfyrirtÃ¦k junum
ĠÃ³eÃ°l ilega
ĠÃ³h Ã³f
hl aÃ°
ĠÃ¡her slum
ug jÃ¶ld
Ġkann aÃ°ist
Ġaf p
ĠlÃ©tt ur
sk ÃŃ
Ġbak vÃ¶rÃ°ur
op h
ĠfÃ³t spor
T ottenham
Ġtr oÃ°
ĠÃįslen skrar
ĠyfirlÃ½s ingum
Ġsu Ã°austur
ĠJ ustin
men na
u sen
skeiÃ° i
S aga
ĠfÃ©lags rÃ¡Ã°
Ġal gert
ĠvÃŃ gi
ĠÃ¾okk alega
ĠSch w
Ing Ã³lfur
F rÃ¦
ĠHeim sm
ĠÃŃbÃºÃ°ar hÃºs
ĠaÃ° haf
ĠÃ¾rÃŃ tugsaldri
ĠprÃ½ Ã°
ĠSkipulag sstofnunar
seg ir
Ġk ynd
ĠL td
ĠviÃ°skiptar Ã¡Ã°
ĠÃ³ skuÃ°u
ra kt
Ġfer liÃ°
Ġmisjafn lega
Ġsk ÃŃn
arf Ã©
Ġeftir sÃ³knar
t Ãºni
MÃ³t iÃ°
E d
ĠKristjÃ¡n ssonar
d Ã¦
borg inni
iÃ°naÃ°ar ins
ĠB ond
ĠÃ¡b endingum
ĠÃ³breytt um
Ġl yg
K affi
ĠJ on
Ġdreg inn
ĠSe basti
Finn ur
ĠSteinar sson
sam starf
ĠbiÃ° lista
Ġsit jandi
ĠtÃŃm amÃ³tum
mÃ¡ naÃ°ar
ĠVÃŃs ind
ĠÃĸr lyg
ĠÃ¦Ã°r uleysi
Ġken ningar
ĠHÃ³l um
Ġill t
ĠKÃŃnver ja
ĠnÃ½ Ãºt
ĠstarfsfÃ³lk iÃ°
ĠskÃ½r ingum
Sam ningur
Ġkrist ni
ĠHek lu
ĠSkÃ¡l holt
z on
ĠbarÃ¡tt una
U nnur
Ġk jallar
Ġsam nefnd
ĠÃ³ fr
Ġstefn ur
ĠstjÃ³rnarandstÃ¶Ã° unni
ĠByl gj
yrk ir
Til gangurinn
Ġeinken ndi
ĠHill ary
ĠtakmÃ¶r kun
Ġalmannatrygg inga
Ġ21 8
ĠtÃ¶lv un
ĠrjÃ³ ma
ĠEvrÃ³p urÃŃk
Ġfar m
Ġyndi slega
Ġk ÃŃm
G reiÃ°
tÃ¶k una
Q aeda
ek na
Ġframher jinn
ĠSkÃ³lavÃ¶rÃ°ust ÃŃg
ĠÃ¡nÃ¦g ja
ĠVopn afirÃ°i
Ġsk Ã¶tu
ĠlÃ¶g aÃ°ila
Ġeins Ã¶ng
ĠupplÃ½sing atÃ¦kni
ed y
Ġbreytingar tillÃ¶gu
ĠLand bÃºnaÃ°ar
eÃ° slu
ĠstrÃ¶nd inni
ĠÃ¾ing nefnd
er ba
ĠfrÃŃ stund
Ġleik in
C EF
kl st
ĠaÃ°geng ileg
Ġuppreisnar manna
ĠGa dd
ĠiÃ° nn
Ġh ave
Ġkjarasam ning
Ġspark aÃ°
Ġverkefna stjÃ³ri
ĠumferÃ° in
ĠH Ã¶skuld
Ġyng sta
Ġspr engi
Ġhel vÃŃ
ĠH Ã¡l
ĠP Ã©tri
Ġten ingnum
ĠÃ¾yk ist
ĠNor wich
Ã¶rf u
ild ist
ĠtÃ³nlist inni
Ġmisskil ningi
ĠviÃ°hor fum
ÃģfrÃ½ jandi
I LL
ĠlÃŃf eyri
Ġ18 6
ĠfjÃ³rÃ°ung ur
lus co
Ġber g
ĠHer bert
Ġd Ãºr
Ġt Ã¶ldum
ĠAn nar
ĠsÃ¶g urnar
au tu
ĠstÃ³r mÃ³t
er nis
Ġgrunn ur
ĠR and
ĠbreiÃ° sk
ĠBirgi tta
ĠnÃº ll
ĠnÃ½ tir
ĠÃ¾ Ã³kn
Ġ13 9
Ġkarl alandsliÃ°
ĠWood s
Ġspar naÃ°ur
Ġsyn jaÃ°
ĠÃĵlaf sdÃ³ttur
ĠutanrÃŃkis rÃ¡Ã°uneytinu
Ġjepp a
Ġskipta stjÃ³ra
ĠskÃ½ra st
sk emmt
rek strar
B or
Ġbrott fÃ¶r
mÃ¡l unum
ĠAG S
Bandar ÃŃski
Ġfarar broddi
Ã¶pp um
ĠD re
Haf nar
ĠleiktÃŃÃ° inni
w aves
Ġr Ã¶skun
ĠdÃ³m um
Ġhring i
Ġinn ilegar
Ġalvar legri
Ġteik na
RÃŃkis stjÃ³rn
Ġversn andi
ĠEirÃŃk ssonar
r ur
ĠandrÃºmslof tiÃ°
hreyf ingin
st erk
ĠmikilvÃ¦g ustu
Ġsam skipt
an u
ĠmÃ¡l flutnings
Ġheim sk
ĠJ ensen
gar Ã°ur
ĠAmer ican
Ġskamm ast
ĠGlit nir
Ãļt lit
ĠÃ¾r um
ĠsjÃºkdÃ³m um
ĠmeÃ°vit und
Ġfyrir greiÃ°slu
ĠMeistara deildar
ĠÃ¾or ra
ĠvÃŃsit ala
ĠSig rÃºnar
Ġbar daga
ĠmÃ³tmÃ¦l ti
ĠÃ³sam rÃ¦mi
ĠvÃ¦n st
Ġum bÃ¦tur
ĠsjÃ¡lf gefiÃ°
ĠtÃ¶lv uk
Ġskemmtileg um
Ġfrem sta
ĠbjÃ¶rgunar sveitir
Ġatvinn um
Geng iÃ°
bol tanum
Ġendursko Ã°uÃ°
ĠB lu
arsam band
ĠsamgÃ¶ng umÃ¡l
ĠTrygg ingastofnunar
ĠÃ¾rÃ¶ng t
Ġgr ind
Ġtru fla
verk usen
b rÃ³Ã°ir
Ġd ali
Ãºtg jÃ¶ld
Ġvinnuveit anda
ku lda
hug aÃ°
E va
Ġsam in
Ġmenn ina
ĠlÃ¶greglum Ã¶nnum
ÃĨt la
ĠB ell
DÃ³m arar
Ġbankar eik
ĠmÃ¡l anna
Ġald ir
ĠerfiÃ° leikar
Ġgreind u
ĠSÃ¦m undsson
sÃ¡ rum
ĠlÃ¡nar drott
kast i
ĠveiÃ°i menn
ĠhÃ¡v Ã¦r
Ġstyrk leika
ĠmÃ¡latil bÃºnaÃ°i
ĠV Ã©l
ĠÃ³lÃ¶g legt
ĠÃŃ sk
ĠL jÃ³s
sf jÃ¡r
Bar celona
ĠHa w
Ġsamsvar andi
H eiÃ°ar
pÃŃtal a
ĠÃ¡kvarÃ° ana
ĠfÃ©lag sliÃ°
Ġleik skÃ³lanum
Ġbotn inn
tast jÃ³rn
anefnd in
ĠSkaft Ã¡r
ĠLÃº Ã°a
ĠByggÃ°ast ofnun
ĠkÃ¦r leika
ĠÃ¡kvarÃ°an atÃ¶ku
Ġvir st
ĠaÃ°al krÃ¶fu
ĠS ÃŃÃ°an
Ã¦k ir
ĠrÃŃk in
ĠÃ³um deilt
ĠskÃ¦r uliÃ°
Ġleikmanna hÃ³pi
ĠandvÃŃ gur
h allar
sl unum
Ġyfir lÃ¦knir
ĠmÃ¦tt ir
Ġsit jum
ĠsjÃ³ maÃ°ur
sk Ã¡k
far nir
ĠÃ¾Ã¡tt arins
ak os
ÃĿm sir
n unnar
w agen
ch ez
met iÃ°
drÃ¦ tt
rÃ©tt um
ik e
Ġlok amÃŃn
il ar
ing sins
ĠEyrar bakka
Mun urinn
sl eys
ĠbrÃ¡Ã° am
an ema
Ġv oÃ°
orÃ° in
at iÃ°
Ġau Ã°u
ĠD allas
Ġatvinn umÃ¡lum
Ġmerk ir
Ġein tÃ¶k
Ġ19 26
Ġmerk ileg
ĠlÃŃ nuna
Ġborgarf ulltrÃºa
Ġvar aÃ°i
Lok atÃ¶lur
tek ju
ĠlÃŃkams rÃ¦kt
ĠF A
Ã¶Ã° ru
Ġr n
ĠAn n
Ã¶n kum
Ġvinn an
ĠsjÃ³ m
ĠRÃŃk harÃ°
Ġsakarkost naÃ°ar
ĠSÃģ Ãģ
ĠM ÃŃl
ĠÃ¾Ã¦g ilegt
Ġsynd a
Ġhlut hafi
r aÃ°ur
ĠP enn
ĠlÃŃf sleiÃ°
Ġsvip uÃ°u
Ġhug aÃ°
Ġf esti
Ãģ grein
Sveit ar
ag lugg
ĠVil borg
ĠskjÃ¶l um
r k
k lau
p andi
Ġum gangast
sviÃ° iÃ°
Ġev rum
ĠHo uston
Ġn eins
Ġeftirlit iÃ°
ĠDjÃºp av
Ġbyss u
Ġyfir rÃ¡Ã°
ĠI ce
BandarÃŃk in
ĠsÃ³knar maÃ°ur
k Ã¶kur
ĠtrÃº ir
V ax
o si
alÃ¡ na
ĠÃįs ak
Ġkref ur
Ġleik arar
Ġtil Ã¾rif
ĠAnt hony
u valdiÃ°
Ġd Ã¶nskum
Ġsam skonar
Ġmis hepp
Ġfasteignas ala
Ġversl ana
ĠÃºrslitak eppninni
Ġd er
Ġsak amÃ¡l
rÃ¦n an
ĠKl opp
Ġp ilt
as al
ĠÃ©l jag
ĠÃ¾rosk ast
Ġhen tug
sk raf
Ġhag stÃ¦Ã°
ĠSlÃ³ven ÃŃu
r eit
ĠL as
Ã¡tt urinn
st okk
au sa
ĠSkÃºla dÃ³ttir
ĠuppbÃ³t artÃŃma
Ġum dÃ¦mi
Ãºtg Ã¡
Ġley sti
Ġheild sÃ¶lu
5 3
Ġsk atti
ĠhÃ¡skÃ³l amenn
ĠlÃ¶ggjaf inn
ĠS ar
ĠSigur bjÃ¶rg
Ġh Ãºss
Ġleigu ÃŃ
ĠstrÃŃÃ° s
hÃ½s i
ĠMart einn
Ġf Ã¶l
ĠÃºt fÃ¦ra
sm Ã¡ra
Ġsunnudag skvÃ¶ld
Ġminn ingum
ĠÃºrskurÃ° aÃ°i
Ġs endingar
Ġbak inu
ĠBenedikt ssonar
ĠA z
ĠgrÃ³ Ã°a
ĠTÃ©kk landi
W est
ĠfrÃ¦Ã°i menn
H or
t Ãºr
sÃ½ ki
Ġgu la
ald ags
Ġheimild a
Hlut fall
t inu
Ã¶k urnar
Ġskot inn
ĠOr ra
ĠÃŃslenz k
ĠSvavar sson
ĠviÃ° kvÃ¦mt
Ġfyrir rÃºmi
ĠRÃºss um
Ġ14 2
ĠGrÃŃm sey
am agn
ĠtÃŃmarit sins
K e
ĠrÃ¡Ã° lagt
ĠÃģr nasonar
ĠvÃŃmu efna
ann e
ĠBjar nar
ĠÃŀrÃ³ tt
Ġfyrir sÃ¦
ĠC ast
ĠbÃ³k aÃ°
as jÃ³Ã°ur
Ġflug iÃ°
Ġheil an
samband inu
m eistar
Ġlang ri
Em il
Ġr yÃ°ja
sp r
s jÃ³
gar t
ĠJÃºgÃ³ sla
Ġst Ã³ri
ĠL ar
ĠkÃ³ka ÃŃni
ĠbÃ³k haldi
Tv eimur
ĠP ier
Ġh alli
ĠhÃ¦g ari
ĠÃ³ jafn
Ġgla tt
ĠG A
ĠkjÃ³ si
Ġhorf in
ĠÃ¡r Ã©tta
ĠmiÃ° lun
B oÃ°iÃ°
Ġund randi
ĠG utt
ĠMosf ell
ar Ã¡Ã°i
ViÃ° taliÃ°
ĠZ o
T eng
ĠÃ¡vinn ingur
Ã¾jÃ³ f
slug etu
Ġ28 0
Ġsk rÃŃÃ°a
ĠUm ferÃ°ar
Ġvet r
ĠÃºtlit iÃ°
as viÃ°
Ġl eÃ°ur
Ġd jÃ¶f
Ġforseta embÃ¦tt
Ġalmannatrygg ing
Ġt eyg
Ġvan lÃŃÃ°an
ĠÃŀÃ³r shÃ¶fn
Ġkaupm Ã¡ttur
Ġhl Ã¦
ĠI r
sp ÃŃtal
ov en
f restur
jÃ¶ pp
ĠmarkahÃ¦ stur
Ġhaf inu
Ã¦f ing
ĠsÃ©r hver
ĠÃĸr yrkja
ĠSadd am
ott Ã³
bjar tur
Ġfullkom in
shÃ¡ tÃŃÃ°
marg ar
Ġmynd bandi
Ġflug velli
Ġtil veru
ĠCh ile
Ġk al
ĠÃ¾ingflokksfor maÃ°ur
Ã¡n ni
e ille
al ok
ĠviÃ°skiptan efndar
Ãŀ AÃĲ
D E
ĠGunnar ssyni
ĠLenn on
ĠE ver
Ġkomi zt
ĠnÃ¡grannal Ã¶ndum
ĠgleÃ° ja
Ġhepp ilegt
RÃºss ar
Ġmann d
Ġspar aÃ°
Ġ <
ĠlÃ¡n inu
ks wagen
Ġein vÃŃg
rÃ©tt ir
ĠkrÃ¶f una
ĠBreiÃ° dal
Ġdrykk ju
Ġf Ã¶ngum
arl and
grein ar
ĠÃįslandsm et
af jÃ¶rÃ°ur
Ġtiltek nar
Karl maÃ°ur
ĠsamtÃŃm ans
ĠI sl
Ġbisku ps
ĠtÃ¶lu Ã°um
Ġvar huga
ĠmiÃ° lar
ĠfjÃ¡rhag sÃ¡Ã¦tlun
ĠtÃ³m stund
Ġframleng t
anleg ir
t Ã¶f
Ġk Ã¶nn
Ġfor tÃŃÃ°ar
Ġtrygg Ã°ur
Ġkynsl Ã³Ã°a
ĠÃºtrÃ½ ma
Ġfyrir stÃ¶Ã°u
ĠrÃŃkisstjÃ³r nir
ĠEvrÃ³p ul
Ġteng dir
Ġsly si
ĠtvÃ¶f ald
Ġleikk on
Ġhl er
ĠÃģ TVR
Ġe k
ĠlÃŃk ast
ĠframleiÃ° ni
Ġhar Ã°ur
Ġp ark
ĠÃ¶r vÃ¦nt
Ġal g
im it
ĠCo sta
ĠvÃŃs vitandi
tek na
Kol brÃºn
Ãĵ L
kv Ã¶rÃ°ur
ĠlandsliÃ° smaÃ°urinn
alau sa
Ġgrein in
Ġlandam Ã¦rum
ĠF ljÃ³t
ss ia
Ġ6 50
hÃ¦ tta
ĠhvÃŃ tum
mÃ¶r gum
und inn
ĠannaÃ° ist
Ġbarna bÃ¶rnum
BandarÃŃk jamenn
Ã¡l a
ĠlÃ¶ggjafar Ã¾ingi
A C
m engun
all y
ĠumrÃ¦Ã°u efni
ĠbÃ³ta skyldu
ĠÃŀing eyjar
byl gju
ĠG h
ĠK vikmynd
ĠSt erling
upp hÃ¦Ã°
Ãģsm undur
Ã¶k unni
Ġbyr Ã°ar
ĠbÃ³kmenn tir
ĠsjÃ¡varÃºtveg inn
byss u
Ġupp sjÃ¡
ĠaÃ°stand enda
Ġtilhl Ã¶kk
Ġkr Ã¶kkunum
ĠhlÃ½ t
ĠtÃ³nlist ark
Ġkaup verÃ°iÃ°
ĠHalld Ã³ri
ĠbÃŃl aframleiÃ°
ĠfrÃ©tta stofan
ak stri
ĠMatvÃ¦last ofnun
ĠR afa
anefnd arinnar
viÃ° skipta
VÃŃk ingur
il k
Ġhver fum
Ġtr oÃ°a
ĠsÃ©r hÃ¦fir
Ġlaun at
ĠsÃºr efni
ĠhjÃº skapar
Ġv ildir
ĠS S
ĠÃºtskrif ast
Ġmal ar
ĠframtÃŃÃ° in
Sv an
ĠhÃ¡v aÃ°a
Ġsystur nar
ĠskÃ¡ ta
Rey nir
ĠHv aÃ°a
sk onu
ĠAÃ¾ enu
ĠlÃŃfeyrissjÃ³Ã° ir
ĠmorÃ° iÃ°
ÃŃk in
P r
Ġundir rita
f aÃ°ir
Ġendurspeg lar
Ġt em
ĠHer jÃ³lf
ung s
ey nslu
ĠB rig
Ġhlu tanum
Ġfynd iÃ°
ĠferÃ° in
Ġpl Ã¶t
ĠsamrÃ¦m d
ĠBos nÃŃu
ĠÃģsgeir sdÃ³ttir
Ã¾ ess
Ġeig nina
ĠmannrÃ©tt indum
Ġbur Ã°i
ĠBM W
P S
ĠL uk
ĠsjÃ¡lf virk
ĠJohn sen
lÃŃ nar
ĠaÃ°gerÃ° ina
am erk
kun nir
ĠfÃ©l mn
ĠBjar ka
ĠaÃ°ildarrÃŃk ja
v eldur
Ġt Ã¦r
ĠÃ¾jÃ¡lf arinn
Ġums Ã³knum
Ġsem sagt
he w
ĠL yng
vel lir
ĠÃ³ fÃ¦rt
ĠÃ¦tt ir
ĠfÃ³lk sf
Ġreynd um
N ÃŃu
n iÃ°ur
ĠskuldabrÃ©f um
ald iÃ°
ĠÃĵlaf ssyni
Ġraf or
Ġnu dd
ĠfjÃ¡rfest um
fjÃ¶l skyld
ĠaÃ° ven
ssk Ã³l
Ġkass a
Ġviss ir
hÃ¡tÃŃÃ° ina
rÃ¡Ã°uneyti s
L S
mund a
H Ã¶skuldur
in ber
Ġafla hlut
ĠRos en
it e
ĠÃ³dÃ½r ara
enni fer
ĠÃ¾ ÃŃnar
Ġatvinn ut
lÃ¦kni sembÃ¦tt
arÃ°an ir
Ġaugnablik inu
Ġt orf
jÃ³nvarp s
l aÃ°ur
Ġverk lag
ĠhÃ¶fÃ° inu
sÃ½n ilega
ĠÃ¡tÃ¶k unum
ĠI brahim
ĠrÃ©tt argÃ¦slu
Ġleg u
ĠboÃ° inn
ĠÃ¾ingflokk a
sam taka
ĠPat rick
ĠÃŃ ssk
Ġc o
ly m
Ġyfirskrift inni
ĠkÃŃlÃ³met rar
Ġk redit
Ġvarak rÃ¶fu
w all
jald an
ĠÃ¾jÃ³nust an
k Ã¶nnun
m Ã³Ã°
ĠE Ã°
Ġskatt rannsÃ³knar
ĠBÃºlgar ÃŃu
Ãģ l
as ala
ĠÃŃsl ands
ĠstÃ¶Ã°v uÃ°
ĠmÃ¡ls atvik
2 50
ĠframkvÃ¦md irnar
ĠVal t
ĠKv enn
un e
j uÃ°
ĠRobert o
Ġdag settu
oll ar
nas afn
ĠfjÃ¡rhag saÃ°
cri tic
Ġyfirheyr Ã°ur
Å ¼
sl epp
ĠvÃ¶r una
R aun
Ãĸ Ã°
Ġtiltek inna
Ġbr ons
uland sleik
ĠtÃ¶l frÃ¦Ã°i
Ġc a
Ãģ her
V eiÃ°
safn iÃ°
shrepp i
ĠÃ³venju lega
ĠHr ÃŃs
Ġtengd af
Ġhandtek iÃ°
Ġhvat ning
s Ã¶lum
Ġb li
Ġ19 21
ekk t
Ġlist um
ad o
amann sins
ÃŃk an
ĠMik lu
Ġum spil
ĠkrÃ¶f Ã°ust
ĠÃ¡r stÃŃma
Ġhug um
Ġyfirg n
ol in
Ġskil janlegt
SÃ³l veig
Ġseg Ã°i
ĠLandspÃŃtal ann
Ä ħ
ĠtrÃºn aÃ°
ĠBess astÃ¶Ã°um
ĠbÃ¦tt um
ĠGam la
Ġst end
ĠM Ãºla
ĠsÃ³knar prestur
H Ã¦tt
Ġupplif Ã°i
Sku ld
ĠBenedikt sdÃ³ttir
ĠtÃŃm af
Ġhneyk sl
N et
e j
ĠÃ¡ bÃº
Ġverk frÃ¦Ã°ingur
Ġhl aÃ°a
Ġsk ÃŃt
Ġborgar rÃ¡Ã°s
reik ninga
Ġkol efni
ĠhjÃ³na bandi
Til lagan
Ġvenju leg
mÃ¡l ans
ĠÃ¶lvunar akstur
Ġheyr ast
Ġgagnagr unn
Ã³ su
ĠpÃŃ p
c z
Ġ... .
Ġfyrir spyr
ĠbÃŃ Ã°i
ĠÃ¡rangur srÃŃk
ĠE ndur
nu Ã°urinn
Ġkraf tur
f jÃ¶rÃ°ur
eÃ° ri
ĠÃºt boÃ°i
Ġstefn endum
ĠdagskrÃ¡ nni
Ġdug legir
Ġmisnot aÃ°
Ġsl oppiÃ°
ĠsnÃº i
im i
Ġgrundv all
ĠrÃ¡Ã° amanna
Ġtil mÃ¦li
Ġskemm stu
Ġsam bands
Ġveg agerÃ°
ĠjafnaÃ°ar manna
ĠD yn
ĠÃ³lÃŃk ra
Yfir leitt
G rÃŃÃ°ar
ÃŃn an
ĠskjÃ¡lf ta
ĠÃ¡st fang
ĠsvÃŃ na
ĠgjaldmiÃ° il
J ap
ĠH Ã¶g
ĠlÃ¡g laun
ĠÃŀÃ³rhall ur
ĠrÃ©tt ara
Ġs Ã¶nnu
Ġh allar
ĠH jalla
Ġkaffi hÃºs
h raun
ĠS var
ĠvÃ¶r slum
Ġhl yn
vist arf
vÃŃs inda
Ġsal inn
ĠÃ¾r em
Ġfang el
mÃ³t inu
arfram leiÃ°slu
V en
Ġst aldra
Ġframmist aÃ°a
eg undir
ĠofboÃ° slega
ĠtvÃ¶f aldast
ĠskoÃ° aÃ°ar
Flest ar
Ġkan sl
ĠhjÃ¶r tum
Ġs Ã³f
da q
ĠHug h
Ġatvik a
Ġstel pa
ĠF ood
f at
Ġneik vÃ¦tt
ĠOli ver
O G
ĠrÃ¡Ã° nir
ĠÃģg Ãº
ĠÃ¡kv arÃ°a
ell ur
L u
ĠLands bjargar
ĠD y
ĠÃºtskÃ½r t
ĠB ab
sg jÃ¶ld
Ġorsak ir
Ġakstur s
l anna
Ing var
ĠPan ama
Ġflugv Ã©lum
ic o
ĠMÃ½vatn ssveit
f rest
Ãº bbur
Fyrr verandi
ĠS ur
Ġsterk asta
ĠfÃ³t inn
Ġteng st
Ġstofnun ina
SeÃ°labank inn
ĠÃ¡frÃ½j aÃ°a
jÃ¶ld inn
Ġfrem ja
Ġlax i
Ġfor varnar
Ġundanfar inna
ĠsÃ¶ng konan
Ġdval arleyfi
Ġvor uÃ°
ĠN ev
leiÃ° um
Nokk rar
ĠniÃ°ur fellingu
ĠÃ³gild a
Ġsam stÃ¦Ã°
ĠfjÃ¡rfram lÃ¶g
m Ã¡tt
Ã¦k ur
mik lu
ĠÃ³ til
ĠA ma
Ġumfang sm
ĠmÃ³t aÃ°
Ġflug fÃ©lagsins
Ġ arg
ĠlÃ¶greglu stjÃ³ri
Ġafla heimildir
ĠÃ³trÃº leg
BlaÃ° amaÃ°ur
ag Ã¶tu
ss jÃºkra
Ġm aga
Ġskrifstof ur
Ġ19 25
Ġtilein ka
ĠB ob
Ã¡ stÃ¦Ã°um
lÃŃn unni
ska tta
Ġhol ur
H L
A kur
Ġsvip aÃ°an
f ag
ĠlÃŃf rÃŃki
ĠSim on
Ġ19 24
ĠsjÃ³Ã° anna
ĠÃºtvarp i
ĠÃ¡ burÃ°ar
ĠiÃ° gjald
Ġ19 19
es ar
Sk yld
Ġfast an
ĠByggÃ°ast ofnunar
Ġverk fÃ¦ri
Ġspilar anum
at Ã¦k
Ġfj hn
sum hverfi
bÃŃ llinn
ĠjÃ¡kv Ã¦Ã°ur
Ġja pan
Ġleyf ilegt
Ġyfirskrift ina
ĠLundÃº na
ĠH end
Ġ! !
ĠaÃ°gerÃ° irnar
ĠLau g
Ġskuld b
ĠneÃ° ar
Ġsamning unum
ĠB Ã¡ra
Ġa c
Ġhel zt
ĠÃ© ta
br oti
Ġgam aldags
ĠglÃŃm t
ĠJÃ³hanness onar
ĠdÃ³m nefndar
Ã¾jÃ¡lf ara
Ġs orp
Sk or
ĠfjÃ¡r svik
Ġfr elsis
ĠG rÃ©
ĠvarÃ° aÃ°
ĠhÃ¡tt ur
ÃŀÃºs undir
S enn
ĠD aÃ°
ĠeyÃ°ileg g
Ġh natt
ĠO k
Jo se
ĠveiÃ° arnar
ĠsjÃºkra hÃºssins
ĠÃŃtar leg
ĠHita veitu
ĠEd in
tal ÃŃn
ĠkynferÃ°is ofbeldi
e ars
sk eyt
Ġskemm st
Ġjafn mikiÃ°
Sp Ã¡n
Ġfisk urinn
ĠAir waves
afÃ©lÃ¶g um
ĠS ka
Ġn a
Sp reng
ĠTÃº nis
I P
land o
ĠRang ers
j andinn
Ġborg i
ĠjÃ¶f num
ĠgÃ¶ng ust
ĠInga dÃ³ttir
vir Ã°ingar
ĠklÃ¦ Ã°ast
ĠlÃ¶g menn
sg eiri
ĠLe verkusen
Svar iÃ°
Ġvop num
st ed
ĠO wen
NÃ¦ sti
ĠslÃ¶kkviliÃ° smenn
f riÃ°
ar Ã°urinn
Ġg Ãºmm
Ġfyrir gjÃ¶f
ĠI van
ĠsjÃ¶ tÃŃu
ĠfrÃ¡ sagnar
ĠgÃ³Ã° gerÃ°ar
ĠUngverjal andi
ĠframbjÃ³Ã° andi
ĠOl ÃŃu
Ġger samlega
Ġforeldrar nir
esÃº ela
Ġtv ennu
k ins
fyrirtÃ¦k in
ĠsjÃ³ mann
ĠÃŀr Ã¶stur
ĠbrÃ©f anna
ĠÃ¶kur Ã©tt
ĠÃ¡frÃ½ jaÃ°
ĠvÃ¶r urnar
ĠÃºr skeiÃ°
ĠfjÃ¡rlagafrumvarp inu
Ġfasteign amat
HÃ¡ tÃŃÃ°in
d rÃ³
f ugl
ver z
af lutning
ĠÃįr ans
ĠLew is
Ġverk frÃ¦Ã°i
sm ÃŃÃ°ar
ĠÃ¡kv eÃ°i
ĠÃ¡fang ast
ĠT V
Ġnefnd a
s ch
ĠGa al
ĠhljÃ³Ã°fÃ¦r aleik
ĠrÃ¡Ã°stÃ¶f unum
OR G
ĠÃ³Ã¦ sk
ĠÃ¶kum aÃ°urinn
Ġkom una
Ġtutt ug
ĠPla y
ĠÃĵlafs firÃ°i
okk Ã³
Ġk Ã¶llum
lÃ¶g unum
ĠRa sm
ĠsamÃ¾ykk ir
Ġheild art
ĠMil estone
Ġlok aleik
ĠJÃ¶kul sÃ¡r
ĠÃŃbÃº i
ĠK jarn
Ġkepp enda
ateng sl
ĠSamfylk inguna
ĠTor res
Ġor ti
Sk ag
ĠsjÃ¡ ist
eta critic
iÃ° i
ĠskoÃ°anak Ã¶nnunum
el sdÃ³ttir
breyt ni
stein i
Ġlek iÃ°
Ġh Ã³l
Ġundirrit uÃ°
ĠÃ¶f ug
Ã¶r kum
ViÃ° brÃ¶gÃ°
ĠframkvÃ¦md in
GuÃ° nÃ½
li sti
Ġk Ã³
ĠViÃ° reisn
ĠÃºrskeiÃ° is
Ġmat reiÃ°slu
ĠP ol
ĠhÃ¶fuÃ°borg arinnar
Ġlauna hÃ¦kkun
ĠFjÃ¡rmÃ¡laeftirlit inu
ĠFel ix
ĠsjÃ¡varÃºtveg sfyrirtÃ¦k
ĠsÃ½r len
Ġaf kÃ¶st
ĠT ak
ĠÃ¡hrif amik
tÃ³n listar
f inna
att le
sk ila
Ġskemmtileg an
ĠKolbein sson
ĠKrist ni
ĠsÃ©r f
ĠrÃŃkiss Ã¡ttasemjara
Ġvirk aÃ°i
ĠstÃºl kum
ĠÃ³s jÃ¡lf
Ġinnanlands flug
ĠK ven
ĠhÃ¦g lega
tu be
ĠN ov
mynd ina
ĠÃ³g na
ĠSkÃ³ gar
ĠH eyr
Ġfyll t
ĠLu c
ĠMari o
HvÃŃ l
anns Ã³kn
ĠÃģ K
Ġskall aÃ°i
Ġh na
ow ell
alau su
Ã¶g gu
Ġsveitar stjÃ³ri
ĠÃ³hef Ã°
borÃ° s
ĠsÃ³larhr inga
ĠmeÃ°Ã¡kÃ¦r Ã°a
ĠG ill
as Ã¶lu
ĠÃºt lag
[...]
