{"<s>":0,"<pad>":1,"</s>":2,"<unk>":3,"<mask>":4,"!":5,"\"":6,"#":7,"$":8,"%":9,"&":10,"'":11,"(":12,")":13,"*":14,"+":15,",":16,"-":17,".":18,"/":19,"0":20,"1":21,"2":22,"3":23,"4":24,"5":25,"6":26,"7":27,"8":28,"9":29,":":30,";":31,"<":32,"=":33,">":34,"?":35,"@":36,"A":37,"B":38,"C":39,"D":40,"E":41,"F":42,"G":43,"H":44,"I":45,"J":46,"K":47,"L":48,"M":49,"N":50,"O":51,"P":52,"Q":53,"R":54,"S":55,"T":56,"U":57,"V":58,"W":59,"X":60,"Y":61,"Z":62,"[":63,"\\":64,"]":65,"^":66,"_":67,"`":68,"a":69,"b":70,"c":71,"d":72,"e":73,"f":74,"g":75,"h":76,"i":77,"j":78,"k":79,"l":80,"m":81,"n":82,"o":83,"p":84,"q":85,"r":86,"s":87,"t":88,"u":89,"v":90,"w":91,"x":92,"y":93,"z":94,"{":95,"|":96,"}":97,"~":98,"¡":99,"¢":100,"£":101,"¤":102,"¥":103,"¦":104,"§":105,"¨":106,"©":107,"ª":108,"«":109,"¬":110,"®":111,"¯":112,"°":113,"±":114,"²":115,"³":116,"´":117,"µ":118,"¶":119,"·":120,"¸":121,"¹":122,"º":123,"»":124,"¼":125,"½":126,"¾":127,"¿":128,"À":129,"Á":130,"Â":131,"Ã":132,"Ä":133,"Å":134,"Æ":135,"Ç":136,"È":137,"É":138,"Ê":139,"Ë":140,"Ì":141,"Í":142,"Î":143,"Ï":144,"Ð":145,"Ñ":146,"Ò":147,"Ó":148,"Ô":149,"Õ":150,"Ö":151,"×":152,"Ø":153,"Ù":154,"Ú":155,"Û":156,"Ü":157,"Ý":158,"Þ":159,"ß":160,"à":161,"á":162,"â":163,"ã":164,"ä":165,"å":166,"æ":167,"ç":168,"è":169,"é":170,"ê":171,"ë":172,"ì":173,"í":174,"î":175,"ï":176,"ð":177,"ñ":178,"ò":179,"ó":180,"ô":181,"õ":182,"ö":183,"÷":184,"ø":185,"ù":186,"ú":187,"û":188,"ü":189,"ý":190,"þ":191,"ÿ":192,"Ā":193,"ā":194,"Ă":195,"ă":196,"Ą":197,"ą":198,"Ć":199,"ć":200,"Ĉ":201,"ĉ":202,"Ċ":203,"ċ":204,"Č":205,"č":206,"Ď":207,"ď":208,"Đ":209,"đ":210,"Ē":211,"ē":212,"Ĕ":213,"ĕ":214,"Ė":215,"ė":216,"Ę":217,"ę":218,"Ě":219,"ě":220,"Ĝ":221,"ĝ":222,"Ğ":223,"ğ":224,"Ġ":225,"ġ":226,"Ģ":227,"ģ":228,"Ĥ":229,"ĥ":230,"Ħ":231,"ħ":232,"Ĩ":233,"ĩ":234,"Ī":235,"ī":236,"Ĭ":237,"ĭ":238,"Į":239,"į":240,"İ":241,"ı":242,"Ĳ":243,"ĳ":244,"Ĵ":245,"ĵ":246,"Ķ":247,"ķ":248,"ĸ":249,"Ĺ":250,"ĺ":251,"Ļ":252,"ļ":253,"Ľ":254,"ľ":255,"Ŀ":256,"ŀ":257,"Ł":258,"ł":259,"Ń":260,"Ã°":261,"ĠÃ":262,"Ġs":263,"ar":264,"aÃ°":265,"in":266,"Ġh":267,"Ġe":268,"an":269,"Ġv":270,"ĠÃ¾":271,"Ġf":272,"um":273,"iÃ°":274,"Ġ.":275,"ur":276,"ĠaÃ°":277,"Ã¡":278,"ir":279,"st":280,"Ã³":281,"Ġm":282,"ĠÃ¡":283,"ÃŃ":284,"Ã¦":285,"er":286,"Ġo":287,"Ġ,":288,"Ã¶":289,"ĠÃŃ":290,"Ġog":291,"il":292,"Ġt":293,"un":294,"Ġl":295,"eg":296,"tt":297,"af":298,"inn":299,"al":300,"am":301,"em":302,"Ġb":303,"Ġer":304,"Ġg":305,"Ã©":306,"en":307,"Ãº":308,"Ġk":309,"ing":310,"kk":311,"ann":312,"ei":313,"ag":314,"Ġsem":315,"yr":316,"ss":317,"Ġn":318,"Ġst":319,"or":320,"and":321,"ef":322,"ĠÃ¾e":323,"Ġtil":324,"jÃ³":325,"Ġr":326,"Ġver":327,"sk":328,"Ġfr":329,"Ġum":330,"Ã°i":331,"ĠviÃ°":332,"ri":333,"ra":334,"Ġen":335,"na":336,"eÃ°":337,"Ġfyr":338,"ig":339,"el":340,"Ġsk":341,"Ã¡l":342,"Ã½":343,"sl":344,"vÃŃ":345,"Ġvar":346,"nar":347,"Ã°a":348,"ins":349,"Ġhaf":350,"ja":351,"kki":352,"au":353,"Ġfyrir":354,"ĠmeÃ°":355,"ta":356,"Ġ1":357,"Ġd":358,"Ġaf":359,"ĠÃ¾ess":360,"Ãŀ":361,"ey":362,"Ġekki":363,"nd":364,"ni":365,"ĠS":366,"ti":367,"Ã¶g":368,"ĠÃ¾aÃ°":369,"on":370,"lu":371,"leg":372,"ĠsÃ©":373,"und":374,"ver":375,"Ġsam":376,"la":377,"Ã¶r":378,"Ġhef":379,"ĠÃ¾vÃŃ":380,"pp":381,"Ġal":382,"Ã°ur":383,"ÃŃk":384,"li":385,"ĠÃº":386,"Ġ2":387,"Ã¦r":388,"Ġef":389,"om":390,"jÃ¡":391,"is":392,"re":393,"Ã°u":394,"ning":395,"andi":396,"Ġfram":397,"inu":398,"eik":399,"ĠsÃŃ":400,"ak":401,"ĠH":402,"eim":403,"ĠB":404,"tta":405,"Ġsv":406,"num":407,"Ã¶l":408,"Ġu":409,"tir":410,"ik":411,"end":412,"enn":413,"Ġhann":414,"at":415,"kv":416,"Ġhefur":417,"ĠveriÃ°":418,"ald":419,"Ġupp":420,"Ġkom":421,"et":422,"nu":423,"ĠfrÃ¡":424,"arf":425,"lag":426,"Ã¾":427,"âĢ":428,"Ã°ar":429,"inni":430,"Ġeru":431,"ek":432,"ĠA":433,"sins":434,"egar":435,"lega":436,"ĠG":437,"ĠÃ¡r":438,"Ã©r":439,"ug":440,"Ãºn":441,"Ġseg":442,"Ġhafa":443,"ist":444,"Ã¡Ã°":445,"ĠM":446,"est":447,"eiÃ°":448,"eng":449,"ll":450,"jÃ³r":451,"ĠÃ¶":452,"ĠÃ¾eir":453,"ĠÃ¾Ã¡":454,"rÃ¦":455,"jar":456,"Ġhafi":457,"Ġger":458,"ang":459,"Ġeftir":460,"Ã³l":461,"anna":462,"00":463,"ĠÃ©":464,"ĠÃ¾ar":465,"aÃ°ur":466,"ĠÃ©g":467,"ĠsÃ©r":468,"rÃ³":469,"ĠÃ³":470,"uÃ°":471,"gg":472,"Ã¶f":473,"ĠK":474,"Ġein":475,"ild":476,"Ġhv":477,"ĠR":478,"ĠE":479,"ast":480,"ĠmÃ¡l":481,"it":482,"Ġ-":483,"Ġall":484,"Ġ\"":485,"sson":486,"ip":487,"ld":488,"ingar":489,"Ã¦m":490,"Ã¦k":491,"aÃ°i":492,"Ã³k":493,"Ġ:":494,"Ã³r":495,"ÃŃm":496,"ara":497,"ĠÃºt":498,"ĠF":499,"ygg":500,"sm":501,"Ġfor":502,"Ġbr":503,"fir":504,"Ã³tt":505,"Ã©tt":506,"ĠhÃ¦":507,"Ġsvo":508,"nir":509,"stu":510,"ĠÃį":511,"ĠâĢ":512,"var":513,"ĠL":514,"ĠÃºr":515,"ĠV":516,"Ġmik":517,"eir":518,"Ġy":519,"Ġp":520,"Ġsegir":521,"ĠÃŀ":522,"ill":523,"Ã°um":524,"ynd":525,"okk":526,"ÃŀaÃ°":527,"of":528,"Ġveg":529,"jÃ¡l":530,"tur":531,"Ã©lag":532,"unum":533,"ans":534,"ng":535,"org":536,"Ġleik":537,"ĠÃ¾egar":538,"ĠeÃ°a":539,"ĠJ":540,"Ġeig":541,"sta":542,"Ãºs":543,"Ġgr":544,"Ãį":545,"jÃ¶r":546,"ĠÃ¾etta":547,"īg":548,"Ġau":549,"jÃ¶l":550,"Ġyfir":551,"ina":552,"Ã¡tt":553,"Ġfl":554,"Ġund":555,"Ġ19":556,"Ġsp":557,"Ġheim":558,"ĠnÃº":559,"ark":560,"Ġdag":561,"eld":562,"eit":563,"yn":564,"Ġinn":565,"Ġhver":566,"Ġ3":567,"erÃ°":568,"Ġvor":569,"Ġj":570,"itt":571,"ju":572,"jÃ¡r":573,"ands":574,"Ã¦Ã°i":575,"ind":576,"ĠlÃ¶g":577,"ka":578,"unar":579,"all":580,"ĠnÃ½":581,"tti":582,"Ġsag":583,"ĠhÃºn":584,"slu":585,"efnd":586,"ĠÃįsl":587,"Ã¦ri":588,"ĠÃ¦":589,"ĠÃ¾eim":590,"as":591,"Ã¶k":592,"Ã³m":593,"ot":594,"kvÃ¦m":595,"ram":596,"ileg":597,"jÃ³Ã°":598,"es":599,"Ġsig":600,"ĠhÃ©r":601,"br":602,"Ãīg":603,"ĠrÃŃk":604,"jÃ¡lf":605,"ĠN":606,"jÃ³rn":607,"Ġhlu":608,"ĠstaÃ°":609,"Ġokk":610,"unni":611,"afn":612,"Ġvoru":613,"Ġlag":614,"ĠP":615,"Ã³t":616,"dd":617,"ĠlÃŃ":618,"reiÃ°":619,"ĠtÃŃm":620,"Ġeins":621,"ari":622,"ĠD":623,"Ġkr":624,"Ġat":625,"Ġland":626,"oÃ°":627,"Ġ)":628,"her":629,"ber":630,"Ġann":631,"Ġvegna":632,"fi":633,"ska":634,"ĠT":635,"ol":636,"dÃ³tt":637,"ars":638,"Ã¦Ã°":639,"innar":640,"Ã¦g":641,"ĠhjÃ¡":642,"ingu":643,"Ġtek":644,"Ġkv":645,"tu":646,"Ãģ":647,"ĠverÃ°ur":648,"Ġstarf":649,"Ġallt":650,"jum":651,"Ġvera":652,"Ġsl":653,"Ġor":654,"una":655,"Ã½r":656,"ĠmÃ¡":657,"ĠnÃ¡":658,"ĠÃ¾r":659,"ein":660,"Ã³n":661,"Ã³lk":662,"inna":663,"ĠfjÃ¡r":664,"Ġend":665,"ĠrÃ¡Ã°":666,"Ġvel":667,"Ġmun":668,"ĠÃ¾eirra":669,"ĠâĢľ":670,"naÃ°":671,"eild":672,"ĠÃ¡kv":673,"ul":674,"ÃŃn":675,"ĠverÃ°i":676,"Ġ20":677,"ung":678,"Ãŀe":679,"ĠlÃ¡":680,"Ġ4":681,"arg":682,"vÃŃk":683,"ĠÃ¾essu":684,"endur":685,"iÃ°ur":686,"tÃ¦k":687,"Ġeinn":688,"ĠsagÃ°i":689,"jÃ¶g":690,"Ã¶ld":691,"anda":692,"yl":693,"Ġhl":694,"efn":695,"ÃŃÃ°":696,"Ġ200":697,"Ġundir":698,"ĠvÃ¦ri":699,"Ġko":700,"ana":701,"agn":702,"stÃ¶":703,"ĠlÃŃk":704,"ok":705,"ort":706,"aka":707,"dÃ³ttir":708,"Ġtv":709,"Ã¶n":710,"mÃ¡l":711,"Ġof":712,"Ġskip":713,"ab":714,"rif":715,"unnar":716,"Ã½s":717,"emur":718,"skip":719,"ĠC":720,"rein":721,"Ġ5":722,"se":723,"rÃ¡":724,"Ã¦ti":725,"ĠliÃ°":726,"anns":727,"ĠfjÃ¶l":728,"ull":729,"Ġhen":730,"reg":731,"Hann":732,"Ġse":733,"iss":734,"ĠhÃ¶f":735,"bÃº":736,"menn":737,"ĠfÃ¡":738,"jÃº":739,"ÃŃs":740,"urinn":741,"Ġmynd":742,"ĠSt":743,"Ġmill":744,"ĠleiÃ°":745,"Ġ(":746,"rar":747,"rum":748,"ust":749,"hver":750,"inum":751,"Ġverk":752,"sam":753,"ĠI":754,"Ġhug":755,"ĠÃ¾au":756,"Ġhans":757,"tl":758,"âĢŀ":759,"Ġge":760,"eig":761,"im":762,"sku":763,"ĠmjÃ¶g":764,"fl":765,"fram":766,"nt":767,"ĠÃ¾ann":768,"eyt":769,"aup":770,"ĠÃ¡h":771,"lÃ¶g":772,"ĠrÃ©tt":773,"ĠsjÃ¡lf":774,"Ġnokk":775,"ĠrÃ¦":776,"dag":777,"Ã³Ã°":778,"kja":779,"rygg":780,"ĠhefÃ°i":781,"etur":782,"eyr":783,"tal":784,"ĠfÃ³lk":785,"rÃº":786,"Ġ?":787,"gja":788,"ĠsÃ½":789,"Ġgeg":790,"ĠstjÃ³rn":791,"ĠorÃ°":792,"Ġrey":793,"ru":794,"ĠÃ¡ra":795,"if":796,"Ġhald":797,"Ġtal":798,"ĠbÃº":799,"inga":800,"Ġheld":801,"slen":802,"ÃŃu":803,"sv":804,"ĠÃģ":805,"Ġ6":806,"Ġskil":807,"Ã¶ng":808,"ĠÃ¾ing":809,"Ġjafn":810,"epp":811,"ĠbÃ¦":812,"ĠfÃ©lag":813,"lum":814,"ĠRey":815,"ĠrÃŃkis":816,"ĠSig":817,"ĠÃ¾Ã³":818,"eil":819,"Ġkoma":820,"Ã°an":821,"ViÃ°":822,"ĠniÃ°ur":823,"maÃ°ur":824,"veg":825,"rÃ¡Ã°":826,"gi":827,"stak":828,"ĠhvaÃ°":829,"ofn":830,"Ġmeir":831,"ĠmÃ©r":832,"unn":833,"Ġgera":834,"ap":835,"ĠÃŃslen":836,"Ġvir":837,"lÃ½s":838,"Ġmark":839,"Ġfer":840,"fa":841,"tan":842,"Ġbar":843,"kom":844,"Ãŀetta":845,"En":846,"ĠkrÃ³":847,"Ġokkur":848,"Ġmenn":849,"ĠGuÃ°":850,"ingum":851,"ĠÃ¾essum":852,"tum":853,"St":854,"Ġfar":855,"Ġvil":856,"gt":857,"tar":858,"legt":859,"Ġtaka":860,"ĠnÃ¦":861,"lit":862,"ert":863,"ÃŀÃ¡":864,"jÃ³rnar":865,"Ġflu":866,"Ġ201":867,"sp":868,"Ġsaman":869,"Ġhr":870,"Ġbl":871,"rÃ¦Ã°":872,"jÃ³n":873,"Ġ7":874,"Ã¶nd":875,"ĠÃ¶Ã°":876,"Ġeinnig":877,"si":878,"sh":879,"Ġfara":880,"ĠtÃŃma":881,"ank":882,"ÃŃl":883,"leik":884,"Ġbygg":885,"ĠljÃ³":886,"herra":887,"ĠmiÃ°":888,"ĠAl":889,"Ġauk":890,"Ġtel":891,"ĠÃ¾ur":892,"vinn":893,"illi":894,"Ġhvort":895,"Ġkemur":896,"efni":897,"ningar":898,"Ã¦tt":899,"ĠfÃ³r":900,"Ġley":901,"Ġ8":902,"Ġ/":903,"miÃ°":904,"ott":905,"Ġfull":906,"yld":907,"Ġminn":908,"onum":909,"Ġeng":910,"bl":911,"Ã³p":912,"ma":913,"riÃ°":914,"Ġeitt":915,"ĠÃ¡Ã°ur":916,"ĠÃ¾Ã¦r":917,"rei":918,"varp":919,"kvÃ¦mt":920,"sti":921,"ĠÃ¶ll":922,"Ġkl":923,"ĠverÃ°":924,"ĠsjÃ¡":925,"Ġmarg":926,"Ġokkar":927,"enda":928,"ĠkomiÃ°":929,"Ã³la":930,"Ġlok":931,"mi":932,"far":933,"ĠÃĵ":934,"Ġvegar":935,"sa":936,"Ġald":937,"Ġkyn":938,"ĠÃįslands":939,"Ã¡r":940,"jald":941,"aun":942,"stur":943,"anum":944,"Ġgert":945,"ĠdÃ³m":946,"Ġvinn":947,"ĠfÃ©":948,"kjavÃŃk":949,"Ã¶m":950,"ĠÃ¾essa":951,"ĠsÃŃnum":952,"liÃ°":953,"ĠvarÃ°":954,"Ġsegja":955,"ĠhafÃ°i":956,"vel":957,"ĠReykjavÃŃk":958,"Ġgrein":959,"ent":960,"eitt":961,"ĠstÃ³r":962,"mynd":963,"Ġheldur":964,"Ġenn":965,"sdÃ³ttir":966,"Ġhlut":967,"ĠmikiÃ°":968,"ĠverÃ°a":969,"ningu":970,"Ġmikil":971,"stjÃ³":972,"Ġsn":973,"ch":974,"Ã³knar":975,"tiÃ°":976,"eins":977,"verk":978,"erk":979,"andar":980,"ga":981,"stÃ¦":982,"ĠsÃ¶g":983,"ĠÃ¡riÃ°":984,"ĠfyrirtÃ¦k":985,"ĠstÃ¶":986,"ĠmÃ¦":987,"Ġbara":988,"ila":989,"Ġgef":990,"ĠO":991,"Ġber":992,"Ġgegn":993,"orÃ°":994,"Ġ9":995,"AÃ°":996,"Ġhins":997,"ĠsÃ©u":998,"Ġhonum":999,"rist":1000,"ĠgreiÃ°":1001,"Ġforse":1002,"Ġundan":1003,"Ã¾ing":1004,"mÃ¦":1005,"Ġeinhver":1006,"ĠÃ¾annig":1007,"aÃ°a":1008,"Ġmilli":1009,"kvÃ¦md":1010,"Ġstefn":1011,"lÃŃ":1012,"Ġfeng":1013,"ĠÃ¾essi":1014,"sf":1015,"ĠÃ¡tt":1016,"Ġsku":1017,"ĠgÃ¦r":1018,"Ġhel":1019,"ĠlÃŃf":1020,"leiÃ°":1021,"Ġmann":1022,"ĠhÃ¡":1023,"ĠmeÃ°al":1024,"Ġ10":1025,"ĠhÃºs":1026,"Ġsinn":1027,"hald":1028,"Ġop":1029,"ilega":1030,"ĠÃ¾jÃ³":1031,"Ã°ir":1032,"kkert":1033,"kur":1034,"gr":1035,"ku":1036,"Ġsinni":1037,"yrÃ°i":1038,"ĠhÃ¡l":1039,"deild":1040,"Ġhennar":1041,"ferÃ°":1042,"ĠslÃŃk":1043,"Ġsum":1044,"Ġleg":1045,"ĠtÃ³k":1046,"Ġrek":1047,"ili":1048,"kÃ¦r":1049,"star":1050,"ĠmÃ¶r":1051,"Ġlang":1052,"Ġfyl":1053,"Ã°ast":1054,"lut":1055,"nig":1056,"jÃºk":1057,"ĠsÃŃÃ°an":1058,"su":1059,"Ġfund":1060,"gar":1061,"nur":1062,"Ġendur":1063,"ĠhÃ¦gt":1064,"Ġborg":1065,"irk":1066,"ĠlÃ¶greg":1067,"Ã¶lu":1068,"ĠlÃŃka":1069,"yrir":1070,"Ã¦kk":1071,"ember":1072,"Ã°v":1073,"Ã°ist":1074,"ĠSigur":1075,"Ġsamning":1076,"Ġ199":1077,"fÃ©lag":1078,"rÃ³p":1079,"Ã¶rn":1080,"ĠvÃŃs":1081,"ĠÃ¡n":1082,"orgun":1083,"Ġekkert":1084,"av":1085,"imm":1086,"tÃ¶k":1087,"rÃ©tt":1088,"ĠW":1089,"Ġgeng":1090,"mund":1091,"HÃºn":1092,"ĠJÃ³n":1093,"Ġfyrr":1094,"Ġsama":1095,"Ã¶rf":1096,"hÃºs":1097,"Ef":1098,"ĠÃ½":1099,"Ġheil":1100,"borg":1101,"lend":1102,"ĠframkvÃ¦md":1103,"ĠÃ¾jÃ³Ã°":1104,"Ġhag":1105,"Ġaftur":1106,"anir":1107,"vrÃ³p":1108,"Ġvik":1109,"vaÃ°":1110,"band":1111,"fiÃ°":1112,"ĠÃŀÃ³r":1113,"aÃ°ar":1114,"Ãŀar":1115,"mann":1116,"ĠrÃ¦Ã°a":1117,"ell":1118,"haf":1119,"lau":1120,"Ã¡n":1121,"os":1122,"ed":1123,"Ġgeta":1124,"alla":1125,"ĠâĢĵ":1126,"ĠdÃ¦m":1127,"ĠgÃ³":1128,"ĠskÃ½r":1129,"ut":1130,"ski":1131,"gur":1132,"ĠÃ¡ri":1133,"Ġbreyt":1134,"Ġkaup":1135,"Ġleng":1136,"Ã¶nnum":1137,"ĠtekiÃ°":1138,"Sam":1139,"fest":1140,"eita":1141,"gu":1142,"att":1143,"ĠÃ¾Ã¡tt":1144,"Ã°ustu":1145,"auÃ°":1146,"ĠÃ¾arf":1147,"ĠsÃº":1148,"Ġannars":1149,"ĠÃ¡fram":1150,"Ġath":1151,"ĠrÃŃkisst":1152,"ĠmÃŃn":1153,"bÃ¦":1154,"Ġdr":1155,"sleg":1156,"ĠÃ¡kveÃ°":1157,"Ġlau":1158,"ĠfariÃ°":1159,"ĠU":1160,"ĠupplÃ½s":1161,"ĠannaÃ°":1162,"ĠSk":1163,"Ġhvernig":1164,"Ġalltaf":1165,"Ġeiga":1166,"son":1167,"tak":1168,"Ġfimm":1169,"ger":1170,"ĠmaÃ°ur":1171,"amÃ¡l":1172,"ĠaÃ°eins":1173,"Ġgl":1174,"ĠmÃ¡nu":1175,"laf":1176,"ĠJÃ³":1177,"Ġstig":1178,"Ġfors":1179,"ĠsÃ¡":1180,"hag":1181,"ĠÃŃslensk":1182,"skyld":1183,"fer":1184,"ĠsÃ©rstak":1185,"arinnar":1186,"ĠorÃ°iÃ°":1187,"ĠstjÃ³rnar":1188,"ĠsÃŃna":1189,"ĠÃ¡rum":1190,"ax":1191,"ĠsamkvÃ¦mt":1192,"ulag":1193,"Ġranns":1194,"ĠlÃ©":1195,"Ġ0":1196,"Ġnem":1197,"nast":1198,"ildi":1199,"ĠsÃŃÃ°ustu":1200,"Ġhalda":1201,"kt":1202,"onar":1203,"ĠÃ¡kÃ¦r":1204,"ost":1205,"ĠâĢŀ":1206,"Ġfrum":1207,"egi":1208,"Ġenda":1209,"ĠmilljÃ³":1210,"ĠÃ¾Ãº":1211,"rey":1212,"stÃ¶Ã°u":1213,"dÃ³m":1214,"ĠEvrÃ³p":1215,"ĠmÃ³":1216,"Ġmat":1217,"Ġnot":1218,"Ġforseti":1219,"jan":1220,"gang":1221,"Ġgang":1222,"kyn":1223,"sem":1224,"Ġsveit":1225,"Ġstefnd":1226,"arl":1227,"ĠNor":1228,"Ġhenni":1229,"Ġnr":1230,"Ã©l":1231,"ota":1232,"rÃ¦Ã°i":1233,"Ãºt":1234,"manna":1235,"gerÃ°":1236,"ĠmÃ¡li":1237,"rÃŃk":1238,"ess":1239,"Ġgetur":1240,"Ġmeira":1241,"akk":1242,"ĠSam":1243,"Ġutan":1244,"sla":1245,"ĠÃ¶Ã°rum":1246,"tÃŃÃ°":1247,"Ġvit":1248,"Ġskor":1249,"Ġ15":1250,"ĠKrist":1251,"Ġsm":1252,"Ġteng":1253,"Ġgagn":1254,"vÃ¦g":1255,"Ġatvinn":1256,"ĠfÃ¦r":1257,"Ã³kn":1258,"trÃº":1259,"ĠvÃŃ":1260,"stv":1261,"ĠtÃ¦k":1262,"ĠÃīg":1263,"amenn":1264,"Ġ12":1265,"Ġlaga":1266,"ĠÃ¶llum":1267,"ĠkrÃ¶f":1268,"ex":1269,"ĠAr":1270,"ĠyrÃ°i":1271,"ttu":1272,"emm":1273,"Ġgam":1274,"Ġfyrsta":1275,"ÃŃf":1276,"Ġfj":1277,"heim":1278,"andarÃŃk":1279,"starf":1280,"ĠmÃ³t":1281,"Ġstund":1282,"Ġreg":1283,"skur":1284,"Ġ11":1285,"Ġinnan":1286,"men":1287,"eiri":1288,"og":1289,"Ġbyr":1290,"rÃ½":1291,"ĠÃŀaÃ°":1292,"Ġraun":1293,"Ġbrey":1294,"bur":1295,"stjÃ³ri":1296,"Ãŀess":1297,"landi":1298,"Ġmig":1299,"ĠbÃ¦Ã°i":1300,"jÃ¶rn":1301,"Ġtrygg":1302,"ĠrÃº":1303,"flokk":1304,"jast":1305,"Ġnefnd":1306,"ingur":1307,"ykk":1308,"Ã¾jÃ³":1309,"Ġmeiri":1310,"ĠkrÃ³na":1311,"Ġher":1312,"art":1313,"ĠsÃŃÃ°ar":1314,"Ġvinna":1315,"Ã¶rÃ°":1316,"ĠtÃ³n":1317,"ett":1318,"Ġget":1319,"boÃ°":1320,"ĠviÃ°skip":1321,"rÃŃ":1322,"Ġung":1323,"smenn":1324,"ĠViÃ°":1325,"ĠÃ½m":1326,"sn":1327,"Ġ18":1328,"jÃ¶":1329,"ĠBandarÃŃk":1330,"Ġerum":1331,"ĠferÃ°":1332,"ĠÃ¡g":1333,"nustu":1334,"ĠhÃ¦kk":1335,"di":1336,"skrÃ¡":1337,"rÃ©":1338,"Ġstofn":1339,"ĠgÃ³Ã°":1340,"fu":1341,"Ġflokk":1342,"ĠumrÃ¦":1343,"ĠÃ¡hrif":1344,"ĠhÃ¡tt":1345,"ĠsamÃ¾":1346,"kum":1347,"ft":1348,"vÃ¶ld":1349,"Ġeigin":1350,"jur":1351,"ilegt":1352,"Ġeld":1353,"ĠÃ¾Ãºs":1354,"naÃ°ar":1355,"Ġhluta":1356,"ĠlÃ½":1357,"Ġhana":1358,"ĠÃįslandi":1359,"000":1360,"Ġaldrei":1361,"Ġand":1362,"ĠsjÃ³":1363,"ĠprÃ³":1364,"Ġkost":1365,"tek":1366,"stÃ¶Ã°":1367,"skÃ³la":1368,"Ġbest":1369,"Ġdeild":1370,"Ġskrif":1371,"Ġlandi":1372,"ĠkvÃ¶ld":1373,"Ġspur":1374,"aga":1375,"sÃ¶g":1376,"Ġset":1377,"Ġalla":1378,"Ãºar":1379,"stof":1380,"Ġ13":1381,"gum":1382,"Ġgeti":1383,"Og":1384,"Ã¦tl":1385,"Ġma":1386,"aÃ°ir":1387,"nis":1388,"Ġalveg":1389,"Um":1390,"MeÃ°":1391,"frÃ¦Ã°":1392,"isk":1393,"Ġsett":1394,"verÃ°":1395,"Ġeigi":1396,"gj":1397,"jÃ³l":1398,"Ġ;":1399,"arÃ°":1400,"Ã¶Ã°":1401,"vik":1402,"Ġbank":1403,"Ġ16":1404,"ĠbÃ³k":1405,"fis":1406,"Ãºr":1407,"arnir":1408,"Ã©f":1409,"Ġvinnu":1410,"ĠÃ¶r":1411,"ĠÃ¾eirri":1412,"Ġlig":1413,"ĠgÃ¦":1414,"ĠIng":1415,"Ãºl":1416,"ĠÃŃbÃº":1417,"ĠÃ¦tl":1418,"Ġskuld":1419,"ĠEvrÃ³pu":1420,"Ġkann":1421,"jÃ¶rg":1422,"efna":1423,"ĠÃĵlaf":1424,"ÃŃÃ°ar":1425,"ki":1426,"ĠfÃ¦":1427,"ĠhÃ³p":1428,"pt":1429,"sÃ½":1430,"oll":1431,"Ġ14":1432,"ita":1433,"Ãŀegar":1434,"ĠmÃŃ":1435,"ad":1436,"ĠÃ¦t":1437,"byr":1438,"ĠhÃ¦stv":1439,"Ġsagt":1440,"ĠmikilvÃ¦g":1441,"hvaÃ°":1442,"Ġlit":1443,"Ã°asta":1444,"ji":1445,"Ġannar":1446,"ĠÃ¾Ã³tt":1447,"Ġflug":1448,"Ġtak":1449,"vald":1450,"Ġfyrst":1451,"ĠbÃ¶rn":1452,"Ġeinstak":1453,"Ġskemm":1454,"ers":1455,"Ġsumar":1456,"ĠÃ¡tti":1457,"ĠGuÃ°mund":1458,"Ġkon":1459,"Ġsvona":1460,"rÃ¡Ã°herra":1461,"ĠnÃ³":1462,"vo":1463,"uÃ°ur":1464,"ĠGr":1465,"ĠÃ¡f":1466,"ĠsÃŃn":1467,"ĠAlÃ¾ing":1468,"Ġleggja":1469,"Ġhor":1470,"ĠmÃ¡liÃ°":1471,"ĠÃ¾essari":1472,"bygg":1473,"enna":1474,"ĠfÃ©kk":1475,"yni":1476,"Ã¶fn":1477,"ĠeitthvaÃ°":1478,"yk":1479,"uÃ°u":1480,"he":1481,"Ã¶ll":1482,"tist":1483,"Ġmorgun":1484,"Ã¶nn":1485,"Ġfleiri":1486,"rig":1487,"mark":1488,"ĠfjÃ¶lskyld":1489,"ĠstÃ¶Ã°u":1490,"Ġmest":1491,"Ġnokkur":1492,"ĠÃ¾essar":1493,"ĠsÃ¦ti":1494,"ĠfjÃ³r":1495,"Ġmis":1496,"uga":1497,"ĠmÃ³ti":1498,"ĠstÃ¦r":1499,"Ġvin":1500,"itaÃ°":1501,"Ġtilkyn":1502,"Ã¦ru":1503,"ĠskoÃ°":1504,"stri":1505,"ĠaÃ°al":1506,"indi":1507,"unnu":1508,"jarÃ°ar":1509,"list":1510,"skÃ³l":1511,"ĠbÃŃ":1512,"ningi":1513,"ĠauÃ°v":1514,"ĠsÃŃÃ°asta":1515,"ĠfengiÃ°":1516,"ĠÃ¾m":1517,"Ġhaft":1518,"Ġ17":1519,"ĠtÃŃmab":1520,"Ġfrek":1521,"pa":1522,"atn":1523,"Ġgjald":1524,"ĠÃ¶Ã°ru":1525,"ĠhÃ¶fum":1526,"vert":1527,"Ãŀeir":1528,"ĠBandarÃŃkj":1529,"ĠsjÃºk":1530,"Ġfinn":1531,"Ġfrv":1532,"Ġoft":1533,"Ġbir":1534,"ĠÃ¾Ãºsund":1535,"estur":1536,"Ġstefnanda":1537,"ĠhÃ¦tti":1538,"ulega":1539,"Ãĵ":1540,"Ã¶ngu":1541,"ĠmilljÃ³nir":1542,"slum":1543,"ĠsÃ©rstaklega":1544,"ndi":1545,"ĠÃģr":1546,"val":1547,"Ġlist":1548,"Ġfal":1549,"Ġhand":1550,"uleik":1551,"..":1552,"semi":1553,"mÃ¡la":1554,"fÃ¦r":1555,"ĠHel":1556,"Ġsitt":1557,"eidd":1558,"lar":1559,"Sk":1560,"yg":1561,"Ġallir":1562,"ĠÃ¾ekk":1563,"ĠÃĸ":1564,"Ġerlend":1565,"Ã¶ndum":1566,"aÃ°s":1567,"brig":1568,"Ġbetur":1569,"Ġfel":1570,"Ġfyrra":1571,"ĠGunnar":1572,"ssonar":1573,"ĠReykjavÃŃkur":1574,"Ġsak":1575,"arÃ¡Ã°":1576,"yrirtÃ¦k":1577,"endi":1578,"Ġminni":1579,"ĠlÃ¡n":1580,"afl":1581,"oss":1582,"ic":1583,"aust":1584,"ĠstuÃ°":1585,"sen":1586,"ĠJÃ³h":1587,"oÃ°a":1588,"ona":1589,"Ġlagt":1590,"urnar":1591,"ĠhÃ¶fuÃ°":1592,"ĠgÃ¦ti":1593,"blaÃ°":1594,"ĠÃįslend":1595,"NÃº":1596,"Ġklu":1597,"ndar":1598,"ĠÃŀor":1599,"ĠÃ¾riÃ°":1600,"Ġbor":1601,"ĠsamÃ¾ykk":1602,"nefnd":1603,"vÃ¶r":1604,"tÃŃm":1605,"llu":1606,"ĠBjar":1607,"byrg":1608,"ĠÃ¡kvÃ¶rÃ°":1609,"verandi":1610,"Ġstyr":1611,"ĠvÃ¦":1612,"ĠfrÃ©tt":1613,"ĠaÃ°st":1614,"Ġmiklu":1615,"ĠnauÃ°":1616,"sg":1617,"eppni":1618,"aleg":1619,"inda":1620,"til":1621,"Ġopin":1622,"Ġalls":1623,"sum":1624,"lands":1625,"ĠsÃŃnu":1626,"hlu":1627,"da":1628,"unin":1629,"Ġ30":1630,"Ġmgr":1631,"Ġveit":1632,"ĠSv":1633,"bank":1634,"dÃ³ttur":1635,"Ġnor":1636,"ĠBr":1637,"Ġnema":1638,"Ġgott":1639,"endum":1640,"Ãºss":1641,"Ã¡t":1642,"ĠvÃ¶r":1643,"Ã¦Ã°inu":1644,"ĠÃ¾Ã½":1645,"sst":1646,"ĠeÃ°":1647,"ĠnÃ¦stu":1648,"ĠLands":1649,"Ġaug":1650,"arfÃ©lag":1651,"ĠsÃ¦":1652,"ĠbÃŃl":1653,"smÃ¡l":1654,"hÃ¦":1655,"bÃ¦r":1656,"ĠnÃ¡m":1657,"jÃ¡n":1658,"fur":1659,"Ġkos":1660,"yÃ°":1661,"ĠnÃ¦r":1662,"Ġefna":1663,"ljÃ³":1664,"rir":1665,"Ġ25":1666,"Ġstanda":1667,"viÃ°":1668,"bÃºn":1669,"Ġvald":1670,"Ã¾jÃ³Ã°":1671,"Ġklukk":1672,"Ġerf":1673,"ĠhefÃ°u":1674,"Ġbak":1675,"ĠkveÃ°":1676,"vart":1677,"ekk":1678,"ĠlÃ¶gum":1679,"Ġfrumvarp":1680,"Ġbyrj":1681,"ĠmÃ¶g":1682,"samt":1683,"Ġlandinu":1684,"allar":1685,"sliÃ°":1686,"Ġa":1687,"Ġlof":1688,"Ãºst":1689,"Ãļ":1690,"Til":1691,"Ġvan":1692,"Ġeinu":1693,"tast":1694,"Ġhluti":1695,"Ġbein":1696,"tug":1697,"Ġsann":1698,"ĠrÃºm":1699,"ĠfÃ¶":1700,"ĠlÃ¦kk":1701,"Ġskatt":1702,"stÃ¦Ã°i":1703,"greiÃ°":1704,"Ġmuni":1705,"Ġefni":1706,"Ġunn":1707,"Ġfyrstu":1708,"ĠvÃ¦ru":1709,"vin":1710,"anlega":1711,"Ġheild":1712,"Ã³f":1713,"ken":1714,"Ġ198":1715,"Ġalmenn":1716,"naÃ°i":1717,"Ġvon":1718,"Ekki":1719,"ĠÃ¡samt":1720,"Ġleyti":1721,"Ġfinna":1722,"Ġmet":1723,"dal":1724,"Ġvand":1725,"Ġlandsins":1726,"ĠljÃ³st":1727,"ĠlÃ¶greglu":1728,"Ġalmen":1729,"ĠgerÃ°":1730,"ĠnÃ¦sta":1731,"ĠkrÃ³nur":1732,"ĠljÃ³s":1733,"ĠveiÃ°":1734,"nnur":1735,"ĠÃ¦tla":1736,"Eftir":1737,"syn":1738,"Ġheimil":1739,"ĠÃ¡stÃ¦":1740,"Ġkraf":1741,"Ġvill":1742,"efnu":1743,"ĠÃ¾urf":1744,"ĠÃ¡st":1745,"Ġviss":1746,"legum":1747,"Ġfast":1748,"Ġspil":1749,"tali":1750,"Ġvilja":1751,"ĠtÃ¶l":1752,"Ġheyr":1753,"ĠlÃ¡ta":1754,"Ġsex":1755,"Ġflest":1756,"Ġstendur":1757,"ĠCh":1758,"Ġtveim":1759,"undi":1760,"Ã¦p":1761,"Ġfinnst":1762,"sÃ³knar":1763,"smanna":1764,"einn":1765,"Ġhugs":1766,"ĠstÃ¶rf":1767,"aÃ°urinn":1768,"Ã©tta":1769,"yst":1770,"ĠsÃ¶m":1771,"All":1772,"uk":1773,"ĠÃ¡kvÃ¶rÃ°un":1774,"lÃŃk":1775,"jÃ¶ld":1776,"Ã°is":1777,"anka":1778,"Ġskyld":1779,"ĠnÃ¡tt":1780,"ĠÃ³sk":1781,"vÃ¦":1782,"Ġopinber":1783,"land":1784,"Ġmeg":1785,"Ġbrot":1786,"Ġheims":1787,"ssk":1788,"op":1789,"ĠtrÃº":1790,"Ġbarna":1791,"stjÃ³ra":1792,"spyr":1793,"hlut":1794,"Er":1795,"ĠfjÃ¡rm":1796,"ĠNorÃ°ur":1797,"lug":1798,"veit":1799,"ling":1800,"ÃŃsk":1801,"ĠEin":1802,"ĠÃ¾rÃ³":1803,"ĠgreiÃ°a":1804,"Ġ21":1805,"ĠauÃ°vitaÃ°":1806,"ĠhljÃ³":1807,"ĠnÃºna":1808,"etta":1809,"Ġganga":1810,"jarÃ°":1811,"hÃ¦Ã°":1812,"Ã¶gum":1813,"ac":1814,"daginn":1815,"Ã¾rÃ³":1816,"yt":1817,"ĠVal":1818,"Ġstr":1819,"ĠkjÃ¶r":1820,"ĠÃįsland":1821,"ferÃ°ar":1822,"ĠtvÃ¶":1823,"ĠfjÃ¡rmÃ¡l":1824,"framt":1825,"Ġskal":1826,"legu":1827,"ĠPÃ¡l":1828,"velli":1829,"Ġlaun":1830,"Ġefnahag":1831,"Ã©lÃ¶g":1832,"rÃºn":1833,"Ġtveimur":1834,"mÃ¶r":1835,"Ġumhver":1836,"Ġfisk":1837,"eist":1838,"ĠrÃ¡":1839,"ĠmÃ¡nuÃ°i":1840,"Ġstefnda":1841,"ĠHaf":1842,"mar":1843,"ĠgerÃ°i":1844,"nings":1845,"Ã¶kk":1846,"unda":1847,"yf":1848,"astjÃ³":1849,"mu":1850,"ninga":1851,"Ġvarnar":1852,"amanna":1853,"natt":1854,"Ġheimild":1855,"ningur":1856,"ĠÃ¡byrg":1857,"ĠÃ¶llu":1858,"Ġgegnum":1859,"ĠnauÃ°syn":1860,"agnar":1861,"asam":1862,"kr":1863,"ĠSuÃ°ur":1864,"ĠmeÃ°an":1865,"lan":1866,"illa":1867,"Ġbarn":1868,"Ġupphaf":1869,"kun":1870,"ĠmÃŃnÃº":1871,"legur":1872,"hl":1873,"Ã¡m":1874,"ĠboÃ°":1875,"fÃ¶r":1876,"ĠsviÃ°":1877,"Ã³ta":1878,"Ġ22":1879,"Ġkannski":1880,"ĠnokkuÃ°":1881,"ĠhaldiÃ°":1882,"sb":1883,"SamkvÃ¦mt":1884,"jandi":1885,"ĠmÃ¡linu":1886,"legar":1887,"ĠÃ¦tti":1888,"ĠbÃºiÃ°":1889,"Ġhugmynd":1890,"Ã³ber":1891,"irnir":1892,"brÃ©f":1893,"Ġsetja":1894,"ĠMagn":1895,"ennan":1896,"Ġlands":1897,"rek":1898,"Af":1899,"aÃ°ila":1900,"komulag":1901,"ĠtillÃ¶g":1902,"Ġleit":1903,"bo":1904,"slit":1905,"Ġgrund":1906,"ĠhÃ¶fÃ°u":1907,"irnar":1908,"Ġtekur":1909,"ningum":1910,"Ġsamstarf":1911,"Ã¶kum":1912,"ĠupplÃ½singar":1913,"ĠÃ¾Ã©r":1914,"fyl":1915,"Ġmanns":1916,"Ġjafnvel":1917,"ĠunniÃ°":1918,"Ġfylg":1919,"ĠÃºti":1920,"Ġbreytingar":1921,"Ã¡s":1922,"ĠliÃ°iÃ°":1923,"fall":1924,"ĠÃ¾jÃ³Ã°ar":1925,"reind":1926,"ĠrÃŃkisstjÃ³rn":1927,"Ġbet":1928,"raut":1929,"ĠSp":1930,"ĠvirÃ°ist":1931,"ĠhvaÃ°a":1932,"ĠÃ¡rinu":1933,"ĠFram":1934,"Ġreik":1935,"olt":1936,"ĠframleiÃ°":1937,"jarÃ°a":1938,"Ġlagi":1939,"Ġtelur":1940,"Ã¦tis":1941,"allaÃ°":1942,"Ġskap":1943,"Ġjan":1944,"ĠsamfÃ©lag":1945,"uÃ°um":1946,"ĠJÃ³hann":1947,"ÃŃa":1948,"hug":1949,"Ġreyna":1950,"ĠformaÃ°ur":1951,"ĠsÃŃÃ°ast":1952,"ĠskÃ³l":1953,"flut":1954,"HÃ©r":1955,"ĠsÃ¶gn":1956,"vi":1957,"laga":1958,"bb":1959,"ĠnÃ¦st":1960,"Ġdaga":1961,"afÃ©lag":1962,"Ġhverju":1963,"ĠmÃ¡lsins":1964,"ĠAlÃ¾ingi":1965,"ĠgengiÃ°":1966,"bandi":1967,"ĠviÃ°ur":1968,"rÃ¦n":1969,"rh":1970,"ĠsamrÃ¦":1971,"Ġsel":1972,"ĠÃ¾arna":1973,"ĠÃ¾ennan":1974,"sveit":1975,"19":1976,"opp":1977,"ĠerfiÃ°":1978,"Ġfann":1979,"Ġmyndi":1980,"efnum":1981,"ĠrÃ¡Ã°herra":1982,"skrif":1983,"eyri":1984,"ĠblaÃ°":1985,"Ġmargir":1986,"Ġmanna":1987,"Ġfyrri":1988,"ĠsÃ¶mu":1989,"eyti":1990,"ygli":1991,"Ġgefa":1992,"Ġsvar":1993,"Ġverkefni":1994,"ĠsjÃ¶":1995,"ĠÃ¶nnur":1996,"set":1997,"Ġdes":1998,"ĠveÃ°":1999,"Ġraf":2000,"ĠsÃ¶lu":2001,"irkj":2002,"lÃ¡":2003,"lur":2004,"Ġfrekar":2005,"ustur":2006,"ĠÃ¾akk":2007,"aut":2008,"ĠiÃ°":2009,"ĠAkur":2010,"Ġokt":2011,"Ġheima":2012,"ĠjÃºn":2013,"ingin":2014,"Ġerfitt":2015,"erfi":2016,"ĠY":2017,"jal":2018,"Ãĸ":2019,"us":2020,"ĠfjÃ¡rfest":2021,"ĠfÃ©lagsins":2022,"Ġvax":2023,"ĠstaÃ°fest":2024,"ĠÃ¡rs":2025,"For":2026,"staÃ°a":2027,"Ġfang":2028,"Ġel":2029,"Ãŀann":2030,"mÃ¦li":2031,"rit":2032,"Ġkomi":2033,"riÃ°i":2034,"ĠlÃ¦k":2035,"eggja":2036,"ĠjanÃºar":2037,"Einn":2038,"Ġskuli":2039,"str":2040,"ĠÃ¾jÃ³nustu":2041,"ĠÃºtg":2042,"ĠrÃŃkiss":2043,"Ġsept":2044,"undur":2045,"ĠÃ¾urfa":2046,"ĠjÃ¡":2047,"ĠÃŀetta":2048,"slur":2049,"ĠmaÃŃ":2050,"hn":2051,"ĠhÃ³f":2052,"Ġviku":2053,"30":2054,"ĠbjÃ³":2055,"naÃ°ur":2056,"ĠjÃºnÃŃ":2057,"Ã½st":2058,"stjÃ³rn":2059,"Ġsigur":2060,"Ġkomu":2061,"taka":2062,"ĠBre":2063,"ĠstaÃ°ar":2064,"Ġtala":2065,"Ġhring":2066,"ĠÃ¡kvÃ¦Ã°i":2067,"stÃ¦Ã°":2068,"rÃŃl":2069,"Ġallar":2070,"ĠrÃŃkisins":2071,"Ġflutt":2072,"Ġstu":2073,"ov":2074,"dr":2075,"afa":2076,"irÃ°i":2077,"ĠmÃ¶rk":2078,"Ġ24":2079,"ĠfÃ³lki":2080,"Ġallra":2081,"staÃ°":2082,"Ġ197":2083,"ÃŃna":2084,"Ġnota":2085,"Ġkepp":2086,"hor":2087,"geng":2088,"jarn":2089,"ofnun":2090,"fr":2091,"amÃ³t":2092,"ĠborÃ°":2093,"amm":2094,"isins":2095,"Ġheilbrig":2096,"ĠÃ¡huga":2097,"ĠfjÃ¶lmiÃ°":2098,"ĠhjÃ¡l":2099,"alld":2100,"stÃ¦Ã°ur":2101,"ĠeÃ°l":2102,"Ġreyn":2103,"ĠjÃº":2104,"Ġkomast":2105,"od":2106,"ĠtÃŃÃ°":2107,"Ġap":2108,"ĠhliÃ°":2109,"ĠÃ¡her":2110,"ĠoktÃ³ber":2111,"ĠskÃ³la":2112,"for":2113,"Ġ!":2114,"Ã¶gn":2115,"ĠnÃ³v":2116,"Ã°ust":2117,"ĠsÃ¶gu":2118,"efÃ¡n":2119,"nÃ¦Ã°i":2120,"sÃ¡":2121,"endir":2122,"spyrnu":2123,"ley":2124,"Ġmikla":2125,"leika":2126,"ĠtaliÃ°":2127,"Ġmunu":2128,"ĠÃ¾urfi":2129,"ew":2130,"Ġfag":2131,"Ġathygli":2132,"ĠsÃ³knar":2133,"Ġeina":2134,"Ġvak":2135,"Ġlangt":2136,"rakk":2137,"ssyni":2138,"Ġhinn":2139,"ĠÃ¾ig":2140,"nas":2141,"Ġskemmt":2142,"Ġreglu":2143,"nes":2144,"oka":2145,"bÃ³t":2146,"smaÃ°ur":2147,"Ġkaf":2148,"Ġmars":2149,"Ġ23":2150,"Ġvann":2151,"Ã¦mi":2152,"Ġathug":2153,"Ġeinf":2154,"Ġseptember":2155,"Ġliggur":2156,"Ġsegist":2157,"GuÃ°":2158,"Ġborgar":2159,"Ġtap":2160,"run":2161,"ĠKristjÃ¡n":2162,"rÃŃkis":2163,"Ġhin":2164,"Ġken":2165,"jÃ³nvarp":2166,"Ġdesember":2167,"ĠauÃ°":2168,"Ġmerk":2169,"ĠÃ¡Ã¦tl":2170,"Ġhvor":2171,"ason":2172,"ĠÃŃslenska":2173,"ĠÃ³h":2174,"Ġ50":2175,"Ġversl":2176,"ĠÃ¾jÃ¡lf":2177,"ĠaÃ°ra":2178,"Ã¦ra":2179,"ĠfyrirtÃ¦ki":2180,"Ġmikill":2181,"ĠskoraÃ°i":2182,"ĠHÃ¡":2183,"Ġstra":2184,"ĠBer":2185,"ĠnÃ½ja":2186,"ĠaÃ°ila":2187,"ĠfulltrÃº":2188,"ck":2189,"ard":2190,"ala":2191,"ow":2192,"ĠlÃŃtiÃ°":2193,"Sig":2194,"Ġstefnandi":2195,"Ġklukkan":2196,"Fram":2197,"Ġengin":2198,"Ġfe":2199,"anefnd":2200,"ĠdÃ½r":2201,"Ġgild":2202,"samband":2203,"Svo":2204,"ou":2205,"ĠnÃ½tt":2206,"ĠSjÃ¡lf":2207,"ĠstaÃ°iÃ°":2208,"ĠgreiÃ°slu":2209,"Ã½ra":2210,"Ã¶t":2211,"Ġ2008":2212,"ĠsjÃ¡var":2213,"bol":2214,"Ġtelja":2215,"Ġundanfar":2216,"ass":2217,"ĠÃ¡rang":2218,"ne":2219,"Ġvildi":2220,"ĠMar":2221,"Ġinni":2222,"ĠÃ¡kveÃ°iÃ°":2223,"Ġnokkrum":2224,"ĠBjÃ¶rn":2225,"skap":2226,"ĠkrÃ¶fu":2227,"Ġatvinnul":2228,"ĠviÃ°skipta":2229,"Ġjafnframt":2230,"ifreiÃ°":2231,"Ġsvip":2232,"ĠnÃ¡Ã°":2233,"Ġkvik":2234,"Ġles":2235,"Ġeink":2236,"ĠnÃ³vember":2237,"kvÃ¦Ã°i":2238,"Ãŀannig":2239,"Ġgerir":2240,"aliÃ°":2241,"Ãºru":2242,"Fyrir":2243,"listar":2244,"amma":2245,"komandi":2246,"ĠnÃ½ju":2247,"Ġeinstakl":2248,"ĠlandsliÃ°":2249,"Ġfylgja":2250,"ÃŃr":2251,"Ġvirk":2252,"Ġforeld":2253,"hluta":2254,"ĠaprÃŃl":2255,"ĠsveitarfÃ©lag":2256,"rik":2257,"ĠtÃ¦p":2258,"els":2259,"ĠbÃ¦jar":2260,"Ġauka":2261,"Ġsterk":2262,"Ã³lf":2263,"Ġhversu":2264,"ĠDan":2265,"Ãŀessi":2266,"ÃŀvÃŃ":2267,"spur":2268,"slega":2269,"Ġ100":2270,"ĠÃ¡l":2271,"ĠÃ¶rygg":2272,"Ġvita":2273,"rn":2274,"alag":2275,"stjÃ³r":2276,"ĠhÃ¶fuÃ°borg":2277,"Ġleig":2278,"ĠkjÃ¶l":2279,"ĠÃ¡tta":2280,"ĠtÃ¦kif":2281,"Ġallan":2282,"veiÃ°":2283,"Ġenginn":2284,"Ã³ra":2285,"ant":2286,"ĠsÃ©Ã°":2287,"Ġfjar":2288,"alt":2289,"Ġvef":2290,"Ġ'":2291,"emst":2292,"Ġgildi":2293,"ham":2294,"ĠkÃ¦r":2295,"Ġframhald":2296,"ÃºÃ°":2297,"ĠÃ¾essara":2298,"raun":2299,"efla":2300,"ĠvÃ¦nt":2301,"ĠhlÃ½":2302,"Ġem":2303,"hf":2304,"alldÃ³r":2305,"Ġsinna":2306,"Ġannarra":2307,"Ġpen":2308,"eldi":2309,"nÃ½":2310,"ĠÃ¡nÃ¦g":2311,"ĠlÃ½s":2312,"ep":2313,"astjÃ³ri":2314,"ĠÃºrskur":2315,"ĠÃ¾rÃ¡tt":2316,"smiÃ°":2317,"ĠÃ¡byrgÃ°":2318,"tals":2319,"ĠtÃ¶lu":2320,"urÃ°u":2321,",,":2322,"Ġ26":2323,"eyp":2324,"orgunblaÃ°":2325,"Ġsamt":2326,"Ãŀau":2327,"ven":2328,"Ġlengi":2329,"Ġalvar":2330,"hÃ¡":2331,"sar":2332,"ĠrÃ¡Ã°st":2333,"ĠÃ¡gÃºst":2334,"ÃŃma":2335,"aÃ°sdÃ³m":2336,"Ġfebr":2337,"Ġspila":2338,"ĠmilljarÃ°a":2339,"asta":2340,"Ã©ttar":2341,"le":2342,"ĠnÃ½r":2343,"jÃ¶gur":2344,"ĠjÃºlÃŃ":2345,"ĠmiÃ°aÃ°":2346,"ĠbÃºa":2347,"jÃ³ta":2348,"Ġsambandi":2349,"ĠforsÃ¦tis":2350,"Ġey":2351,"legri":2352,"Ġ27":2353,"LÃ¶g":2354,"gjÃ¶r":2355,"uneyt":2356,"Ġehf":2357,"ĠkjÃ¶lfar":2358,"Ġhund":2359,"Ġhf":2360,"Ġtveggja":2361,"Ġfannst":2362,"Ġgrunn":2363,"Ġtryggja":2364,"ĠnÃ¡l":2365,"sflokk":2366,"Ġhlutverk":2367,"Ġsit":2368,"ĠgagnrÃ½":2369,"Ã¶p":2370,"repp":2371,"Ã¶tu":2372,"cel":2373,"ĠstjÃ³rnmÃ¡l":2374,"auk":2375,"ĠStefÃ¡n":2376,"ĠEy":2377,"vÃŃs":2378,"Ġdraga":2379,"Ġforseta":2380,"irkju":2381,"ĠaÃ°rir":2382,"Ġkonar":2383,"ĠvarÃ°andi":2384,"skoÃ°":2385,"ĠtÃŃmabil":2386,"ĠJÃ³nsson":2387,"ĠmÃ¶guleik":2388,"Ã¶nnun":2389,"fell":2390,"ĠsÃ¦k":2391,"ĠHr":2392,"ĠSigurÃ°":2393,"ĠsÃ½na":2394,"ÃŃnu":2395,"ÃŃtal":2396,"ĠjÃ³":2397,"ĠumrÃ¦Ã°u":2398,"eitir":2399,"sent":2400,"ĠsmÃ¡":2401,"skipti":2402,"MÃ©r":2403,"Ġney":2404,"Ġsly":2405,"ĠfebrÃºar":2406,"ĠpÃ³":2407,"ĠHar":2408,"breyt":2409,"Ġstof":2410,"Ġmiss":2411,"reina":2412,"Ġdreg":2413,"mÃ¦l":2414,"stÃ¶Ã°um":2415,"uneyti":2416,"Eins":2417,"Ġums":2418,"Ġknatt":2419,"Ġumf":2420,"Ġ196":2421,"ĠEinar":2422,"ddi":2423,"Ġ28":2424,"Ġ40":2425,"ĠmikilvÃ¦gt":2426,"Ġsbr":2427,"fel":2428,"ĠfjÃ¶gur":2429,"ĠhvÃŃ":2430,"ĠfrÃ©tta":2431,"va":2432,"ĠgÃ³Ã°a":2433,"eflavÃŃk":2434,"ĠfÃ³t":2435,"Ġbera":2436,"Ġkomin":2437,"Ġrit":2438,"Ġmegi":2439,"nda":2440,"Ġstarfsemi":2441,"niÃ°":2442,"Ġafar":2443,"id":2444,"vang":2445,"yng":2446,"Ġform":2447,"Ã©tur":2448,"ĠDa":2449,"Ġflyt":2450,"ĠjarÃ°":2451,"Ġvatn":2452,"ĠMorgunblaÃ°":2453,"ĠaÃ°il":2454,"tÃ¶ku":2455,"fleik":2456,"ĠMan":2457,"Ġminna":2458,"Ġmegin":2459,"amann":2460,"ĠmÃ¶rg":2461,"Al":2462,"eÃ°la":2463,"Ã¡ttar":2464,"ĠÃ¾riÃ°ja":2465,"Ġveik":2466,"ĠskoÃ°a":2467,"engi":2468,"rÃŃm":2469,"Ġlyf":2470,"Ġhendur":2471,"sdÃ³ttur":2472,"eina":2473,"Ã³nu":2474,"arsv":2475,"ĠÃ¡ratug":2476,"ĠmÃ¡lum":2477,"Ġmennt":2478,"brot":2479,"ĠÃ¾yr":2480,"Ġuppi":2481,"undir":2482,"Ġumhverfis":2483,"Ġfari":2484,"Ġeignar":2485,"ĠhÃ¡lfleik":2486,"ĠrÃ¶k":2487,"ĠstÃ³Ã°":2488,"Ġgekk":2489,"ĠtÃŃu":2490,"ĠstjÃ³rnvÃ¶ld":2491,"Ein":2492,"vinnu":2493,"ĠbÃ¦ta":2494,"arÃ¡Ã°herra":2495,"aÃ°ist":2496,"Ġdeil":2497,"ĠsnÃº":2498,"amaÃ°ur":2499,"Ã¡ra":2500,"ĠÃ¡rsins":2501,"Var":2502,"ĠÃ¾rjÃº":2503,"Ġhaust":2504,"bund":2505,"lun":2506,"finn":2507,"ĠVest":2508,"Ġofan":2509,"Ġleita":2510,"firÃ°i":2511,"Ġtekin":2512,"ĠEl":2513,"yll":2514,"Ġveru":2515,"hr":2516,"finu":2517,"ĠSn":2518,"ĠsamÃ¾ykkt":2519,"ĠÃįs":2520,"Ġlif":2521,"10":2522,"Ġspyr":2523,"Ġheimili":2524,"brey":2525,"elsi":2526,"Ġstrax":2527,"Ġhagsm":2528,"skil":2529,"Ġveitt":2530,"ĠÃŃslensku":2531,"ndur":2532,"ĠdÃ¦mis":2533,"Ġkjar":2534,"Ġlaugar":2535,"ĠMo":2536,"ĠgefiÃ°":2537,"Ġkaupa":2538,"ĠEr":2539,"ĠmarkaÃ°":2540,"liti":2541,"aus":2542,"ĠSjÃ¡lfstÃ¦Ã°i":2543,"Hver":2544,"Her":2545,"ĠReyk":2546,"mÃ¶nnum":2547,"Ã¶x":2548,"ĠnÃ¡ttÃºru":2549,"Ġsamband":2550,"Ġstefnu":2551,"Ġc":2552,"aldur":2553,"Einnig":2554,"Ġkar":2555,"ĠsjÃ³nvarp":2556,"jÃ³Ã°s":2557,"Ġhn":2558,"Ġleikinn":2559,"Ġbjar":2560,"ĠprÃ³sent":2561,"bÃ¦tt":2562,"ĠLand":2563,"ĠhÃ¡lfu":2564,"ÃĲ":2565,"Ġgaman":2566,"dÃŃs":2567,"Ġfasteig":2568,"app":2569,"ĠÃºrslit":2570,"ĠbÃ¡":2571,"ĠmarkmiÃ°":2572,"ĠfriÃ°":2573,"afi":2574,"Ġkvikmynd":2575,"ĠumferÃ°":2576,"ĠAnd":2577,"mun":2578,"mer":2579,"ĠundirbÃº":2580,"jÃ¶rÃ°um":2581,"tÃŃÃ°ar":2582,"ĠnÃ³tt":2583,"ĠKeflavÃŃk":2584,"skatt":2585,"ĠÃ¡kÃ¦rÃ°a":2586,"ĠtÃ¶lv":2587,"Ã¶ku":2588,"eftir":2589,"ĠBandarÃŃkjunum":2590,"Ã¾jÃ³nustu":2591,"ester":2592,"50":2593,"ĠJo":2594,"ĠBir":2595,"kvÃ¦Ã°":2596,"laun":2597,"Ġhvers":2598,"stofu":2599,"Ġskot":2600,"ĠsamrÃ¦mi":2601,"ĠmÃ¦tti":2602,"Ġhuga":2603,"last":2604,"Ã¦Ã°um":2605,"ĠdÃ¦mi":2606,"Ġsamk":2607,"ddur":2608,"Ġskipulag":2609,"indum":2610,"Fyr":2611,"ĠÃ¾remur":2612,"ĠSel":2613,"ay":2614,"mbl":2615,"ĠAkureyri":2616,"ĠGÃŃ":2617,"ĠsÃ©rst":2618,"jaf":2619,"ĠrannsÃ³kn":2620,"ĠhÃºsnÃ¦Ã°i":2621,"hÃ³p":2622,"ĠsjÃºkra":2623,"Ġkref":2624,"Ġvorum":2625,"nit":2626,"Ġkvenna":2627,"Ġilla":2628,"Ġbre":2629,"kvÃ¶ld":2630,"ĠKaup":2631,"ĠtÃ¦kifÃ¦ri":2632,"ĠmÃ¶rgum":2633,"ĠaÃ°ild":2634,"ykir":2635,"eym":2636,"ĠBen":2637,"Ġ29":2638,"ĠfÃ³lks":2639,"ĠvÃŃÃ°a":2640,"Ġstyrk":2641,"Ġgest":2642,"Ġfyrrverandi":2643,"ĠBar":2644,"ĠÃļ":2645,"eistar":2646,"sli":2647,"Ġeftirlit":2648,"ĠtvÃ¦r":2649,"ĠvarÃ°ar":2650,"dir":2651,"Ġskipti":2652,"Ã¦tti":2653,"Ġmati":2654,"Ġbandar":2655,"Ġstarfa":2656,"Ġkarl":2657,"eif":2658,"ungis":2659,"Ġfall":2660,"ĠforsÃ¦tisrÃ¡Ã°herra":2661,"ĠskÃ½rslu":2662,"ĠaÃ°gerÃ°":2663,"berg":2664,"erfiÃ°":2665,"Ġstundum":2666,"Ġ194":2667,"Ġmillj":2668,"gÃ¶ng":2669,"Ġbetri":2670,"ĠfljÃ³":2671,"Ġref":2672,"Ġhvert":2673,"aÃ°ili":2674,"ĠfÃ©lagiÃ°":2675,"ib":2676,"ĠbiÃ°":2677,"ĠframtÃŃÃ°":2678,"ĠAustur":2679,"Ġ[":2680,"Ġgagnvart":2681,"rip":2682,"ĠRo":2683,"ĠbifreiÃ°":2684,"ĠsÃ¶ng":2685,"asem":2686,"ĠÃ¾ri":2687,"ĠHalldÃ³r":2688,"Ġbreytt":2689,"Ġsamkomulag":2690,"yrk":2691,"ĠmeÃ°ferÃ°":2692,"Ġmen":2693,"frÃ¦Ã°i":2694,"Ġhitt":2695,"20":2696,"greiÃ°slu":2697,"ĠsÃŃÃ°ur":2698,"ĠÃŃÃ¾rÃ³":2699,"ĠhÃ©l":2700,"kon":2701,"Ãºtveg":2702,"ogi":2703,"brÃ¶g":2704,"Ġpers":2705,"sÃŃ":2706,"ĠslÃŃkt":2707,"ĠnÃ¦g":2708,"raust":2709,"An":2710,"vil":2711,"Ġsek":2712,"aflokk":2713,"ĠlÃ¦g":2714,"Ġveita":2715,"Ġgaf":2716,"Ġhendi":2717,"ĠsÃŃnar":2718,"Ġleikur":2719,"ingaÃ°":2720,"ia":2721,"Ġ2009":2722,"fylk":2723,"ĠundanfÃ¶r":2724,"aleik":2725,"skar":2726,"ĠÃ³g":2727,"Ġtvo":2728,"ĠBorg":2729,"raÃ°":2730,"ulltrÃº":2731,"lÃ¦g":2732,"ĠSjÃ¡lfstÃ¦Ã°isflokk":2733,"ĠrÃŃkisstjÃ³rnar":2734,"ola":2735,"Ġkominn":2736,"ĠkvaÃ°":2737,"einu":2738,"Ġstefndi":2739,"Ã¦Ã°a":2740,"hel":2741,"ĠnÃ©":2742,"ĠbrÃ©f":2743,"ĠsÃŃÃ°astliÃ°":2744,"ĠvÃ©l":2745,"ĠHafnar":2746,"jÃ¶rÃ°":2747,"nason":2748,"ĠLi":2749,"Ġbyggja":2750,"ĠmÃ¡ls":2751,"Ġkringum":2752,"ĠÃ¾ykir":2753,"ĠhjÃ¡lp":2754,"nuÃ°":2755,"ĠsÃ³l":2756,"ĠneÃ°":2757,"ba":2758,"trygg":2759,"skum":2760,"Ġ2007":2761,"ÃŃska":2762,"Ã¡ttu":2763,"ĠHÃ¦":2764,"laÃ°":2765,"nari":2766,"Ġstarfi":2767,"ofnunar":2768,"Ġfremst":2769,"Ġhelg":2770,"Ġleyfi":2771,"Ġgat":2772,"undar":2773,"rau":2774,"zt":2775,"reng":2776,"ĠrÃ¦tt":2777,"Ġknattspyrnu":2778,"ĠGar":2779,"Ġupphafi":2780,"ĠÃ¡kÃ¦rÃ°i":2781,"ĠfÃ¶stu":2782,"Ġeinungis":2783,"ĠPÃ©tur":2784,"ĠyfirlÃ½s":2785,"ĠhÃ©lt":2786,"Ġkonur":2787,"ĠstuÃ°ning":2788,"Ġ195":2789,"ĠfÃ³ru":2790,"Ġlengur":2791,"Ġbreyta":2792,"ĠsvÃ¦Ã°i":2793,"eta":2794,"Ġhjar":2795,"ĠlagÃ°i":2796,"agna":2797,"Ġnafn":2798,"Ġmargt":2799,"stein":2800,"endingar":2801,"ettvang":2802,"Ġeinfald":2803,"rÃ¦Ã°ur":2804,"vÃŃÃ°":2805,"tin":2806,"Ġw":2807,"reik":2808,"ĠrannsÃ³knar":2809,"ĠOr":2810,"rÃ©tta":2811,"hÃ¶f":2812,"ĠÃ¶f":2813,"agi":2814,"Ġval":2815,"Ġ2010":2816,"ce":2817,"ĠÃ¾Ã¶rf":2818,"Ġbeint":2819,"ĠMagnÃºs":2820,"ĠupplÃ½singum":2821,"umÃ¡l":2822,"ingarinnar":2823,"Ã³knir":2824,"Ġleiknum":2825,"ĠNew":2826,"ĠlÃ½st":2827,"arfÃ©lÃ¶g":2828,"ggja":2829,"Ġflytja":2830,"ĠRagnar":2831,"ĠFr":2832,"ĠniÃ°urstÃ¶Ã°u":2833,"ĠsÃ³tt":2834,"Ġ31":2835,"komu":2836,"ĠfÃ¦ri":2837,"ĠLau":2838,"ĠhÃ¡lf":2839,"Ã¦tur":2840,"Eng":2841,"ĠHann":2842,"ĠurÃ°u":2843,"deildinni":2844,"Ġfundi":2845,"MÃ¡l":2846,"ĠVestur":2847,"eyriss":2848,"lÃ¶gum":2849,"ikt":2850,"Ã¦n":2851,"gjÃ¶f":2852,"ĠskrÃ¡":2853,"ĠAÃ°":2854,"ĠsjÃ¡varÃºtveg":2855,"ĠhÃ¶fuÃ°borgarsv":2856,"Ġhverjum":2857,"sÃ¶gn":2858,"ĠgerÃ°ar":2859,"Ã³Ã°ir":2860,"ĠFor":2861,"ĠsjÃ¡lfur":2862,"Ġsunnu":2863,"Ġgetum":2864,"slan":2865,"Ġreyndar":2866,"Ġhinum":2867,"ĠThe":2868,"Ġfrest":2869,"jÃ³s":2870,"ĠÃ³lÃŃk":2871,"ennt":2872,"ĠÃºrval":2873,"ĠSigurÃ°sson":2874,"ĠaÃ°stÃ¦Ã°ur":2875,"ningin":2876,"ÃŃÃ°an":2877,"ĠlÃŃkam":2878,"stjÃ³rnar":2879,"Ġ&":2880,"jaÃ°":2881,"Ġatvinnu":2882,"ĠhiÃ°":2883,"arar":2884,"mitt":2885,"nust":2886,"enti":2887,"Ã¦ttu":2888,"ĠhingaÃ°":2889,"okki":2890,"ĠÃŃslenskra":2891,"yfir":2892,"Ġton":2893,"Ver":2894,"fjÃ¡r":2895,"ĠhÃ¦tt":2896,"ĠAlÃ¾ingis":2897,"ĠstÃºl":2898,"alega":2899,"11":2900,"mundur":2901,"skeiÃ°":2902,"Ã¡Ã¦tl":2903,"ÃŃkis":2904,"Hv":2905,"oÃ°ar":2906,"ĠÃ¶rug":2907,"Ġtveir":2908,"Mik":2909,"ĠhÃ¦tta":2910,"ĠÃ¡hygg":2911,"insÃ¦":2912,"ĠAn":2913,"ĠfrÃ¡bÃ¦r":2914,"eftirlit":2915,"ĠatriÃ°i":2916,"alli":2917,"Stefn":2918,"ĠfÃ¡i":2919,"Ġloft":2920,"ĠtvÃŃ":2921,"ĠalÃ¾jÃ³Ã°":2922,"Ġdrei":2923,"Ġven":2924,"valda":2925,"Ġtald":2926,"Ġsamh":2927,"sir":2928,"ĠRe":2929,"Ġsameig":2930,"ĠlÃ©k":2931,"arinn":2932,"ĠgrÃŃÃ°ar":2933,"rÃ¦Ã°um":2934,"Ġla":2935,"ĠSvÃŃ":2936,"kkur":2937,"manns":2938,"nited":2939,"ĠhÃ¦ttu":2940,"bÃ½":2941,"ĠsÃŃst":2942,"Ġthe":2943,"ingi":2944,"Ġnet":2945,"Ã¦t":2946,"ĠframkvÃ¦mdastjÃ³ri":2947,"ĠprÃ³f":2948,"po":2949,"ĠEvrÃ³pusamband":2950,"angaÃ°":2951,"ĠGuÃ°mundsson":2952,"ĠliÃ°sins":2953,"afna":2954,"Ã¶mmu":2955,"ĠlÃŃfi":2956,"seti":2957,"Ġpl":2958,"ĠtÃ³ku":2959,"ĠgÃ¶m":2960,"ĠlÃ¶gÃ°":2961,"ĠhÃ©":2962,"Ã¦Ã°iÃ°":2963,"ĠÃ¾rÃ³un":2964,"ĠlÃ¶gregl":2965,"gerÃ°ar":2966,"ich":2967,"ĠpÃ³lit":2968,"AR":2969,"Ġskamm":2970,"ens":2971,"Ġafh":2972,"ĠZ":2973,"Fl":2974,"kost":2975,"ĠÃ¾riggja":2976,"ĠsjÃ¡lfsÃ¶g":2977,"ĠSigurÃ°ar":2978,"ĠaÃ°rar":2979,"ĠleikmaÃ°ur":2980,"Ġbesta":2981,"Ġeinmitt":2982,"ĠÃ³s":2983,"ĠÃ¡rin":2984,"jarnan":2985,"pur":2986,"Ã³g":2987,"ĠhÃ¶nd":2988,"anga":2989,"linum":2990,"chester":2991,"Ġannan":2992,"ĠÃ¡v":2993,"Ġtekju":2994,"sfÃ³lk":2995,"Ã¶ldum":2996,"ĠÃįslendingar":2997,"Ġsamtali":2998,"ĠÃįslendinga":2999,"ĠÃĵlafur":3000,"banka":3001,"ress":3002,"auka":3003,"ork":3004,"Ġgrundv":3005,"ob":3006,"ĠutanrÃŃkis":3007,"ĠFriÃ°":3008,"ĠsjÃ³Ã°":3009,"Ġflut":3010,"ĠfjÃ¡rhÃ¦Ã°":3011,"ĠSamfylk":3012,"ĠviÃ°bÃ³t":3013,"eÃ°labank":3014,"ĠsÃ½nt":3015,"Ġ2011":3016,"ĠRÃºss":3017,"Ġvegum":3018,"nin":3019,"esi":3020,"ĠstÃ¶rfum":3021,"ĠÃ¾or":3022,"Ġkarla":3023,"bÃŃ":3024,"ĠsjÃ³nar":3025,"Ã½sk":3026,"ĠviÃ°komandi":3027,"Ġgreidd":3028,"vÃ©l":3029,"Herra":3030,"ingunni":3031,"Ġleikmenn":3032,"Ġhrein":3033,"rÃŃÃ°ur":3034,"ĠgÃ¦rkvÃ¶ld":3035,"afar":3036,"ĠhÃ³t":3037,"ĠKÃ³p":3038,"ĠhÃ¦r":3039,"aug":3040,"afni":3041,"ĠlÃ¡tiÃ°":3042,"smynd":3043,"skost":3044,"Ġeldri":3045,"Ġ2001":3046,"ĠleiÃ°ir":3047,"ton":3048,"Ġbendir":3049,"sag":3050,"ĠÃ¾urfti":3051,"iti":3052,"Ġalmennt":3053,"ĠfjÃ¶lskyldu":3054,"ĠUnited":3055,"Ã¾Ã³r":3056,"Ġkosti":3057,"Ġtilkynningu":3058,"Ġneitt":3059,"ĠHer":3060,"ĠmÃ¦l":3061,"Ġhygg":3062,"Ġengu":3063,"ninni":3064,"ĠfjÃ¡rhag":3065,"anleg":3066,"Ġgengur":3067,"bar":3068,"kaup":3069,"ĠmÃŃnum":3070,"Ġstarfsmenn":3071,"ĠÃ¦f":3072,"ĠEng":3073,"ĠlandiÃ°":3074,"Ġreynd":3075,"Ġun":3076,"co":3077,"Ġtilefni":3078,"ĠrÃºmlega":3079,"Ġgrun":3080,"Ġkomst":3081,"hjÃ¡l":3082,"ĠbÃ¡Ã°":3083,"Ġskipta":3084,"Ã¾eg":3085,"deg":3086,"rak":3087,"Ã¾Ã¡":3088,"till":3089,"LÃ¶greg":3090,"eistara":3091,"Ġliggja":3092,"Ġmiklum":3093,"ro":3094,"ĠstjÃ³rnarskrÃ¡":3095,"laust":3096,"ĠsÃ¡tt":3097,"Ã¦gt":3098,"Ġyr":3099,"ĠreiÃ°":3100,"tingu":3101,"ĠsviÃ°i":3102,"Marg":3103,"ĠÃŃt":3104,"ĠhÃ©rna":3105,"ĠÃ¡herslu":3106,"ĠAlÃ¾":3107,"ĠsjÃ¡lfsÃ¶gÃ°u":3108,"Ġrif":3109,"ĠskoÃ°un":3110,"Ã°urinn":3111,"leitt":3112,"ĠljÃ³si":3113,"ĠbjÃ³Ã°a":3114,"ĠÃ¾yrf":3115,"ĠkrÃ¶fur":3116,"ĠArnar":3117,"ĠmÃ¡la":3118,"Ġ60":3119,"ĠÃ¦tt":3120,"Ġsendi":3121,"ĠsÃ¦kja":3122,"ĠAf":3123,"Ġdaginn":3124,"nist":3125,"ĠBretl":3126,"Ġfremur":3127,"ĠÃ¾ingmaÃ°ur":3128,"ĠlÃŃklega":3129,"mur":3130,"ĠferÃ°a":3131,"ĠEg":3132,"Ġol":3133,"ĠlokiÃ°":3134,"amark":3135,"ry":3136,"Ġgangi":3137,"bÃ³k":3138,"ĠKÃ³pav":3139,"brÃ¶gÃ°":3140,"manni":3141,"Ġathugasem":3142,"gÃ¦":3143,"nn":3144,"orku":3145,"ssam":3146,"ĠdÃ³tt":3147,"Ã¡fu":3148,"breytt":3149,"ĠnauÃ°synlegt":3150,"Ġvek":3151,"HvaÃ°":3152,"Hins":3153,"vit":3154,"ĠtÃŃ":3155,"Ġberi":3156,"ĠStein":3157,"Ãºsson":3158,"Ġloka":3159,"Ġvettvang":3160,"strar":3161,"Ġeinum":3162,"Ġnefna":3163,"ĠÃ¾angaÃ°":3164,"ĠpersÃ³nu":3165,"ĠBjÃ¶rg":3166,"grein":3167,"ĠdÃ³mi":3168,"12":3169,"exti":3170,"Ġ2006":3171,"ĠhljÃ³m":3172,"ĠlandbÃºn":3173,"ĠfÃŃk":3174,"ĠskaÃ°":3175,"ĠFrakk":3176,"ĠnÃ¡nast":3177,"Ã½Ã°":3178,"ĠÃ¾akka":3179,"fum":3180,"Ġhvar":3181,"Ġjafnt":3182,"legi":3183,"Ġeigum":3184,"stÃ¶Ã°var":3185,"ref":3186,"aÃ°an":3187,"ond":3188,"ĠlÃŃta":3189,"Ġstutt":3190,"slunni":3191,"ĠReykjan":3192,"bolta":3193,"ĠEf":3194,"ity":3195,"ĠnÃ¡Ã°i":3196,"frÃ¦Ã°ingur":3197,"Ġlauk":3198,"ĠrÃŃkisstj":3199,"skÃ½r":3200,"ĠrÃ¦k":3201,"Ġhugsa":3202,"Ġbanka":3203,"ĠÃ¶ld":3204,"gir":3205,"Ġeinkum":3206,"ÃŀÃº":3207,"ĠfÃ¶r":3208,"ĠdagskrÃ¡":3209,"ĠtÃ³nlist":3210,"raum":3211,"15":3212,"ĠvinsÃ¦":3213,"ah":3214,"Ġhefst":3215,"El":3216,"Ġgreina":3217,"jÃ³Ã°i":3218,"sett":3219,"ĠljÃº":3220,"Leik":3221,"Ġ2012":3222,"Ġselja":3223,"ĠgÃ¦tu":3224,"ĠfjÃ¶lda":3225,"ĠbÃºinn":3226,"virk":3227,"ĠmÃŃnu":3228,"ykt":3229,"ildur":3230,"laus":3231,"ĠKR":3232,"ĠSte":3233,"ĠÃ³Ã¾":3234,"ĠtÃ³nlistar":3235,"laug":3236,"Ġtaki":3237,"pool":3238,"ĠgÃ³Ã°u":3239,"Ġminnsta":3240,"Ġtiltek":3241,"ĠVÃŃk":3242,"ĠÃ¡ttu":3243,"ĠÃŃslenskum":3244,"ĠsÃŃÃ°ari":3245,"smÃ¶nnum":3246,"Upp":3247,"bjÃ¶rn":3248,"ĠÃ¡hug":3249,"ĠÃºrvals":3250,"ĠHÃ¦star":3251,"Ġhrey":3252,"ĠdÃ¶gum":3253,"Ġsvok":3254,"Ã½skal":3255,"Ġhelgina":3256,"arlega":3257,"steinn":3258,"Ġuppbygg":3259,"Ġsameigin":3260,"ĠÃ¾urfum":3261,"ĠvÃŃsaÃ°":3262,"ĠÃ¾ingmenn":3263,"Ġra":3264,"ĠauglÃ½s":3265,"ĠÃ¾rjÃ¡":3266,"ĠliÃ°inu":3267,"heiÃ°":3268,"Ġdegi":3269,"Ã¡k":3270,"ĠÃ¾ung":3271,"Ġmargar":3272,"ĠDavÃŃÃ°":3273,"Ã¶rnum":3274,"dur":3275,"Ġfengu":3276,"Ġverulega":3277,"Ã¶llu":3278,"Ġreynslu":3279,"ĠhÃ¶ndum":3280,"Rey":3281,"Ġtr":3282,"ĠÃ¡rÃ¡s":3283,"Ġbil":3284,"Ġreynt":3285,"ĠtalaÃ°":3286,"eiti":3287,"irÃ°u":3288,"Ġkynn":3289,"brÃ©":3290,"Ġgeri":3291,"ĠÃ¡stÃ¦Ã°a":3292,"Ġkomist":3293,"Ġnein":3294,"Ġkalla":3295,"ĠÃ½msum":3296,"slegt":3297,"ĠfyrirtÃ¦kja":3298,"ĠumfjÃ¶l":3299,"ĠhjÃ³":3300,"tust":3301,"erfinu":3302,"ĠafleiÃ°":3303,"ĠbÃºn":3304,"agreiÃ°":3305,"yrirtÃ¦ki":3306,"ĠrÃ¡Ã°a":3307,"ĠlÃ©st":3308,"amÃ¶nnum":3309,"Ġbyggingar":3310,"ĠES":3311,"ĠvandamÃ¡l":3312,"inguna":3313,"Ã¶gg":3314,"Stefnd":3315,"ĠMarg":3316,"Ġ2013":3317,"man":3318,"deildar":3319,"ĠManchester":3320,"ĠHam":3321,"verpool":3322,"ĠyrÃ°u":3323,"ĠÃ¾eirrar":3324,"Ġbaka":3325,"ĠlÃ¡g":3326,"Ġmanni":3327,"eysi":3328,"ĠrÃŃki":3329,"ĠfÃ¦dd":3330,"ÃŀÃ¦r":3331,"ĠstyÃ°":3332,"ĠmÃ¶nnum":3333,"Br":3334,"ĠBerg":3335,"ĠbÃºin":3336,"bÃ³l":3337,"Auk":3338,"jir":3339,"Ġyng":3340,"Ã¡ld":3341,"Ġreglur":3342,"ĠgrÃ³":3343,"Ġvest":3344,"ingast":3345,"Ġgrundvelli":3346,"ĠVil":3347,"Ġbyrjun":3348,"Ġeinka":3349,"ÃģkÃ¦r":3350,"Ġsamkeppni":3351,"Ã¶st":3352,"JÃ³n":3353,"ĠaÃ°stoÃ°":3354,"Ġrak":3355,"ĠÃ¡stand":3356,"ĠembÃ¦tt":3357,"skuld":3358,"Ġtrey":3359,"Ãŀr":3360,"ĠmÃ¦ta":3361,"Ġmar":3362,"sÃ¦":3363,"Ġkenn":3364,"ĠmÃ¡tt":3365,"ĠGuÃ°jÃ³n":3366,"Ġafla":3367,"ĠboÃ°iÃ°":3368,"ĠfrjÃ¡l":3369,"janna":3370,"rid":3371,"ĠfÃ¦ra":3372,"pÃŃtal":3373,"lik":3374,"ĠsammÃ¡la":3375,"ĠÂ":3376,"ĠrÃŃkiÃ°":3377,"sgeir":3378,"ĠviÃ°urken":3379,"vist":3380,"ĠBreiÃ°":3381,"Ġeinst":3382,"Ġ...":3383,"foss":3384,"ĠfyrirtÃ¦kiÃ°":3385,"ĠfÃŃkni":3386,"Ġfrekari":3387,"ĠÃŀjÃ³Ã°":3388,"Ġtilvik":3389,"ĠfyrirtÃ¦kisins":3390,"ustu":3391,"auÃ°a":3392,"Ġeinhvern":3393,"Ġkynna":3394,"tinn":3395,"Ã¶nnu":3396,"ĠsagÃ°ist":3397,"ĠfjÃ³rum":3398,"ĠmÃ¶guleika":3399,"eint":3400,"gan":3401,"ĠhÃ¶fuÃ°borgarsvÃ¦Ã°inu":3402,"ĠKarl":3403,"dÃ¦m":3404,"Ġsend":3405,"ĠlÃ©t":3406,"ĠstÃ¶Ã°":3407,"ĠkostnaÃ°":3408,"JÃ³":3409,"Ġmestu":3410,"rÃ¶f":3411,"Ġseinni":3412,"ĠnÃ¡gr":3413,"ĠheiÃ°":3414,"Ã¶gu":3415,"ĠnÃºverandi":3416,"Ġstofnun":3417,"ez":3418,"edikt":3419,"sviÃ°":3420,"hv":3421,"bert":3422,"ĠnÃ½ta":3423,"Ġvilji":3424,"ĠÃŀÃ½skal":3425,"Ġmitt":3426,"jun":3427,"ldu":3428,"Ġtengd":3429,"jÃ¶f":3430,"Ġlokum":3431,"Ã³li":3432,"afor":3433,"Ġmynda":3434,"ĠrÃ¦Ã°u":3435,"vegar":3436,"Ġleiki":3437,"Ġvetur":3438,"Ġmismun":3439,"Ġbo":3440,"ĠÃ¦tlaÃ°":3441,"Ġpr":3442,"ras":3443,"ndir":3444,"ÃŀÃ³":3445,"ĠlitiÃ°":3446,"ĠÃ¦tlar":3447,"ĠmÃ¡naÃ°":3448,"esk":3449,"ĠBandarÃŃkjanna":3450,"eira":3451,"ĠHall":3452,"Ġleika":3453,"ĠgÃ³Ã°ur":3454,"ĠSm":3455,"ĠÃ³trÃº":3456,"Ġtekjur":3457,"Sigur":3458,"undum":3459,"ĠstÃ¶Ã°v":3460,"ykki":3461,"ĠbÃŃla":3462,"ĠmiÃ°ur":3463,"virkj":3464,"hÃºsinu":3465,"ĠfjallaÃ°":3466,"ĠFl":3467,"ĠÃĸrn":3468,"Ã°ingu":3469,"Krist":3470,"liÃ°a":3471,"Ġsafn":3472,"oli":3473,"legan":3474,"Ġerlendis":3475,"Ġskyldi":3476,"Ġstarfsmanna":3477,"ĠGuÃ°mundur":3478,"ĠSigurÃ°ur":3479,"ĠLe":3480,"Ġ70":3481,"ĠÃ¾riÃ°ju":3482,"ĠleiÃ°a":3483,"ĠÃ¡rangur":3484,"lÃ¦k":3485,"Ġ2005":3486,"Ãļt":3487,"ĠlÃŃtil":3488,"Ġdug":3489,"ĠrÃ³":3490,"Ġsamein":3491,"ĠtjÃ¡":3492,"lÃ¶nd":3493,"ĠhÃ¦g":3494,"Ġbenda":3495,"aÃ°il":3496,"Ġtals":3497,"ĠsveitarfÃ©lÃ¶g":3498,"Ġorku":3499,"smann":3500,"tun":3501,"orm":3502,"stÃ³l":3503,"Ã¦kkun":3504,"Ġ1991":3505,"ĠeÃ°lilegt":3506,"ĠmÃŃnÃºtur":3507,"old":3508,"uni":3509,"ĠÃ¾jÃ³Ã°arinnar":3510,"ĠRÃº":3511,"efniÃ°":3512,"SÃŃÃ°an":3513,"ĠHelga":3514,"Ġfalla":3515,"Ġsko":3516,"Ġev":3517,"Ġumr":3518,"ĠFramsÃ³knar":3519,"eyris":3520,"Ġspenn":3521,"Ã¶gnum":3522,"sal":3523,"ĠtÃ³nleik":3524,"ningunni":3525,"Ġsner":3526,"FrÃ¡":3527,"ĠaÃ°stoÃ°ar":3528,"ĠnÃŃu":3529,"ĠhljÃ³Ã°":3530,"bÃºÃ°":3531,"Ġful":3532,"ĠorÃ°in":3533,"Ġ2000":3534,"ddu":3535,"Ġraunver":3536,"Hel":3537,"Ġsinnum":3538,"Ġskemmtileg":3539,"ings":3540,"eldur":3541,"ÃĨ":3542,"Ġ90":3543,"skir":3544,"ĠalgjÃ¶r":3545,"upp":3546,"Ġskiptir":3547,"Ġskulda":3548,"Ġ38":3549,"Ġ2002":3550,"Allt":3551,"ĠlÃŃkt":3552,"ĠaÃ°ilar":3553,"svar":3554,"Ġhvorki":3555,"ĠendurskoÃ°":3556,"hÃ¦f":3557,"braut":3558,"flutning":3559,"Ġ2014":3560,"HÃ¦":3561,"Ġgefur":3562,"sea":3563,"ĠsvÃ¶r":3564,"bÃ¦jar":3565,"enni":3566,"ĠEn":3567,"Ġlaganna":3568,"ĠhefÃ°":3569,"Ġensku":3570,"ĠumferÃ°ar":3571,"heyr":3572,"ĠnjÃ³ta":3573,"Ġatvik":3574,"ĠÃ¶ryggis":3575,"Ġeinfaldlega":3576,"Ġnefn":3577,"ĠafstÃ¶Ã°u":3578,"lÃŃtiÃ°":3579,"ĠnÃ¡kvÃ¦m":3580,"erfis":3581,"ĠfÃ©laginu":3582,"uÃ°v":3583,"Ġspar":3584,"ĠheilbrigÃ°is":3585,"ĠÃ³v":3586,"ĠsvÃ¦Ã°inu":3587,"ace":3588,"Stefnandi":3589,"Ġhelst":3590,"ĠGunnarsson":3591,"ĠHÃ¡skÃ³la":3592,"ĠmilljÃ³num":3593,"ĠbeÃ°":3594,"ĠGunn":3595,"Ġskyn":3596,"ĠÃ¾ÃŃn":3597,"ager":3598,"Ġdreng":3599,"ĠsÃŃÃ°":3600,"ĠtilbÃº":3601,"Ġ35":3602,"ÃŃÃ°a":3603,"Ġhlaup":3604,"ĠfjÃ¡rmagn":3605,"ĠmÃ³Ã°ur":3606,"ĠkvaÃ°st":3607,"Ã¶lum":3608,"ĠskilyrÃ°i":3609,"Ġmyndir":3610,"Ġ36":3611,"Ġframan":3612,"Ġhorfa":3613,"Ġtill":3614,"ĠSÃ³l":3615,"Ã©Ã°":3616,"ista":3617,"ĠmÃŃnÃºtu":3618,"Ġto":3619,"afirÃ°i":3620,"lÃ½st":3621,"flug":3622,"Ġ2004":3623,"orf":3624,"ĠÃŃÃ¾rÃ³tt":3625,"ĠrÃ¡Ã°her":3626,"ĠtÃŃmabili":3627,"skipta":3628,"ĠGeir":3629,"Ġ2003":3630,"ĠKat":3631,"ĠboriÃ°":3632,"Ġvenju":3633,"mrh":3634,"tion":3635,"nara":3636,"Ġleigu":3637,"FjÃ¶l":3638,"ĠfjÃ¶lg":3639,"bÃ½li":3640,"Ġgerist":3641,"ly":3642,"dda":3643,"ĠmÃ¦li":3644,"unarinnar":3645,"era":3646,"bi":3647,"Ġundanfarin":3648,"arm":3649,"Ġgamla":3650,"Ġleggur":3651,"lir":3652,"eÃ°ur":3653,"Ġhelm":3654,"Ġefnum":3655,"Ã¡Ã¦tlun":3656,"ĠhÃ¦f":3657,"bÃ¦tur":3658,"ĠESB":3659,"linga":3660,"ĠrÃ¶Ã°":3661,"Ġ80":3662,"Ġofb":3663,"ĠliÃ°i":3664,"ĠaÃ°ger":3665,"Ġham":3666,"Ã¾jÃ³Ã°a":3667,"Ġtengslum":3668,"Ġ2015":3669,"Ġbrota":3670,"raf":3671,"Ġrekstur":3672,"atta":3673,"ĠnÃ¡ttÃºr":3674,"VirÃ°u":3675,"Ġdeildinni":3676,"ĠframleiÃ°slu":3677,"arsam":3678,"Ġmenningar":3679,"Ã¡ri":3680,"rÃ©t":3681,"ĠLiverpool":3682,"ĠsjÃ³narmiÃ°":3683,"Ġmundi":3684,"ĠgetaÃ°":3685,"utt":3686,"SÃº":3687,"Ġmiklar":3688,"Ġlaugardag":3689,"Ġfullyr":3690,"Ġkanna":3691,"Ġgengi":3692,"mik":3693,"ĠmilljÃ¶rÃ°um":3694,"Ġsyst":3695,"ĠÃ¡lit":3696,"ĠnorÃ°ur":3697,"nÃ¡m":3698,"ĠgerÃ°u":3699,"ĠjÃ³l":3700,"ĠhÃ©raÃ°sdÃ³m":3701,"jÃºp":3702,"Ã¶ngum":3703,"NÃ½":3704,"Ġbe":3705,"ĠbÃ¦tt":3706,"ĠorÃ°um":3707,"vÃ¶ru":3708,"ĠÃ¾yrfti":3709,"Ġfimmtu":3710,"ĠstarfsfÃ³lk":3711,"Ġleikjum":3712,"Ġmikinn":3713,"ĠaÃ°gang":3714,"orn":3715,"rÃ¡s":3716,"Ġrekstri":3717,"ĠtÃŃmi":3718,"ĠgrÃ¦n":3719,"kl":3720,"Ã¶llum":3721,"ĠPÃ¡ll":3722,"Ġnotkun":3723,"efur":3724,"ĠframtÃŃÃ°ar":3725,"ĠtÃ³kst":3726,"ĠHoll":3727,"ĠÃ¦ttu":3728,"ĠlÃŃfiÃ°":3729,"jall":3730,"Ġfylgjast":3731,"ĠbÃ¶rnum":3732,"mÃ¡lum":3733,"Ġbann":3734,"ĠHÃ©r":3735,"ĠbrÃ¡":3736,"eti":3737,"ĠveÃ°ur":3738,"ĠbÃ¶rnin":3739,"ĠAt":3740,"Ġ32":3741,"greind":3742,"Ġkynnt":3743,"Ġaldur":3744,"Ġkosning":3745,"ĠjÃ³la":3746,"Ġstyrkja":3747,"Ġeing":3748,"ĠhÃ¦kkun":3749,"ĠBenedikt":3750,"met":3751,"junum":3752,"ĠvitaÃ°":3753,"Ġskref":3754,"legra":3755,"ĠFinn":3756,"DÃ³m":3757,"Ġbur":3758,"Ġrang":3759,"ĠÃ¾Ã³tti":3760,"ĠSvein":3761,"ingrÃŃm":3762,"Ġeinhverjum":3763,"ĠolÃŃu":3764,"haldi":3765,"Ã½ri":3766,"Ġheg":3767,"ĠtÃ¶lvu":3768,"Ġhve":3769,"ĠhÃ¦kka":3770,"Ġskv":3771,"hÃ¶fn":3772,"ĠsveitarfÃ©laga":3773,"Ġsenda":3774,"eypt":3775,"ĠÃ³vart":3776,"fang":3777,"UR":3778,"ĠmÃ³tmÃ¦l":3779,"Ġ_":3780,"stir":3781,"Ġsty":3782,"sÃ¾":3783,"ĠsÃ¡l":3784,"ĠÃŃbÃºÃ°":3785,"Ġhelstu":3786,"Mynd":3787,"ĠverÃ°um":3788,"tÃ¶kum":3789,"ĠstrÃŃÃ°":3790,"afÃ³lk":3791,"Ġneit":3792,"ĠheilbrigÃ°i":3793,"heimild":3794,"Ġhandtek":3795,"Ġlaus":3796,"ĠkÃŃl":3797,"Ġtilgang":3798,"ĠSh":3799,"uneytiÃ°":3800,"Ġeigu":3801,"Ġtaldi":3802,"ildu":3803,"ĠvÃŃÃ°":3804,"grÃŃm":3805,"dÃ¦mi":3806,"ĠÃ¾iÃ°":3807,"ĠmeiÃ°":3808,"heimil":3809,"ĠIcel":3810,"ĠLandsbank":3811,"ĠÃĵlafsson":3812,"ĠlÃ¶greglum":3813,"Ġak":3814,"ĠfrÃŃ":3815,"ĠmilljarÃ°ar":3816,"stÃ¶Ã°ur":3817,"Ġkona":3818,"Ġrekstrar":3819,"ĠslÃ¦m":3820,"Ġfangelsi":3821,"Ġkall":3822,"Ġstefndu":3823,"slag":3824,"Ġlesa":3825,"mÃ¦ti":3826,"ekt":3827,"ĠneÃ°an":3828,"ĠnÃ½jum":3829,"Ġvet":3830,"ĠmÃŃna":3831,"Ġtakmark":3832,"bands":3833,"tÃŃma":3834,"Ġskila":3835,"ĠhÃ³fst":3836,"byggÃ°":3837,"Ġviljum":3838,"ĠmaÃ°urinn":3839,"Ġbestu":3840,"agerÃ°":3841,"samning":3842,"Ġyfirleitt":3843,"Ã¶gunum":3844,"Ġsunnudag":3845,"eys":3846,"Ġ2016":3847,"eyjum":3848,"ĠsÃŃm":3849,"ĠhÃº":3850,"Ãºssins":3851,"lind":3852,"Ġrefs":3853,"skra":3854,"Ġhre":3855,"ĠgarÃ°":3856,"ĠlÃ½Ã°":3857,"Ġsitja":3858,"Ġbreg":3859,"ĠgÃ¶gn":3860,"ĠÃ¾jÃ³Ã°fÃ©lag":3861,"Ġheyra":3862,"Ġkeyp":3863,"Ġsveitar":3864,"Ġtopp":3865,"senal":3866,"Ġlista":3867,"Ġin":3868,"ĠLandspÃŃtal":3869,"ĠsÃŃns":3870,"indavÃŃk":3871,"Jafn":3872,"ĠÃ¡stÃ¦Ã°u":3873,"ĠrÃ©ttar":3874,"ĠÃ¾urft":3875,"degi":3876,"ĠÃ¡kvaÃ°":3877,"ĠmÃ¡nuÃ°um":3878,"ĠstaÃ°rey":3879,"Ã°ingar":3880,"ĠvÃ¶ru":3881,"ĠlÃ©tt":3882,"ĠSelfoss":3883,"ĠeingÃ¶ngu":3884,"ĠMad":3885,"Ġheildar":3886,"ĠumboÃ°":3887,"ĠbyggÃ°":3888,"uneytisins":3889,"lif":3890,"ĠChel":3891,"ndu":3892,"kran":3893,"Ġhest":3894,"ĠlÃŃfeyriss":3895,"ran":3896,"jÃ¶rgunar":3897,"Ãįsl":3898,"reglu":3899,"ĠÃģsgeir":3900,"Ġhjarta":3901,"Tv":3902,"ĠDanmÃ¶r":3903,"Ġsal":3904,"pu":3905,"jÃ³Ã°ur":3906,"ĠnÃ³g":3907,"ĠtÃ¦plega":3908,"Heim":3909,"dÃ½r":3910,"ĠÃģg":3911,"Ãģr":3912,"ĠgÃ¦rkvÃ¶ldi":3913,"ĠÃ¡hyggjur":3914,"eyma":3915,"skiptum":3916,"stÃ¶Ã°v":3917,"tÃ¡n":3918,"Ġsvara":3919,"alaust":3920,"ĠChelsea":3921,"urÃ°":3922,"ĠX":3923,"ĠHver":3924,"ĠKjar":3925,"ĠnÃ¡nar":3926,"ĠbrÃ©":3927,"Ġflestir":3928,"net":3929,"Ġeinstaklinga":3930,"ĠCity":3931,"ĠFH":3932,"bor":3933,"ĠstrÃ¡":3934,"vara":3935,"ĠsÃ©rfrÃ¦Ã°":3936,"ĠsÃ½nir":3937,"Ġbyrja":3938,"Ġ]":3939,"emma":3940,"Ġ33":3941,"ĠÃ¶m":3942,"ris":3943,"Ġmunum":3944,"ÃŃg":3945,"akka":3946,"Ġbankans":3947,"ĠReykjanes":3948,"Ġtonn":3949,"ie":3950,"ĠMÃ¡r":3951,"ĠsÃ½k":3952,"merk":3953,"Ġsy":3954,"Ġsla":3955,"ĠIngi":3956,"magn":3957,"ph":3958,"ĠhjÃºk":3959,"IN":3960,"Ġmarka":3961,"ĠstaÃ°inn":3962,"Ġvinnum":3963,"ĠsÃ¶k":3964,"gef":3965,"Ã¡f":3966,"tanum":3967,"Ġspyrja":3968,"Ġeinhverju":3969,"ĠlÃ¦r":3970,"ts":3971,"ĠsnjÃ³":3972,"Ġskatta":3973,"ĠSch":3974,"Ġtilfinn":3975,"ĠgÃ³Ã°an":3976,"Ġsent":3977,"ĠbeiÃ°":3978,"Ġhlutfall":3979,"Ġlyk":3980,"ĠSeÃ°labank":3981,"reyf":3982,"Ġmist":3983,"lunar":3984,"Ġsamtals":3985,"aum":3986,"stÃ¦Ã°um":3987,"Ã¾ingi":3988,"ĠsÃ¡r":3989,"ĠVin":3990,"ĠbÃŃÃ°a":3991,"anlegt":3992,"Ġlangar":3993,"Ġmeta":3994,"ĠgeÃ°":3995,"ĠundanfÃ¶rnum":3996,"tra":3997,"slunnar":3998,"ÃŃÃ°u":3999,"ĠfjÃ¡rlag":4000,"ĠÃ¡ramÃ³t":4001,"bir":4002,"tÃ¶kin":4003,"argerÃ°":4004,"ĠÃ¾Ã½Ã°ir":4005,"Ġfjalla":4006,"Ġvikur":4007,"Ã³Ã°ur":4008,"Ġsenn":4009,"Ġslys":4010,"Ġbol":4011,"ils":4012,"onur":4013,"ĠTrygg":4014,"ĠgÃ³Ã°um":4015,"Ġgerast":4016,"ĠÃºtvarp":4017,"ĠrÃŃkisstjÃ³rnarinnar":4018,"ĠnotaÃ°":4019,"Ġframl":4020,"Ġvarst":4021,"Ġman":4022,"Ġvo":4023,"Ã°ung":4024,"ĠheimsÃ³kn":4025,"skor":4026,"bind":4027,"Ġbrott":4028,"ini":4029,"kka":4030,"Ġheilsu":4031,"to":4032,"Ġ193":4033,"staÃ°an":4034,"andinn":4035,"vÃ¶ll":4036,"ĠAkran":4037,"ĠtÃ¦kni":4038,"Ġvissulega":4039,"Ġspreng":4040,"irÃŃk":4041,"ĠtillÃ¶gur":4042,"Ġstandi":4043,"ĠFramsÃ³knarflokk":4044,"Ġtilraun":4045,"ĠRÃŃkis":4046,"StjÃ³rn":4047,"Ġgreitt":4048,"ĠmÃ¡naÃ°a":4049,"ruÃ°":4050,"Ġdreif":4051,"ES":4052,"ĠverÃ°bÃ³l":4053,"14":4054,"ĠbÃ³":4055,"bÃŃl":4056,"Ġtraust":4057,"viku":4058,"bÃ¦tti":4059,"Ġfylgi":4060,"ĠsuÃ°ur":4061,"Ġgrundvallar":4062,"18":4063,"Ġtekist":4064,"Ã¦s":4065,"olf":4066,"ĠviÃ°urk":4067,"Ġbaki":4068,"Ġteg":4069,"nusta":4070,"ĠtillÃ¶gu":4071,"ĠstjÃ³rnvalda":4072,"Ġnokkra":4073,"ĠaÃ°gerÃ°ir":4074,"Ġleitt":4075,"Ġflutti":4076,"ĠÃ³lÃ¶g":4077,"ĠvÃ¦ntanlega":4078,"du":4079,"burÃ°i":4080,"arÃ°an":4081,"tÃŃu":4082,"verndar":4083,"ĠsjÃ¡lfstÃ¦Ã°i":4084,"Ġflokksins":4085,"Ġ45":4086,"ĠÃģrni":4087,"ĠstÃ³ra":4088,"Ġbetra":4089,"kjÃ¶r":4090,"ĠgrÃŃ":4091,"mat":4092,"ĠmÃ¡lskost":4093,"Ġhelgi":4094,"Ã¡ttur":4095,"skvÃ¶ld":4096,"ĠeÃ°li":4097,"janda":4098,"Ġbreytingum":4099,"ĠatkvÃ¦Ã°i":4100,"Ġminningar":4101,"Enn":4102,"Ġheimilt":4103,"ĠtjÃ³n":4104,"II":4105,"ÃŃnum":4106,"ĠNoregi":4107,"hÃ¡tÃŃÃ°":4108,"ĠgÃ³Ã°ar":4109,"not":4110,"eÃ°ferÃ°":4111,"ttast":4112,"13":4113,"lda":4114,"anska":4115,"ÃģkÃ¦rÃ°i":4116,"borgar":4117,"Ġkafla":4118,"borÃ°":4119,"angreind":4120,"fÃ¦ri":4121,"At":4122,"MeÃ°al":4123,"ĠSuÃ°urnes":4124,"ÃģriÃ°":4125,"Ġveginn":4126,"ec":4127,"ĠÃ¶kum":4128,"ĠÃ¡rangri":4129,"ĠHauk":4130,"Stefndi":4131,"ĠYork":4132,"Ġkonu":4133,"lin":4134,"ĠdÃ³ttur":4135,"vernd":4136,"Ġfell":4137,"stig":4138,"SÃį":4139,"ĠsÃ³knaraÃ°ila":4140,"ĠbÃºs":4141,"ĠBjarni":4142,"Ġbent":4143,"vegi":4144,"ĠauÃ°veld":4145,"ĠMagnÃºsson":4146,"Ġvop":4147,"eldis":4148,"gÃ¶ngu":4149,"ĠatvinnulÃŃf":4150,"Ã¾jÃ³nust":4151,"ĠSjÃ¡lfstÃ¦Ã°isflokksins":4152,"ĠfÃ¶studag":4153,"ĠÃ¾essarar":4154,"Ãºtvarp":4155,"Ġborginni":4156,"ĠJÃ³na":4157,"ĠkjÃ¶lfariÃ°":4158,"ĠÃŃtrek":4159,"Ġengan":4160,"nina":4161,"Ġ34":4162,"ĠslÃŃkum":4163,"Ã¾r":4164,"ĠÃ¡frÃ½":4165,"Ã¶rÃ°ur":4166,"ĠArn":4167,"Ġlauna":4168,"ĠGrindavÃŃk":4169,"ĠÃ¡Ã°an":4170,"ood":4171,"ĠSnÃ¦":4172,"kvÃ¦Ã°agreiÃ°":4173,"...":4174,"ĠviÃ°bÃ³tar":4175,"ÃŀrÃ¡tt":4176,"ĠumrÃ¦Ã°":4177,"Ar":4178,"ĠÃ¶mmu":4179,"ĠGu":4180,"ĠnÃ½jan":4181,"ĠfÃ©ll":4182,"ĠFjÃ¶l":4183,"amÃ¡la":4184,"Ġskapa":4185,"Ġkeppni":4186,"aki":4187,"ĠÃ¡Ã¦tlun":4188,"Ġneyt":4189,"ĠtilboÃ°":4190,"ĠÃ¡kÃ¦ru":4191,"ÃŀÃ³r":4192,"hildur":4193,"geir":4194,"kar":4195,"Ġnokkrar":4196,"kÃ¶st":4197,"ĠDanmÃ¶rku":4198,"ikar":4199,"ĠÃ¡lag":4200,"Ġmetra":4201,"brÃ©fa":4202,"ĠÃ¾essir":4203,"junni":4204,"hÃºsiÃ°":4205,"ĠstjÃ³rnarand":4206,"ĠsjÃºkdÃ³m":4207,"Ġheiminum":4208,"pÃ³":4209,"ĠÃ¡k":4210,"Ġaldri":4211,"book":4212,"Ġbirt":4213,"rumvarp":4214,"Ġtilkynnt":4215,"Ġsegi":4216,"hÃºsi":4217,"ĠmilljÃ³n":4218,"Ġbyggt":4219,"Ġgerst":4220,"ĠlÃ¦kka":4221,"mÃ¶rk":4222,"ripiÃ°":4223,"Ġkrefst":4224,"ĠJÃ¡":4225,"ama":4226,"ĠskÃ½rt":4227,"Ġbeita":4228,"rÃŃki":4229,"Ġhaldi":4230,"ĠâĢĿ":4231,"Ġafl":4232,"Ġskilja":4233,"ĠkrÃ³num":4234,"ĠÃ¾jÃ¡lfari":4235,"ĠFriÃ°rik":4236,"undiÃ°":4237,"ĠleitaÃ°":4238,"Ġmyndu":4239,"ĠlandbÃºnaÃ°ar":4240,"ĠhÃ¶fÃ°":4241,"einuÃ°u":4242,"VirÃ°ulegi":4243,"Sp":4244,"Ġsamvinnu":4245,"Ġamma":4246,"ĠfÃ¦ddist":4247,"ĠÃ³f":4248,"Ġhinu":4249,"ĠforstjÃ³ri":4250,"Ġhanda":4251,"Ãĵlaf":4252,"Ġpab":4253,"Ġaustur":4254,"ĠslÃ¶kk":4255,"ĠbÃ¦tir":4256,"lÃ¦ti":4257,"Ġfi":4258,"Ġgif":4259,"ĠArsenal":4260,"kona":4261,"sÃ¶k":4262,"Ġykkur":4263,"ĠbÃ½r":4264,"eÃ°i":4265,"Menn":4266,"Ġnokkru":4267,"ĠtÃŃmann":4268,"ĠkÃ¦mi":4269,"lÃŃf":4270,"ĠhÃ³tel":4271,"raÃ°i":4272,"ĠfljÃ³t":4273,"Ġskrifa":4274,"Ġhugmyndir":4275,"Ġforeldra":4276,"vÃ¦Ã°":4277,"Ġumfram":4278,"Ġskipt":4279,"Ġmarga":4280,"ĠbrotaÃ¾":4281,"varÃ°":4282,"Ġnemendur":4283,"ĠmÃ¶gu":4284,"ĠrÃŃkisstjÃ³rnin":4285,"Ġgreinir":4286,"Ġkosningar":4287,"farandi":4288,"ĠSvÃŃÃ¾jÃ³Ã°":4289,"gjald":4290,"ĠÃ¶rugg":4291,"ylt":4292,"Ġhlaut":4293,"ĠskaÃ°ab":4294,"runar":4295,"Ġ1999":4296,"ĠhÃ¡r":4297,"ho":4298,"Ġ37":4299,"ĠhÃ¡skÃ³l":4300,"burÃ°ar":4301,"unk":4302,"ĠspÃ¡":4303,"ĠlÃ¶ndum":4304,"ĠhlÃ½tur":4305,"ĠskrÃ¡Ã°":4306,"yÃ°ju":4307,"versl":4308,"Ġ,,":4309,"Ġdre":4310,"ĠhÃ¦rri":4311,"Ġkynfer":4312,"snefnd":4313,"ĠframboÃ°":4314,"ĠhÃ³pi":4315,"rael":4316,"ĠHafnarfirÃ°i":4317,"fjarÃ°ar":4318,"ĠslÃ¡":4319,"sÃ½slu":4320,"acebook":4321,"ddir":4322,"maÃ°urinn":4323,"ĠÃ¾Ã¦tti":4324,"ĠyfirlÃ½singu":4325,"ĠvarnaraÃ°ila":4326,"ĠaugljÃ³":4327,"framleiÃ°":4328,"ĠdregiÃ°":4329,"Ġhreyf":4330,"ons":4331,"Ġ1998":4332,"ĠhÃ¦kkaÃ°":4333,"ĠniÃ°urstaÃ°a":4334,"ĠgrÃŃÃ°arlega":4335,"ter":4336,"Annar":4337,"ilegar":4338,"Ġkunnu":4339,"atriÃ°i":4340,"ĠaÃ°allega":4341,"Ġefnis":4342,"umst":4343,"Ġfjall":4344,"ĠÃ¡kveÃ°in":4345,"Ġmarkv":4346,"16":4347,"Ġskipa":4348,"ĠhefÃ°bund":4349,"ĠgrÃ¦":4350,"Ġhven":4351,"Ġyngri":4352,"ĠKeflavÃŃkur":4353,"Ġfullkom":4354,"ilegum":4355,"Ġmarki":4356,"ĠhÃºsiÃ°":4357,"JÃ³h":4358,"ĠHÃ¦starÃ©ttar":4359,"ĠBorgar":4360,"ĠjÃ¶rÃ°":4361,"ĠhvenÃ¦r":4362,"ĠÃ¾rjÃ¡r":4363,"ĠbrjÃ³":4364,"Ġhefja":4365,"issa":4366,"ĠÃ¾ingi":4367,"ĠfÃ¦kk":4368,"liÃ°i":4369,"Ãºd":4370,"ata":4371,"ĠGuÃ°rÃºn":4372,"Ã³ll":4373,"ĠmÃ¡lefni":4374,"ĠBryn":4375,"Ġkrafist":4376,"ĠljÃºka":4377,"lt":4378,"Ġvanda":4379,"lingar":4380,"Ġvona":4381,"ĠLaugar":4382,"ĠÃ³k":4383,"Ġtilfel":4384,"sluna":4385,"ĠJohn":4386,"degis":4387,"gjandi":4388,"ĠsiÃ°":4389,"ĠupphÃ¦Ã°":4390,"Ġtillit":4391,"ĠdÃ¡":4392,"ĠVestmanna":4393,"sleik":4394,"Ġauki":4395,"ĠhjÃ³n":4396,"Ġlegg":4397,"ĠfjÃ³rÃ°a":4398,"ĠhljÃ³msveit":4399,"Ġborga":4400,"skot":4401,"25":4402,"17":4403,"Ġengar":4404,"Ġgjarnan":4405,"Ġfullu":4406,"Ġhra":4407,"allt":4408,"ĠMiÃ°":4409,"Sv":4410,"tÃŃmab":4411,"ĠharÃ°":4412,"Ġnefndarinnar":4413,"agni":4414,"Veg":4415,"ĠÃ³l":4416,"Ã¶nnunar":4417,"Ġgamall":4418,"ĠhlutabrÃ©f":4419,"ĠPal":4420,"ĠTh":4421,"arsdÃ³ttir":4422,"Ġmismunandi":4423,"ĠfÃ³lkiÃ°":4424,"ĠdÃ¦mdur":4425,"ĠHelgi":4426,"ĠsÃŃÃ°astliÃ°inn":4427,"ĠafgreiÃ°slu":4428,"Ġsyng":4429,"Ġheit":4430,"ĠfrÃ¦Ã°":4431,"astjÃ³ra":4432,"Ġsamstarfi":4433,"Ġhepp":4434,"nuÃ°u":4435,"ĠnÃ¡lg":4436,"az":4437,"ĠstyÃ°ja":4438,"Ġflutning":4439,"ĠfiskveiÃ°":4440,"ĠhÃ¡tÃŃÃ°":4441,"Ġbeitt":4442,"Ġvei":4443,"ĠleikiÃ°":4444,"esta":4445,"ĠBretlandi":4446,"stefn":4447,"Ãºg":4448,"ĠviÃ°tali":4449,"eppnis":4450,"Ġleidd":4451,"amiÃ°":4452,"boÃ°i":4453,"Ġleysa":4454,"ĠbrÃ½":4455,"Ġ300":4456,"uneytinu":4457,"kast":4458,"ĠBjÃ¶r":4459,"sfÃ©lag":4460,"unna":4461,"ĠlÃ¶ngu":4462,"rabb":4463,"IR":4464,"ĠkrÃ³n":4465,"ĠframkvÃ¦mdir":4466,"ĠumfjÃ¶llun":4467,"ÃŃtiÃ°":4468,"ĠfÃ©laga":4469,"hafa":4470,"ev":4471,"stan":4472,"ĠNorÃ°":4473,"ĠBo":4474,"anefndar":4475,"dum":4476,"Ġleiksins":4477,"Ġaukist":4478,"marg":4479,"ĠfjÃ¶gurra":4480,"Ġlos":4481,"Ġseld":4482,"Ġforset":4483,"ĠnÃ¦rri":4484,"ĠskÃ³":4485,"Ġverkum":4486,"Ġbyggir":4487,"ĠHeim":4488,"Ġnokkurn":4489,"ĠorÃ°inn":4490,"Ġbreyting":4491,"eyja":4492,"ĠlÃ¶greglunnar":4493,"ĠverÃ°lag":4494,"verka":4495,"ĠsvolÃŃtiÃ°":4496,"ĠhÃ¶r":4497,"Seg":4498,"elli":4499,"ĠstÃ³rt":4500,"Ġtalin":4501,"oft":4502,"Mark":4503,"ĠmiÃ°viku":4504,"ĠvÃŃsind":4505,"vatn":4506,"Ġsetti":4507,"ĠÃ¾rÃŃr":4508,"rett":4509,"ĠhryÃ°ju":4510,"prÃ³":4511,"ĠvÃ¦n":4512,"Ġbraut":4513,"...]":4514,"Ġdeildarinnar":4515,"Ġdagsins":4516,"daga":4517,"ĠskÃ¶mmu":4518,"ĠrÃ¦Ã°":4519,"ĠfÃ¶Ã°ur":4520,"ĠgÃ¡":4521,"Eig":4522,"ĠstaÃ°a":4523,"bjÃ¶rg":4524,"ĠvirÃ°is":4525,"hol":4526,"ĠÃ¶ryggi":4527,"ĠafmÃ¦li":4528,"Ġvara":4529,"Ġkjarasam":4530,"dar":4531,"ong":4532,"ĠVilhjÃ¡l":4533,"ĠÃģgÃºst":4534,"Ġdans":4535,"ĠriÃ°":4536,"ĠstÃ¦rri":4537,"ingurinn":4538,"ĠhÃºsinu":4539,"bjar":4540,"Ã¶Ã°um":4541,"Ġverslun":4542,"Ġstefna":4543,"oti":4544,"Sum":4545,"ĠembÃ¦tti":4546,"pi":4547,"ĠÃ¡runum":4548,"ĠuppÃ¡":4549,"SÃ¡":4550,"atni":4551,"ĠbÃ¦num":4552,"ĠSameinuÃ°u":4553,"urum":4554,"efnir":4555,"ĠPar":4556,"rÃŃn":4557,"rest":4558,"Ġvettvangi":4559,"Ã³s":4560,"Ġlax":4561,"sÃ³kn":4562,"Ġdags":4563,"Ġ[...]":4564,"SÃŃ":4565,"alaga":4566,"ĠstÃ¶Ã°um":4567,"Ġbreytingu":4568,"Ġnefndar":4569,"Ġbirtist":4570,"Ġhrun":4571,"Ġenga":4572,"ĠVig":4573,"Ġhe":4574,"yss":4575,"ĠfÃ©lags":4576,"Yfir":4577,"TA":4578,"Ġvikunni":4579,"Ġsinnar":4580,"ĠaÃ°ferÃ°":4581,"ĠfulltrÃºa":4582,"ĠiÃ°naÃ°ar":4583,"ĠUm":4584,"ĠdÃ¶gunum":4585,"ĠHeiÃ°":4586,"Ġnam":4587,"Ġstigum":4588,"ĠKÃ³pavogi":4589,"ĠBu":4590,"Ġtung":4591,"legir":4592,"Ġtex":4593,"kkar":4594,"ĠfalliÃ°":4595,"ĠvaldiÃ°":4596,"ĠsamgÃ¶ng":4597,"Ġkeyr":4598,"Ġframlag":4599,"Ã¶tt":4600,"Ġheitir":4601,"Ġslepp":4602,"ĠlÃ¶greglan":4603,"lugg":4604,"ern":4605,"ĠgerÃ°ist":4606,"ĠÃ¡feng":4607,"ĠhÃ¦Ã°":4608,"ĠrannsÃ³knir":4609,"ĠboÃ°i":4610,"ĠrannsÃ³k":4611,"ĠlÃ½sti":4612,"nun":4613,"ĠÃ¡kvarÃ°an":4614,"ĠÃįrak":4615,"Ġalmennings":4616,"Ġopna":4617,"ĠsjÃ¡lfum":4618,"Ġundirrit":4619,"ĠfjÃ¶ldi":4620,"ĠkjÃ¶":4621,"sagt":4622,"Ġrei":4623,"gis":4624,"Ġheimas":4625,"ĠembÃ¦ttis":4626,"gerÃ°ir":4627,"Ġreglum":4628,"Ġvexti":4629,"alÃ¶g":4630,"Ġmikilli":4631,"ĠÃ³skaÃ°":4632,"bein":4633,"ĠFre":4634,"ĠFÃ©lag":4635,"ĠbrÃ³":4636,"ĠtÃ¦ki":4637,"nni":4638,"ĠSver":4639,"eri":4640,"ĠÃ¡grein":4641,"verÃ°i":4642,"bergi":4643,"ĠÃŀÃ³rÃ°ar":4644,"slÃ¶g":4645,"ĠbeÃ°iÃ°":4646,"ĠliÃ°in":4647,"rÃ¦kt":4648,"nefndar":4649,"ĠstaÃ°reynd":4650,"ĠvirÃ°isauka":4651,"ĠfÃ¦Ã°":4652,"Ã³Ã°u":4653,"40":4654,"Ãĵlafur":4655,"Ġhorf":4656,"ĠnÃ¡kvÃ¦mlega":4657,"ĠVinstri":4658,"ĠÃŃbÃºa":4659,"ĠfjÃ¶lmiÃ°la":4660,"Ġdagana":4661,"ĠGrÃŃm":4662,"Elsku":4663,"ĠjÃ¡kv":4664,"Ãºla":4665,"ĠForseti":4666,"ĠfjarlÃ¦g":4667,"ĠÃ¾Ã©tt":4668,"ĠmjÃ³l":4669,"ĠÃ¾inginu":4670,"ĠbjÃ¶rgunar":4671,"ĠkrÃ¶fum":4672,"Ġsannarlega":4673,"ĠrÃ½":4674,"Ġvinnumark":4675,"Ġsigri":4676,"Ġefla":4677,"shÃ³p":4678,"Ġlengri":4679,"Ãįslen":4680,"ĠmÃ¦tt":4681,"afyrirtÃ¦k":4682,"fyrirtÃ¦k":4683,"viliÃ°":4684,"Ġkirkj":4685,"ave":4686,"Ġfjallar":4687,"ĠstÃ¦rÃ°":4688,"LÃ¶greglan":4689,"ĠJÃ³nsdÃ³ttir":4690,"Ã¶xtum":4691,"ĠKristjÃ¡nsson":4692,"ĠÃ¡vallt":4693,"Ġspurning":4694,"ĠÃ¾aÃ°an":4695,"ww":4696,"svÃ¦Ã°i":4697,"ĠskoÃ°unar":4698,"ĠsambÃ¦r":4699,"ĠLÃ¡":4700,"ĠviljaÃ°":4701,"ĠKristÃŃn":4702,"Ġheils":4703,"HÃ¦stv":4704,"ĠnÃ³gu":4705,"ĠÃįtal":4706,"ĠvÃŃsa":4707,"AN":4708,"qu":4709,"Ġ75":4710,"Ġsat":4711,"ĠÃįslandsm":4712,"ĠbyrjaÃ°i":4713,"ileik":4714,"ĠKÃŃna":4715,"ĠRÃºnar":4716,"ĠgÃ¶gnum":4717,"ĠInd":4718,"ĠBjarnason":4719,"ugu":4720,"ĠtÃ³lf":4721,"ĠklÃ¡r":4722,"setningu":4723,"ĠvÃŃsu":4724,"tor":4725,"Ġsamninga":4726,"Ġeinni":4727,"eistari":4728,"22":4729,"Ã¶ldu":4730,"ÃŃt":4731,"ĠfrÃ©ttir":4732,"Ġbekk":4733,"ĠtÃºl":4734,"Ġ43":4735,"ĠHÃºs":4736,"Ã¶Ã°u":4737,"Ġuppbyggingu":4738,"ĠÃģs":4739,"ĠskÃ¡ld":4740,"Ġumhverfi":4741,"Ġseinna":4742,"ĠSÃ¦":4743,"amb":4744,"ĠEirÃŃk":4745,"ĠlÃ½sa":4746,"ĠÃŃsl":4747,"Ġsnemma":4748,"Ġstel":4749,"Ġbrtt":4750,"Ġvestur":4751,"Ġtoll":4752,"stand":4753,"Ġeiginlega":4754,"ĠÃ½mis":4755,"Ġvitni":4756,"ĠSigurÃ°ardÃ³ttir":4757,"ĠFacebook":4758,"ĠAÃ°al":4759,"Ġmargra":4760,"estir":4761,"ÃŃsku":4762,"Hafi":4763,"Ġerlendum":4764,"ĠÃģrna":4765,"Ġunnt":4766,"ĠHv":4767,"eigu":4768,"Ing":4769,"one":4770,"Ġvinstri":4771,"steinsson":4772,"ĠlÃ½Ã°rÃ¦Ã°i":4773,"ĠÃ¡ttum":4774,"Ġunnu":4775,"Ġ*":4776,"ĠnÃ½rri":4777,"Ġopinbera":4778,"ash":4779,"FÃ©lag":4780,"skÃ³lanum":4781,"ĠsnÃºa":4782,"Ġmein":4783,"SK":4784,"ÃºÃ°ar":4785,"ĠSteingrÃŃm":4786,"ĠslÃŃkar":4787,"ĠHÃ³l":4788,"ĠSamfylkingarinnar":4789,"ĠbÃ¦k":4790,"ĠMark":4791,"afram":4792,"ulltrÃºi":4793,"ĠfrÃ¦":4794,"de":4795,"ĠAnna":4796,"ĠprÃ³sen":4797,"ĠbÃ½":4798,"grei":4799,"ĠkjÃ³":4800,"Ġfylgir":4801,"eyfi":4802,"Ġleyfa":4803,"ĠrÃŃkissjÃ³Ã°s":4804,"ĠnÃ½lega":4805,"ĠIngib":4806,"ĠmannrÃ©tt":4807,"spurn":4808,"ĠÃŀÃ½skalandi":4809,"ĠrÃ©tta":4810,"ĠpÃ³litÃŃsk":4811,"ĠfjÃ¶lmiÃ°lum":4812,"ĠljÃ³smynd":4813,"ĠlÃ¡gmark":4814,"ĠspilaÃ°":4815,"rÃ©tti":4816,"vÃŃsi":4817,"FÃ³lk":4818,"Ġhi":4819,"Ġell":4820,"Sem":4821,"ĠkallaÃ°":4822,"Ġbrug":4823,"ine":4824,"Ġkeypt":4825,"ĠDV":4826,"ĠÃ¾jÃ³Ã°anna":4827,"Ã¡h":4828,"Ġfars":4829,"takanna":4830,"ĠBjarna":4831,"Ġklukkust":4832,"arkost":4833,"Ġhvern":4834,"Ġsemja":4835,"skÃ¶p":4836,"Ġstol":4837,"ilja":4838,"ĠmarkaÃ°i":4839,"ĠslÃŃka":4840,"ĠÃ¦tlaÃ°i":4841,"ĠlÃ¶gin":4842,"Ġfalli":4843,"Ġhaldin":4844,"Ġflestum":4845,"ĠMatt":4846,"jÃ³ra":4847,"Ġrekja":4848,"Ġfyrirhug":4849,"ĠÃºrskurÃ°":4850,"Ġfullt":4851,"Ġvinnur":4852,"Ġtagi":4853,"ĠAkureyr":4854,"BC":4855,"ĠÃ¡horf":4856,"amÃ¡lum":4857,"Ġtit":4858,"ĠEinarsson":4859,"agÃ°":4860,"celona":4861,"ĠMorgunblaÃ°iÃ°":4862,"Ġliggi":4863,"ĠHag":4864,"ĠEm":4865,"Ġlitla":4866,"ys":4867,"Ġ500":4868,"insson":4869,"burÃ°":4870,"Ġlausn":4871,"ĠÃĵlafs":4872,"Ãļr":4873,"ĠstÃ¦rsta":4874,"ĠVeg":4875,"taÃ°":4876,"ci":4877,"ĠstjÃ³r":4878,"Ġfleira":4879,"ĠOdd":4880,"Allir":4881,"NiÃ°ur":4882,"sak":4883,"ĠÃºtgÃ¡fu":4884,"ĠliÃ°a":4885,"Ġgreint":4886,"ĠrÃ¡Ã°staf":4887,"endingu":4888,"Ġvekja":4889,"ĠÃºrvalsdeildinni":4890,"ĠhraÃ°":4891,"ĠstÃºlk":4892,"Ã¡ni":4893,"Verk":4894,"rÃ¦k":4895,"ĠMa":4896,"skipulag":4897,"fÃ³lk":4898,"ĠGe":4899,"Ġhugsanlega":4900,"Ġris":4901,"ĠhÃ¡mark":4902,"ĠHl":4903,"Ġbolt":4904,"Ġhinna":4905,"per":4906,"Ġkm":4907,"Ġkomnir":4908,"hluti":4909,"Ġtelji":4910,"jung":4911,"akob":4912,"eign":4913,"Ġfundar":4914,"ca":4915,"Ġatkv":4916,"ĠtÃŃmabilinu":4917,"eldrar":4918,"ĠsÃ¦n":4919,"Ġvist":4920,"Ġlifa":4921,"Ġeignir":4922,"ĠMadrid":4923,"tÃ¶l":4924,"Ã¾ega":4925,"efli":4926,"ĠaÃ°ildar":4927,"ĠvirÃ°ast":4928,"Ã©tti":4929,"ĠstÃ³rum":4930,"ĠundanfÃ¶rnu":4931,"ĠlÃŃÃ°ur":4932,"ĠbrÃ¡Ã°a":4933,"Starf":4934,"Ġpening":4935,"Ã³Ã°um":4936,"ĠumrÃ¦dd":4937,"atriÃ°":4938,"Ġskora":4939,"Ġinnheim":4940,"Ġert":4941,"ĠKr":4942,"rabbam":4943,"ĠkÃ¶nnun":4944,"skipt":4945,"ĠgÃ¦ta":4946,"ĠvÃ¶rn":4947,"ĠsÃ¶kum":4948,"Ġannarri":4949,"lÃ¡t":4950,"ĠhÃ¡skÃ³la":4951,"ĠHM":4952,"Ġtug":4953,"Ġvega":4954,"Ġhafnar":4955,"ve":4956,"ĠbandarÃŃsk":4957,"Ġfug":4958,"ĠspurÃ°i":4959,"koma":4960,"lÃ¶ndum":4961,"jug":4962,"par":4963,"ĠBe":4964,"Ã¡Ã°herra":4965,"Ġafa":4966,"ĠÃ½mi":4967,"Ġ1997":4968,"45":4969,"ĠvÃŃk":4970,"Ġnafni":4971,"verÃ°u":4972,"SÃ©r":4973,"ingarnar":4974,"Ġhar":4975,"ĠbÃ¡Ã°ir":4976,"ĠlÃŃkur":4977,"Ġvelja":4978,"Ġstiga":4979,"ĠfÃ³rum":4980,"ĠsÃŃma":4981,"ĠstarfaÃ°i":4982,"ĠÃĵsk":4983,"vinnslu":4984,"Ġfarin":4985,"Ġvaldi":4986,"ĠbÃ¦tti":4987,"ĠMargrÃ©t":4988,"ĠblÃ³Ã°":4989,"ĠCo":4990,"ĠFrÃ©tta":4991,"BÃ¶rn":4992,"afrÃ¦Ã°":4993,"Ġefnahags":4994,"ĠleiÃ°in":4995,"rinum":4996,"ĠskrifaÃ°i":4997,"ĠHÃ©raÃ°sdÃ³m":4998,"Ġafi":4999,"Ġverja":5000,"Ã¾ings":5001,"Ġeinhvers":5002,"ĠReal":5003,"vir":5004,"ondon":5005,"Ġvarla":5006,"BV":5007,"ĠhundruÃ°":5008,"ĠmÃ¡naÃ°ar":5009,"ĠviÃ°skipti":5010,"hring":5011,"Ġalger":5012,"minn":5013,"ĠgÃ¦slu":5014,"ĠMil":5015,"Ġfyll":5016,"ĠennÃ¾Ã¡":5017,"ĠmÃ³tmÃ¦":5018,"ĠdrÃ¡ttar":5019,"ĠstÃŃ":5020,"Ġfrumvarpinu":5021,"Sag":5022,"ÃļV":5023,"skyldu":5024,"konu":5025,"ĠÃ¡nÃ¦gju":5026,"Ġ2017":5027,"ĠHu":5028,"bjÃ³Ã°":5029,"Ġkaffi":5030,"ĠVald":5031,"ĠnorÃ°an":5032,"ĠHrafn":5033,"Ġstunda":5034,"500":5035,"ĠstÃ³ru":5036,"ĠkveÃ°iÃ°":5037,"Ġhina":5038,"vax":5039,"Ġsorg":5040,"SlÃŃk":5041,"asti":5042,"ĠnÃ¡mskeiÃ°":5043,"ranns":5044,"ilegur":5045,"ĠVestf":5046,"Ã°arinnar":5047,"ĠbÃ¡Ã°um":5048,"ĠtÃ³m":5049,"ĠPort":5050,"ĠfjÃ¶r":5051,"ĠupplÃ½sing":5052,"sjÃºk":5053,"kerfi":5054,"bÃ¶rn":5055,"ĠÃ¡lykt":5056,"ĠsÃ³lar":5057,"ĠlÃ¡t":5058,"ĠdÃ¡l":5059,"ĠniÃ°urstÃ¶Ã°ur":5060,"restur":5061,"ĠAlex":5062,"ney":5063,"Ã©ttur":5064,"uleg":5065,"skrift":5066,"Ġsamningi":5067,"Alls":5068,"ĠsÃ©st":5069,"ÃŃnver":5070,"Ã¦slu":5071,"launa":5072,"ĠbrÃ©fi":5073,"ĠnÃ½jar":5074,"Ġvikum":5075,"Ġteik":5076,"ĠkostnaÃ°ar":5077,"extir":5078,"Ġmuna":5079,"jÃ³nar":5080,"SjÃ¡lf":5081,"holt":5082,"brigÃ°i":5083,"ĠsamiÃ°":5084,"Ġhringir":5085,"ĠfyrirtÃ¦kjum":5086,"Ġ39":5087,"vÃŃkur":5088,"Ġkennslu":5089,"Ġbot":5090,"ĠÃ¾ingsins":5091,"ĠGÃŃsl":5092,"lf":5093,"Ġkerfi":5094,"smÃ¡lum":5095,"ĠbaÃ°":5096,"Ġverslunar":5097,"ĠÃ³breytt":5098,"ĠHa":5099,"essor":5100,"ĠÃįslen":5101,"ĠmÃ¡nuÃ°":5102,"ĠDag":5103,"ĠStefÃ¡nsson":5104,"Ġheimi":5105,"ndum":5106,"ĠHil":5107,"essi":5108,"bil":5109,"Ġborgarinnar":5110,"uleiÃ°":5111,"avid":5112,"fÃ©lÃ¶g":5113,"ĠSigurjÃ³n":5114,"birg":5115,"ĠrÃ©ttindi":5116,"Ġfat":5117,"FjÃ¡r":5118,"Ġfyrrum":5119,"Ġborist":5120,"nÃ¦g":5121,"Ġreka":5122,"ĠmÃ¶rkum":5123,"Nokk":5124,"ĠFjÃ¡r":5125,"Eitt":5126,"ĠveiÃ°i":5127,"Ġnemur":5128,"ĠÃĨ":5129,"Ġjafna":5130,"Ġkrafa":5131,"hlutverk":5132,"Ġlengra":5133,"SigurÃ°ur":5134,"Ġaugum":5135,"ĠfjÃ¡rmÃ¡larÃ¡Ã°herra":5136,"gild":5137,"ĠblÃ³m":5138,"Ġvissi":5139,"ĠbarÃ¡ttu":5140,"ĠvÃŃst":5141,"velt":5142,"Ġheimsm":5143,"ĠÃ¦vin":5144,"Nor":5145,"Ġvitum":5146,"sÃ½n":5147,"24":5148,"ĠtÃ¶luvert":5149,"Ġsumir":5150,"ĠutanrÃŃkisrÃ¡Ã°herra":5151,"ella":5152,"ĠÃ¡nÃ¦gÃ°ur":5153,"ĠIn":5154,"Ġhita":5155,"Ġminnst":5156,"Or":5157,"ĠviÃ°brÃ¶gÃ°":5158,"fÃ¦rslu":5159,"Jafnframt":5160,"ĠhafnaÃ°":5161,"Ġsker":5162,"ĠstaÃ°an":5163,"ĠbregÃ°ast":5164,"ĠJÃ³ns":5165,"ĠKol":5166,"ĠGyl":5167,"turinn":5168,"ĠsamÃ¾ykki":5169,"ema":5170,"mum":5171,"Ġeinstakling":5172,"ĠfrÃ¡kÃ¶st":5173,"Ġforgang":5174,"ĠvarÃ°a":5175,"Ġbjart":5176,"Ġtalsvert":5177,"jist":5178,"kveÃ°":5179,"ĠstÃ¦rstu":5180,"erfisins":5181,"kiÃ°":5182,"stjÃ³rinn":5183,"GuÃ°mundur":5184,"Ġspennandi":5185,"HÃ¶f":5186,"ĠkjÃ³s":5187,"Ġumfang":5188,"angur":5189,"ĠfjÃ¡rfestingar":5190,"Ġhlutaf":5191,"Ġreikning":5192,"ĠBaldur":5193,"Ãºbb":5194,"Ã¡mi":5195,"ĠÃ¡kvarÃ°anir":5196,"ĠreglugerÃ°":5197,"Ġeinstaklingar":5198,"krÃ¶f":5199,"Ġtilvikum":5200,"bandalag":5201,"23":5202,"ĠLondon":5203,"Ġsystk":5204,"Ġofbeldi":5205,"ces":5206,"Ġraunar":5207,"hÃ¶ll":5208,"arit":5209,"ĠliÃ°s":5210,"Ġeinken":5211,"Ã¶kul":5212,"ĠsÃ½ndi":5213,"ĠÃºthlut":5214,"ĠThor":5215,"ĠhjÃ¡lpa":5216,"ĠverÃ°trygg":5217,"ĠalgjÃ¶rlega":5218,"ĠsÃ¶gÃ°u":5219,"Ġstarfs":5220,"Ġminnast":5221,"ĠmilljÃ³na":5222,"Ġvaxandi":5223,"Ġ65":5224,"sÃŃÃ°u":5225,"out":5226,"ĠTÃ³m":5227,"ĠNÃ½":5228,"fellt":5229,"Ġumtals":5230,"ĠlÃ¦ra":5231,"Ġminnk":5232,"Ġlitlu":5233,"uÃ°vitaÃ°":5234,"ĠskiliÃ°":5235,"ĠhÃ³pur":5236,"Ġfory":5237,"ĠMc":5238,"Ġhvet":5239,"ĠSkag":5240,"Ġfelst":5241,"Ġathugasemdir":5242,"ĠlÃº":5243,"Ã³met":5244,"ĠlÃ¡na":5245,"jalla":5246,"stÃ¦Ã°a":5247,"ĠvÃ¶ldum":5248,"Ġlandam":5249,"ĠÃŃtar":5250,"ĠspilaÃ°i":5251,"ĠgjaldÃ¾r":5252,"bÃ³ta":5253,"rÃºm":5254,"Hug":5255,"ĠÃ¡kvÃ¦Ã°um":5256,"Ġskuldbind":5257,"ĠSigf":5258,"Ġseint":5259,"llinn":5260,"200":5261,"Ġalgeng":5262,"Ã¶rk":5263,"mp":5264,"Bjar":5265,"Ġframhaldssk":5266,"ĠframkvÃ¦mda":5267,"ĠÃ½msu":5268,"ĠsjÃ¡lfu":5269,"Ġsleg":5270,"hall":5271,"Ġ44":5272,"Ġsamskipti":5273,"ĠfulltrÃºar":5274,"Ġmeirihluta":5275,"Ġsund":5276,"ĠAtl":5277,"ĠÃ¡fengis":5278,"ĠÃĵskar":5279,"ĠskilaÃ°":5280,"ĠBjÃ¶rk":5281,"Ġfelld":5282,"Ġalvarlega":5283,"onald":5284,"ninguna":5285,"Gunnar":5286,"ĠgreinargerÃ°":5287,"Ġkostur":5288,"ĠÃ½msar":5289,"alÃ½Ã°":5290,"ĠMorgunblaÃ°inu":5291,"Ġgeym":5292,"nter":5293,"lÃ³":5294,"Ġframangreind":5295,"Ġfagna":5296,"Ġhagn":5297,"Ġkg":5298,"skÃ³lann":5299,"ĠRÃļV":5300,"ĠÃ³m":5301,"ÃŀÃ³tt":5302,"ĠskeiÃ°":5303,"Ġsamhengi":5304,"Ġ|":5305,"Ġgefin":5306,"ĠupplÃ½singa":5307,"Ġhratt":5308,"ĠSand":5309,"ĠglÃ¦s":5310,"Ġheimilis":5311,"Ġsendir":5312,"LÃŃk":5313,"heiÃ°ur":5314,"VerÃ°":5315,"Ġefstu":5316,"ĠhundraÃ°":5317,"rann":5318,"Ġkunnugt":5319,"ĠDe":5320,"ĠValur":5321,"Foreldrar":5322,"MiÃ°":5323,"Ġvildu":5324,"ĠviÃ°tal":5325,"Ã³lfur":5326,"ĠfÃ©lÃ¶g":5327,"ĠBarcelona":5328,"Ġtilkynn":5329,"eigandi":5330,"ĠJÃ³hannes":5331,"Ã¦f":5332,"rÃ¡Ã°i":5333,"lÃŃn":5334,"yfirvÃ¶ld":5335,"Ġeinhverja":5336,"ĠgÃ¶mlu":5337,"Ġtakast":5338,"Ġforeldrar":5339,"ĠÃ¡hrifum":5340,"Ġtrygging":5341,"Ġmeistar":5342,"Ġfyrirkomulag":5343,"vÃ¦nt":5344,"ĠMarÃŃa":5345,"ps":5346,"Ã½Ã°u":5347,"ĠbrotiÃ°":5348,"ĠkostnaÃ°ur":5349,"rÃ¡Ã°s":5350,"ĠÃ½mislegt":5351,"slok":5352,"ĠMart":5353,"ĠsannfÃ¦r":5354,"ĠbarÃ¡tt":5355,"ĠnÃ¡lÃ¦gt":5356,"dagur":5357,"ĠstoÃ°":5358,"Ġpeninga":5359,"nesi":5360,"ĠHelg":5361,"unnan":5362,"Mikil":5363,"Ġtutt":5364,"ĠflÃ³tt":5365,"ĠframtÃŃÃ°inni":5366,"ĠbÃºnir":5367,"Ġskyldu":5368,"horf":5369,"anni":5370,"Hinn":5371,"Ġgreinar":5372,"lak":5373,"ĠvÃŃsar":5374,"sÃ¶gu":5375,"bak":5376,"Ġgre":5377,"ĠbrÃ¡Ã°":5378,"skÃ³lans":5379,"Ġstefnt":5380,"ĠsÃ½ningar":5381,"skj":5382,"Ġ150":5383,"ĠÃ¶rugglega":5384,"Bar":5385,"Hvernig":5386,"undu":5387,"ĠvÃŃsit":5388,"venju":5389,"Ġfyrsti":5390,"ĠEvrÃ³pusambandsins":5391,"imar":5392,"Ġrekstr":5393,"Ġdoll":5394,"ĠmistÃ¶k":5395,"Ġtilliti":5396,"ĠendurnÃ½":5397,"ĠrÃ¡Ã°h":5398,"virkjun":5399,"Ġflokki":5400,"Ġdeildar":5401,"taÃ°i":5402,"Ġgreinilega":5403,"ĠgagnrÃ½ni":5404,"oni":5405,"ĠÃģrnason":5406,"mist":5407,"ĠmatvÃ¦":5408,"Ġneik":5409,"ĠHallgrÃŃm":5410,"Ġ`":5411,"26":5412,"ĠdrÃ³":5413,"Ġgilda":5414,"ĠfÃ¡um":5415,"ĠhjÃ³na":5416,"Ã¶tur":5417,"ĠÃ¦tlum":5418,"Ġstefnum":5419,"ĠÃ¾Ã¡tttÃ¶ku":5420,"ĠgÃ¶ng":5421,"ĠÃ¡kveÃ°a":5422,"Ġerindi":5423,"ĠKar":5424,"hrepp":5425,"Ġi":5426,"ĠgjÃ¶r":5427,"Ãŀor":5428,"ĠÃ¾Ã¦tt":5429,"spurÃ°ur":5430,"vÃ¦Ã°i":5431,"gjafar":5432,"Ġ55":5433,"ĠJakob":5434,"stum":5435,"verkefni":5436,"ĠLeik":5437,"ĠÃ¾ingflokk":5438,"ĠaÃ°stÃ¶Ã°u":5439,"ĠbÃ³ta":5440,"Ã¶lluÃ°":5441,"Ġrafmagn":5442,"Ġberjast":5443,"Ġvaxta":5444,"Ã³re":5445,"Ġformi":5446,"Margir":5447,"ĠstÃ¶Ã°ug":5448,"sjÃ³n":5449,"MaÃ°urinn":5450,"enham":5451,"Ã³Ã°a":5452,"leikum":5453,"Ãŀarna":5454,"ĠfrumvarpiÃ°":5455,"ĠfundiÃ°":5456,"ĠÃºtlend":5457,"fÃ¦ra":5458,"agjald":5459,"hverfi":5460,"Ġkol":5461,"ĠstÃ½r":5462,"Ġtengjast":5463,"ĠÃ³ska":5464,"lof":5465,"sÃ¡r":5466,"Ġlangan":5467,"ĠstarfaÃ°":5468,"etu":5469,"Ġbreska":5470,"ĠÃŀing":5471,"Ġdraum":5472,"ĠSigrÃŃÃ°ur":5473,"Ġeftirfarandi":5474,"ĠfljÃ³tlega":5475,"ĠVer":5476,"yggju":5477,"aflega":5478,"eyjar":5479,"stofn":5480,"ĠGunnlaug":5481,"ĠhrÃ¦":5482,"afrÃ¦Ã°i":5483,"Fr":5484,"Haf":5485,"ĠtvÃ¶f":5486,"stÃ¦tt":5487,"Ġkenna":5488,"ĠDi":5489,"ĠGer":5490,"ĠbandarÃŃska":5491,"ĠMÃ©r":5492,"mÃ¡":5493,"Ġkunni":5494,"ĠKjartan":5495,"ani":5496,"ĠÃºtil":5497,"com":5498,"Ġ400":5499,"ĠeÃ°lileg":5500,"arnar":5501,"Ã¶nsku":5502,"Ġjaf":5503,"Ġforystu":5504,"steins":5505,"ĠsjÃ¡lfsagt":5506,"ĠfÃ¡tÃ¦k":5507,"flu":5508,"ĠverÃ°mÃ¦ti":5509,"ĠskrifaÃ°":5510,"ĠaÃ°geng":5511,"Ġkynsl":5512,"ĠÃ¾ingiÃ°":5513,"Ġkapp":5514,"jendur":5515,"felld":5516,"ĠDal":5517,"ĠÃ¶Ã°ruvÃŃsi":5518,"ĠalÃ¾ing":5519,"Ġja":5520,"AT":5521,"hÃ¦kk":5522,"Ġlaugardaginn":5523,"ĠstjÃ³rnarskrÃ¡r":5524,"Dag":5525,"ĠÃŃs":5526,"Ġ1996":5527,"ĠtÃ¶lur":5528,"Ġdyr":5529,"Ġgist":5530,"ĠauÃ°velt":5531,"ĠmÃ¡nudag":5532,"ĠgÃ¦sluvarÃ°":5533,"ĠfrÃ¦g":5534,"Ġjafntefli":5535,"Ġvelta":5536,"Ġ48":5537,"ĠAll":5538,"aldri":5539,"ĠleiÃ°inni":5540,"ĠÃºts":5541,"ĠmiÃ°a":5542,"LiÃ°":5543,"ĠkÃ¶rf":5544,"asafn":5545,"Ġatvinnur":5546,"ĠaukiÃ°":5547,"AÃ°al":5548,"aÃ°ilar":5549,"Ġtengsl":5550,"our":5551,"ĠvÃŃta":5552,"ĠÃįBV":5553,"ĠbÃºast":5554,"Ġvind":5555,"Ġvestan":5556,"ĠGlit":5557,"ĠÃŀegar":5558,"Ġhlutverki":5559,"Ġneyslu":5560,"Ġslag":5561,"jÃ¶ldum":5562,"Ġ1995":5563,"ĠskÃ½":5564,"ĠsÃ©rstakt":5565,"ĠAri":5566,"ST":5567,"ĠfljÃ³tt":5568,"vak":5569,"ĠfullorÃ°":5570,"ĠpÃŃ":5571,"nattleik":5572,"ÃºlÃŃu":5573,"ĠÃ¾rÃŃ":5574,"ĠhÃ¶g":5575,"ungu":5576,"Lok":5577,"ĠverÃ°laun":5578,"Ġpunda":5579,"Ġgull":5580,"Ã¾jÃ¡lf":5581,"MaÃ°ur":5582,"Ġheyrt":5583,"60":5584,"frÃ¦":5585,"ĠBlÃ¶nd":5586,"amik":5587,"Ġframleng":5588,"ĠmÃ¡tti":5589,"ĠverksmiÃ°":5590,"ĠdÃ³ms":5591,"Ã¦rum":5592,"Ġmesta":5593,"Ġsamkomulagi":5594,"ĠÃ¦tli":5595,"halds":5596,"nuÃ°i":5597,"ĠjarÃ°ar":5598,"Ġ1993":5599,"ĠsÃ©rstaka":5600,"ĠrÃ¡Ã°iÃ°":5601,"ĠmeÃ°ferÃ°ar":5602,"Ġalmennra":5603,"ael":5604,"ĠdÃ½":5605,"Ġhinsvegar":5606,"ĠVÃŃs":5607,"ĠJu":5608,"ĠgrÃ¡":5609,"Ġflokka":5610,"ĠBreiÃ°ab":5611,"ĠspÃŃtal":5612,"ĠguÃ°":5613,"Ġsjald":5614,"Ġlykil":5615,"esti":5616,"rÃ¦na":5617,"kra":5618,"Ã¡byrg":5619,"ĠferÃ°inni":5620,"Ġenska":5621,"mÃ¡laeftirlit":5622,"Nefnd":5623,"ĠrÃ¡Ã°stÃ¶f":5624,"jÃ³ri":5625,"Ġsitur":5626,"ottenham":5627,"ĠÃ³trÃºlega":5628,"ĠFyl":5629,"ĠyfirvÃ¶ld":5630,"vu":5631,"ĠFer":5632,"ĠlÃ¶nd":5633,"ĠsumariÃ°":5634,"Ġanna":5635,"ĠÃ¡form":5636,"ĠbeiÃ°ni":5637,"Ġmyndinni":5638,"ĠBjÃ¶rnsson":5639,"90":5640,"Ġeigna":5641,"elsis":5642,"Ġreyndi":5643,"ĠJap":5644,"tÃ¶lu":5645,"ĠaÃ°gerÃ°a":5646,"Ġbankanna":5647,"Ġvalda":5648,"onan":5649,"Vit":5650,"ĠhafiÃ°":5651,"Ġelsku":5652,"ĠSelfossi":5653,"Ġmagn":5654,"ĠFrakklandi":5655,"Ġtilheyr":5656,"ĠLu":5657,"Ġvernd":5658,"eÃ°l":5659,"ĠÃ¶flu":5660,"nÃº":5661,"ĠlÃ³Ã°":5662,"ĠFrÃ©ttablaÃ°":5663,"ĠnÃ¡i":5664,"ĠlÃŃklegt":5665,"Ġ91":5666,"ĠheimasÃŃÃ°u":5667,"Ġspr":5668,"ĠgÃ¶mul":5669,"Ġfundinum":5670,"ĠÃ¦tlu":5671,"AA":5672,"ack":5673,"ĠlÃ¦kkun":5674,"ĠneyÃ°ar":5675,"ĠÃ¾ings":5676,"ĠsÃ½n":5677,"ĠgreiÃ°i":5678,"elti":5679,"fremur":5680,"ĠÃŃÃ¾rÃ³tta":5681,"Ġhverjir":5682,"lÃ½":5683,"rÃ¶fu":5684,"tri":5685,"Ġgreindi":5686,"ĠsÃ½slum":5687,"Ġsamningum":5688,"ĠvÃ¶rum":5689,"ĠstÃ³Ã°u":5690,"ĠÂ»":5691,"28":5692,"stund":5693,"ĠInga":5694,"ĠfÃ³tbolta":5695,"ĠOrku":5696,"ĠfÃ³":5697,"ĠfyrirtÃ¦kinu":5698,"Ġfimmtudag":5699,"Ġhegningar":5700,"sturinn":5701,"ĠAkranesi":5702,"ĠGarÃ°ar":5703,"Ġakstur":5704,"Ġmissa":5705,"Ġskrifar":5706,"Ġkostar":5707,"ĠjafnaÃ°i":5708,"ĠlÃ¦kni":5709,"Ġreyndist":5710,"jÃ³rÃ°ung":5711,"Ġeignast":5712,"ĠskoÃ°anir":5713,"safn":5714,"Ġnefnt":5715,"Inn":5716,"ĠnÃ¡Ã°u":5717,"fariÃ°":5718,"ĠarÃ°":5719,"ĠatriÃ°":5720,"Ġvakti":5721,"alan":5722,"deildarinnar":5723,"Ã¶tum":5724,"arfrÃ¦Ã°":5725,"Ġhagsmuna":5726,"ĠglÃ¦p":5727,"runa":5728,"NÃ¡":5729,"ĠRagn":5730,"ĠsamfÃ©laginu":5731,"ĠferÃ°amanna":5732,"SÃ½":5733,"ĠviÃ°rÃ¦Ã°ur":5734,"27":5735,"Ġfyrirmynd":5736,"ĠvÃ¶rur":5737,"Ġupplif":5738,"ĠRÃŃkisÃºtvarp":5739,"ĠkÃŃlÃ³met":5740,"Ġvonast":5741,"ĠdÃ³msmÃ¡l":5742,"Ġsamnings":5743,"ĠÃįtalÃŃu":5744,"ĠskÃ½ra":5745,"Ġfallist":5746,"Ã³ri":5747,"ĠGarÃ°a":5748,"Ġli":5749,"Ġerl":5750,"ĠgrÃŃpa":5751,"Ġnefndin":5752,"vÃŃsit":5753,"stÃ¶rf":5754,"Ã¾Ã¡tt":5755,"pl":5756,"Ġbarst":5757,"afla":5758,"ĠÃŃtrekaÃ°":5759,"Ġskuldir":5760,"ĠmÃ¦tir":5761,"jÃ³ni":5762,"ĠmÃ³Ã°ir":5763,"ĠbrÃº":5764,"ĠeyÃ°":5765,"ĠkjÃ³sa":5766,"mÃ³t":5767,"Ġhaldinn":5768,"fyll":5769,"Ġvott":5770,"esson":5771,"ĠvÃŃsan":5772,"leif":5773,"ĠmarkaÃ°s":5774,"rÃ©tar":5775,"Ãºrslit":5776,"ĠundirbÃºning":5777,"ĠMat":5778,"Ã¶Ã°var":5779,"ĠflÃ½":5780,"ĠHjÃ¶r":5781,"ĠlÃ½sir":5782,"Ġ1994":5783,"Ã³ti":5784,"stofa":5785,"ĠSnÃ¦fell":5786,"ĠsnÃ½st":5787,"ĠnÃ¡ttÃºrulega":5788,"ĠvelferÃ°ar":5789,"fundi":5790,"Ġskynsam":5791,"aboÃ°":5792,"ganist":5793,"bÃºnaÃ°":5794,"ĠGÃŃsla":5795,"Ã¡tta":5796,"Ġvantar":5797,"ĠverkiÃ°":5798,"stÃ¦Ã°u":5799,"aland":5800,"Ġfellur":5801,"ĠMich":5802,"ĠÃ¾ekkja":5803,"ĠAnt":5804,"fjÃ¶l":5805,"io":5806,"ljÃ³m":5807,"ĠhÃ¦rra":5808,"Ġkeypti":5809,"ĠlokaÃ°":5810,"ĠmiÃ°jum":5811,"ĠstofnaÃ°":5812,"ĠsjÃ¡lfs":5813,"And":5814,"ĠÃ¾jÃ³Ã°in":5815,"ĠÃįsrael":5816,"21":5817,"veig":5818,"rÃ¦ti":5819,"Ġpass":5820,"umenn":5821,"ĠÃ¾ol":5822,"dÃ¶gum":5823,"Ġbund":5824,"Ġverkefnum":5825,"mÃ¦lum":5826,"Ġmats":5827,"ĠGÃŃslason":5828,"LjÃ³":5829,"ĠFlug":5830,"Ġfasteign":5831,"ĠOg":5832,"Ġmbl":5833,"egin":5834,"gangur":5835,"ĠFÃ¦r":5836,"Ġrauninni":5837,"Ġeign":5838,"ĠsjÃºkrahÃºs":5839,"ĠÃ¾yng":5840,"veru":5841,"ĠviÃ°skiptum":5842,"ĠOl":5843,"ĠtalaÃ°i":5844,"drÃ¡ttar":5845,"Ġatvinnurek":5846,"rasil":5847,"ĠbrÃ¡Ã°abirg":5848,"Ġellef":5849,"ĠgerÃ°ur":5850,"ĠPer":5851,"ĠhÃ©ldu":5852,"ĠLÃ¡ru":5853,"ĠmeÃ°altali":5854,"ettur":5855,"Ġrenn":5856,"ĠstÃ¦kk":5857,"ĠHarald":5858,"tÃ¦ki":5859,"Ġtuttugu":5860,"Ġskulu":5861,"ÃŃÃ°i":5862,"eppninni":5863,"Ġmyndum":5864,"98":5865,"ĠsjÃ³Ã°sins":5866,"hneig":5867,"Ġam":5868,"Ġbyggingu":5869,"ĠsÃ©rstÃ¶k":5870,"ĠlÃ¶gregla":5871,"Ġvirtist":5872,"ĠnotuÃ°":5873,"hÃ³l":5874,"Ġspor":5875,"ĠJÃ³hannsson":5876,"Ġkomandi":5877,"Tal":5878,"ĠÃ³venju":5879,"ĠÃŀorg":5880,"ĠumrÃ¦Ã°a":5881,"snar":5882,"Ġheimildir":5883,"stÃ¶Ã°inni":5884,"Ġhlusta":5885,"ĠgleÃ°i":5886,"ĠmenntamÃ¡l":5887,"Ã³a":5888,"ĠtÃ¶kum":5889,"Ġmannesk":5890,"TaliÃ°":5891,"ĠTim":5892,"ĠrÃ¦ddi":5893,"uleika":5894,"deil":5895,"Ġ46":5896,"ĠprÃ³fessor":5897,"ggert":5898,"Ġmega":5899,"ĠvirÃ°isaukaskatt":5900,"ĠtÃŃmum":5901,"Ġendursk":5902,"ĠMeistara":5903,"elg":5904,"ĠInter":5905,"ĠbÃŃlnum":5906,"Ã¶nnunum":5907,"ĠstuÃ°nings":5908,"Ġfrumvarpsins":5909,"ĠfrÃ©ttum":5910,"Ġfengum":5911,"Ġfiski":5912,"ĠKÃ³pavog":5913,"Skip":5914,"Ġteknar":5915,"ĠÃ³ttast":5916,"ĠsjÃ³nvarps":5917,"ĠfÃ¦rt":5918,"Spur":5919,"kos":5920,"ĠslÃŃku":5921,"ĠEd":5922,"ĠekiÃ°":5923,"vis":5924,"ĠÃŀorvald":5925,"ĠvikiÃ°":5926,"Ġverki":5927,"Ġsunnan":5928,"Ġnefnilega":5929,"afr":5930,"ĠÃ¦Ã°":5931,"Ġsamningar":5932,"vega":5933,"skt":5934,"Ã¡hrif":5935,"ĠÃ¡lver":5936,"Ã¼":5937,"Ġlanda":5938,"SA":5939,"ĠauÃ°lind":5940,"virÃ°i":5941,"ĠhjÃ¡lpar":5942,"Ġframmi":5943,"otiÃ°":5944,"ĠlÃ¦kkaÃ°":5945,"ĠstaÃ°num":5946,"ĠalÃ¾jÃ³Ã°a":5947,"Ekkert":5948,"ord":5949,"Ġferli":5950,"Ġkomust":5951,"ĠBla":5952,"ÃŃfur":5953,"ĠbÃ¦tur":5954,"BÃº":5955,"Ġmatar":5956,"ĠKl":5957,"Ġkross":5958,"ub":5959,"ĠstÃ©tt":5960,"ofa":5961,"ĠnÃ¡lgast":5962,"ĠDr":5963,"Ġkort":5964,"ĠSe":5965,"taki":5966,"Ġbjug":5967,"Vegna":5968,"Ġoftast":5969,"eiÃ°i":5970,"Ġ+":5971,"essa":5972,"Ġglugg":5973,"ĠborÃ°a":5974,"ĠsÃŃld":5975,"ĠstÃºd":5976,"ĠbrotaÃ¾ola":5977,"ĠbÃ¡t":5978,"ĠaÃ°ilum":5979,"ĠPet":5980,"Ġhefjast":5981,"alÃ¡":5982,"SjÃ¡":5983,"ĠNÃº":5984,"aul":5985,"Ġsystur":5986,"landa":5987,"Ġbenti":5988,"ĠhÃ¦gri":5989,"ĠÃ¡gÃ¦t":5990,"ĠGri":5991,"isvar":5992,"ĠtrÃºn":5993,"ĠMorgunblaÃ°sins":5994,"ĠgetiÃ°":5995,"ĠJÃºlÃŃu":5996,"ĠhjÃ³l":5997,"ĠfÃ©lagar":5998,"Tel":5999,"arÃ°i":6000,"Ġbesti":6001,"ford":6002,"bÃºa":6003,"Ã¾jÃ³nusta":6004,"ĠfaÃ°ir":6005,"Ã¡trygg":6006,"ĠrÃ¦Ã°ir":6007,"ĠHau":6008,"Ġkjarn":6009,"afjarÃ°ar":6010,"ĠGeorg":6011,"ĠAkureyrar":6012,"Ġ57":6013,"bÃ¡":6014,"ĠstrÃ¡k":6015,"ĠfjÃ³ra":6016,"Ġfyrirl":6017,"Ġframher":6018,"ĠskoraÃ°":6019,"jÃ¡lfir":6020,"ĠhugsaÃ°":6021,"ĠrÃºss":6022,"ĠlÃ¦gri":6023,"Ġfengi":6024,"skirkju":6025,"rump":6026,"ĠhliÃ°ar":6027,"Ġholl":6028,"ick":6029,"ÃģÃ°ur":6030,"ĠLandsbankans":6031,"ĠQ":6032,"Ġhvergi":6033,"Ġmorg":6034,"alegt":6035,"dam":6036,"Ġvinnslu":6037,"ĠnÃ¦stkomandi":6038,"ĠsetiÃ°":6039,"ĠmarkiÃ°":6040,"holti":6041,"ĠvarÃ°i":6042,"flyt":6043,"ĠÃºrslitum":6044,"ĠlÃ½kur":6045,"ĠsvaraÃ°i":6046,"juna":6047,"Ġgjaldeyris":6048,"SÃ©":6049,"Ġlenti":6050,"cesave":6051,"ĠslÃ¶kkviliÃ°":6052,"Ġfarinn":6053,"ĠendurskoÃ°un":6054,"AuÃ°vitaÃ°":6055,"Ġ42":6056,"Ġherra":6057,"heimili":6058,"ĠÃºtt":6059,"ĠviÃ°skipt":6060,"ĠtapaÃ°i":6061,"Ġ88":6062,"ĠklÃ¡ra":6063,"vop":6064,"ĠnotiÃ°":6065,"erg":6066,"ĠbreiÃ°":6067,"ĠSa":6068,"ander":6069,"ĠvirÃ°ingu":6070,"Ġhim":6071,"ÃŃel":6072,"Ġfylgt":6073,"ĠtÃ¶f":6074,"ĠsjÃ¡lfir":6075,"Ġband":6076,"ĠÃŃmynd":6077,"Ġloks":6078,"Land":6079,"ĠÃ¡lyktun":6080,"ĠNoreg":6081,"ĠljÃ³Ã°":6082,"ĠRÃŃk":6083,"han":6084,"Ġmerki":6085,"laugur":6086,"burÃ°ur":6087,"Ġvonandi":6088,"shaf":6089,"Ġeigandi":6090,"ĠKA":6091,"ĠÃ¡hÃ¦ttu":6092,"rÃŃku":6093,"ĠlÃ¶ggjÃ¶f":6094,"ĠsekÃº":6095,"ĠÃ¾ekkt":6096,"Ġnaut":6097,"uleiÃ°is":6098,"Ġreyk":6099,"brau":6100,"ĠfÃŃkniefna":6101,"Ġvarafor":6102,"ungar":6103,"Ġerlendra":6104,"Ġhandtekinn":6105,"ĠSnor":6106,"ĠmÃŃnÃºtum":6107,"Ġunga":6108,"Ġandlit":6109,"afÃ©lags":6110,"Ġungling":6111,"ĠÃ¾ekkingu":6112,"jarnar":6113,"legg":6114,"Ġskemmtilegt":6115,"Ġ47":6116,"ĠhraÃ°a":6117,"ĠDavid":6118,"ĠlÃ¦tur":6119,"Ġyndi":6120,"Ġforsendur":6121,"Ġgleym":6122,"ĠKaupmanna":6123,"Ġeinb":6124,"Ġallri":6125,"ĠJÃ³nas":6126,"ĠWest":6127,"iel":6128,"RÃŃkis":6129,"eikk":6130,"ĠvirÃ°i":6131,"Ġframh":6132,"ĠKristinn":6133,"Ãįsland":6134,"flutnings":6135,"ĠÃ¾rÃ³unar":6136,"Hefur":6137,"mir":6138,"ĠfÃ³l":6139,"Segir":6140,"verksmiÃ°":6141,"Ġvaf":6142,"bu":6143,"ĠÃ¾Ã¡tttak":6144,"ali":6145,"Ġslit":6146,"Ġspurt":6147,"ĠlagiÃ°":6148,"vari":6149,"Ġgei":6150,"fÃ©lagiÃ°":6151,"Ġill":6152,"Ġmeng":6153,"Val":6154,"Ġnokkrir":6155,"Ġhorft":6156,"junnar":6157,"NÃ¦":6158,"ĠvakiÃ°":6159,"ĠPep":6160,"Ġalmennum":6161,"ĠEx":6162,"reisnar":6163,"ĠBjÃ¶rgvin":6164,"Tveir":6165,"Ġathuga":6166,"ĠÃ¦vint":6167,"sig":6168,"Ġfyrirvara":6169,"ĠgreiÃ°slur":6170,"sÃ½ni":6171,"urn":6172,"ĠÃŃbÃºÃ°ar":6173,"ĠferÃ°ast":6174,"ĠblaÃ°amann":6175,"ĠÃ¡byrgÃ°ar":6176,"ĠÃŃslenz":6177,"Ġfela":6178,"Ġeigendur":6179,"mennt":6180,"ĠforstÃ¶Ã°um":6181,"stÃ¦Ã°an":6182,"Ġmamma":6183,"Ġaustan":6184,"ĠhrÃ¡":6185,"risti":6186,"ĠsamrÃ¦m":6187,"Ġfrumvarpi":6188,"ĠferÃ°amenn":6189,"Undir":6190,"Ġendilega":6191,"Ġinnlend":6192,"Ã³tel":6193,"ĠIcesave":6194,"stÃŃm":6195,"ĠnÃ¡mi":6196,"Ġstein":6197,"Ġ56":6198,"arfi":6199,"Ġreglulega":6200,"unir":6201,"ĠhÃºssins":6202,"ĠFramsÃ³knarflokksins":6203,"ĠÃ³eÃ°l":6204,"itter":6205,"ĠEM":6206,"ĠsjÃ¡um":6207,"ĠjÃ¡kvÃ¦Ã°":6208,"Ġleyf":6209,"Ġspurningar":6210,"ena":6211,"ĠstuÃ°la":6212,"Ġsamskiptum":6213,"gÃ¶tu":6214,"dÃ¡":6215,"stofnun":6216,"smanns":6217,"ĠParÃŃs":6218,"ĠlÃ¶gunum":6219,"Ã¶sk":6220,"ĠÃ¡gÃ¦":6221,"ÃĿ":6222,"ĠBBC":6223,"Ġskammt":6224,"Ã¶fnun":6225,"Ġtekinn":6226,"ĠstjÃ³rnsÃ½slu":6227,"ĠhjÃºkrun":6228,"Ġfrem":6229,"Ġmundir":6230,"helgis":6231,"alist":6232,"ĠMatth":6233,"ĠSÃ½r":6234,"ĠhryÃ°juverk":6235,"Ġbreyst":6236,"29":6237,"lÃ¦":6238,"ĠhÃ¶gg":6239,"fÃ¡":6240,"Ġlest":6241,"Ġtilkynnti":6242,"ĠÃ¡hersla":6243,"ĠEES":6244,"ĠbyggÃ°ar":6245,"ilinn":6246,"ting":6247,"Ġalgerlega":6248,"Ġforsendum":6249,"ĠskÃ³lans":6250,"lendis":6251,"ĠTottenham":6252,"unefnd":6253,"Ġde":6254,"ĠÃ¡b":6255,"breytingar":6256,"Ãºtg":6257,"ĠviÃ°skiptavin":6258,"ĠrÃºssne":6259,"Ãŀing":6260,"ĠNjarÃ°":6261,"Ġspilar":6262,"Ġboltann":6263,"ĠGuÃ°mundsdÃ³ttir":6264,"ĠMik":6265,"ĠkveÃ°ur":6266,"ĠFreyr":6267,"ingja":6268,"Ġrig":6269,"Ġfjmrh":6270,"ĠlegiÃ°":6271,"Ġoftar":6272,"ĠkÃ³r":6273,"afur":6274,"fÃ©":6275,"ĠstjÃ³rnarfor":6276,"ĠsÃ½ni":6277,"ĠfÃŃn":6278,"ĠÃ¾y":6279,"Ġkonum":6280,"ĠkostnaÃ°i":6281,"Ġstuttu":6282,"ĠLa":6283,"ĠverkalÃ½Ã°":6284,"Ġ190":6285,"ĠÃ¡kaflega":6286,"Ġnokkurra":6287,"Ġrau":6288,"ĠgrÃ³Ã°ur":6289,"Ġbla":6290,"ĠKatrÃŃn":6291,"hliÃ°a":6292,"oup":6293,"Ġdval":6294,"piÃ°":6295,"ĠÃ¾jÃ³Ã°arat":6296,"isku":6297,"Sn":6298,"hafi":6299,"Ã°in":6300,"ĠVestmannaeyjum":6301,"ĠniÃ°urskur":6302,"ofu":6303,"JÃ³hann":6304,"verja":6305,"Ġvinur":6306,"Ġkrabbam":6307,"Ġallur":6308,"Ãĸll":6309,"ĠÃ¾jÃ³nust":6310,"Ġskynd":6311,"hlaup":6312,"ĠIceland":6313,"ĠÃ¶ku":6314,"ĠsjÃ¡lft":6315,"ĠlandsbyggÃ°":6316,"Ġsparis":6317,"ĠbÃ¦ndur":6318,"Ġefn":6319,"ttur":6320,"Ġgleyma":6321,"ĠspÃ¦n":6322,"Ġbeina":6323,"Ġsamningur":6324,"Ġmyn":6325,"ĠkjÃ¶rtÃŃmab":6326,"arfsemi":6327,"flutningi":6328,"ĠrÃŃkja":6329,"ilt":6330,"ĠmÃº":6331,"Einar":6332,"ĠkveÃ°st":6333,"ÃŃfi":6334,"ĠheiÃ°ur":6335,"ĠstaÃ°festi":6336,"Ġtilgangi":6337,"atrygg":6338,"ĠnÃ¡ttÃºrlega":6339,"Ġraforku":6340,"ĠEgil":6341,"ĠveiÃ°a":6342,"Ġbotn":6343,"ĠPÃ¡lsson":6344,"ĠnÃ¦gilega":6345,"dags":6346,"Ġmyndband":6347,"min":6348,"Ġjafnan":6349,"osa":6350,"eift":6351,"Ġtengist":6352,"varnar":6353,"ĠHjÃ¡l":6354,"Ġvegi":6355,"lÃ½singar":6356,"sÃ³knara":6357,"sjÃ¡":6358,"Ġpabbi":6359,"ĠlÃŃfeyrissjÃ³Ã°":6360,"ĠÃ¡kveÃ°inn":6361,"Ãģrni":6362,"abar":6363,"jÃ³lf":6364,"Magn":6365,"ĠÃ¡standiÃ°":6366,"ĠmÃ³tinu":6367,"ilegu":6368,"Ġformlega":6369,"Ã¶kkum":6370,"rÃ©ttar":6371,"ĠorÃ°a":6372,"Ġ1990":6373,"aÃ°ri":6374,"ĠÃ¾ro":6375,"Ġmenntun":6376,"yrr":6377,"EI":6378,"Ġsennilega":6379,"hit":6380,"ĠviÃ°hald":6381,"ĠaÃ°gerÃ°um":6382,"ĠkÃº":6383,"ĠiÃ°n":6384,"ĠAng":6385,"ĠfÃ©lagi":6386,"ĠleikskÃ³la":6387,"Ġkennara":6388,"ĠflugvÃ©l":6389,"ĠVilhjÃ¡lm":6390,"skonar":6391,"Annars":6392,"ĠSuÃ°urnesjum":6393,"oy":6394,"ĠkÃ¦ra":6395,"ĠEnglandi":6396,"Ġbra":6397,"ĠalvÃ¶ru":6398,"Bjarni":6399,"witter":6400,"Ġfasteigna":6401,"undan":6402,"Ġstofnanir":6403,"Ġeinhverjar":6404,"ĠdÃ³mstÃ³l":6405,"ĠAg":6406,"stefnu":6407,"ĠBenediktsson":6408,"ekjur":6409,"Ġminnka":6410,"Ġdan":6411,"ĠstarfsmÃ¶nnum":6412,"ĠundirbÃºa":6413,"ano":6414,"ĠsÃŃfellt":6415,"Ġnefndinni":6416,"ĠliÃ°ur":6417,"Ġkrakk":6418,"Ġsetur":6419,"astjÃ³rn":6420,"Ġmissk":6421,"ĠbyrjaÃ°":6422,"ĠfullnÃ¦g":6423,"annar":6424,"ĠtÃ³nleika":6425,"arfirÃ°i":6426,"ĠsvÃ¦Ã°iÃ°":6427,"Ã¦kni":6428,"eifur":6429,"Ġmi":6430,"ĠIngibjÃ¶rg":6431,"ĠlÃŃfinu":6432,"hugs":6433,"ĠKana":6434,"ĠsamÃ¾ykkti":6435,"ĠÃ¾urr":6436,"ĠfjÃ¡rfesta":6437,"Ranns":6438,"Ġtekjum":6439,"Ġhol":6440,"ĠÃ¦sk":6441,"Ġhagsmuni":6442,"Ġ58":6443,"Ġkunna":6444,"Ġgildir":6445,"Ã¶dd":6446,"ĠfaliÃ°":6447,"Ġspjald":6448,"ĠÃ¡rlega":6449,"Ġteljast":6450,"fara":6451,"Hin":6452,"ĠandstÃ¦Ã°":6453,"ĠpÃ¡":6454,"lagi":6455,"ĠÃŀrÃ³":6456,"ĠÃ¡stÃ¦Ã°um":6457,"MÃ¡liÃ°":6458,"ĠStjÃ¶rn":6459,"ĠhÃ¡lft":6460,"ariÃ°":6461,"ĠhÃ¦kkaÃ°i":6462,"ĠHjal":6463,"Ã°uÃ°":6464,"Ġteljum":6465,"Ã¶kur":6466,"Ġ85":6467,"ÃŃku":6468,"kku":6469,"uliÃ°":6470,"ĠendaÃ°i":6471,"ĠgÃŃ":6472,"keppni":6473,"ĠPalest":6474,"Ġkemst":6475,"drag":6476,"Ġpla":6477,"Ġalmenna":6478,"RÃ¡Ã°":6479,"VÃŃs":6480,"leysi":6481,"ĠupplÃ½st":6482,"ĠCar":6483,"ĠgrunnskÃ³la":6484,"Ġkli":6485,"Ġaldar":6486,"Ġfundist":6487,"ask":6488,"spil":6489,"ĠsamÃ¾ykkja":6490,"Ġsumum":6491,"ith":6492,"ĠdauÃ°a":6493,"Ġmisst":6494,"junar":6495,"naÃ°ist":6496,"ĠIngÃ³lf":6497,"ĠleiktÃŃÃ°":6498,"ĠTÃ³mas":6499,"Ġeit":6500,"Ġselt":6501,"vegis":6502,"ĠkÃ¦m":6503,"Ġtryggt":6504,"ĠSu":6505,"99":6506,"Ġlyfja":6507,"ĠrÃ¡Ã°ist":6508,"ĠSverri":6509,"ĠÃºtskÃ½r":6510,"Ġskilningi":6511,"Ã¾rÃ³un":6512,"Ġsvokall":6513,"ĠgÃ¶ngu":6514,"ĠrÃ¡Ã°ast":6515,"ĠfÃ¦rri":6516,"ulum":6517,"umiÃ°":6518,"ont":6519,"ĠsvaraÃ°":6520,"ĠÃ³dÃ½r":6521,"ĠlÃ©tu":6522,"elf":6523,"Ġkennar":6524,"heil":6525,"lunni":6526,"ĠEggert":6527,"33":6528,"ĠbauÃ°":6529,"Ġvinnust":6530,"amarkaÃ°i":6531,"ĠviÃ°miÃ°":6532,"Ġmyr":6533,"Ġsonur":6534,"kvÃ¦Ã°agreiÃ°slu":6535,"BjÃ¶rn":6536,"ington":6537,"fÃ¦rt":6538,"ĠframkvÃ¦mdastjÃ³ra":6539,"hreyf":6540,"ĠbÃ¡r":6541,"leikar":6542,"jafn":6543,"Ã¶rygg":6544,"Ġverkefna":6545,"ĠLaugardal":6546,"ĠsamrÃ¡Ã°":6547,"Ġtvisvar":6548,"Ġframhaldi":6549,"anta":6550,"ĠmiÃ°jan":6551,"Ġmikils":6552,"ĠlÃ¦kna":6553,"avar":6554,"ĠeyÃ°a":6555,"kir":6556,"Kom":6557,"essu":6558,"ĠskuldabrÃ©f":6559,"ĠstÃ¶Ã°ugt":6560,"Ġsta":6561,"hverfis":6562,"ler":6563,"ĠrÃŃkinu":6564,"ells":6565,"Ġnefndi":6566,"ĠskÃ½rslunni":6567,"ĠbÃ¦j":6568,"ĠNei":6569,"Ãŀessar":6570,"burg":6571,"Ġleiks":6572,"Ġleiddi":6573,"verjar":6574,"tilkyn":6575,"Ġstundir":6576,"Ġheimildum":6577,"Ġar":6578,"ĠfjÃ¶lmarg":6579,"ĠlÃŃÃ°a":6580,"len":6581,"ĠKÃ¡ra":6582,"ĠsviÃ°um":6583,"Ġskilyr":6584,"ĠrÃ©tti":6585,"ĠmÃ¡lskostnaÃ°":6586,"ĠÃ¡kveÃ°num":6587,"ĠfjÃ¶lmÃ¶r":6588,"ĠbÃ¶n":6589,"ĠmÃ¡lin":6590,"ĠhÃºsi":6591,"Ġsettar":6592,"Ġskjal":6593,"ĠsvÃŃ":6594,"ĠsveitarstjÃ³rnar":6595,"Ã¶fnunar":6596,"ĠdÃ¦ma":6597,"ĠPr":6598,"ĠvÃ¦g":6599,"ane":6600,"ĠÃ¾Ã¡gu":6601,"Ġgla":6602,"Ġalmenning":6603,"lymp":6604,"Ġkrefjast":6605,"Ġsettur":6606,"Ã°austur":6607,"Ġannast":6608,"gjaf":6609,"PÃ¡l":6610,"ĠundanfariÃ°":6611,"ĠSer":6612,"ÃŃfa":6613,"ĠBol":6614,"alÃ¶gum":6615,"ĠÃºtreik":6616,"Ġverkfall":6617,"ĠÃºtlit":6618,"ĠVestfjÃ¶rÃ°um":6619,"ĠloÃ°":6620,"Ġflott":6621,"Ġfella":6622,"Ġeinhverjir":6623,"skoÃ°un":6624,"ht":6625,"rÃ¦Ã°is":6626,"Ġopinberra":6627,"ĠsigraÃ°i":6628,"ĠaÃ°ili":6629,"ĠVatn":6630,"ungur":6631,"ĠtÃ¶lvupÃ³":6632,"ĠÃ¾ingmanna":6633,"Ġskilgrein":6634,"ĠNet":6635,"ĠSÃŃm":6636,"ĠeigiÃ°":6637,"slegum":6638,"ĠlÃ¡tinn":6639,"ĠfjÃ³rar":6640,"ĠhÃ¡tÃŃÃ°ar":6641,"Ġhitta":6642,"Ġrenna":6643,"ĠSpÃ¡ni":6644,"ĠrÃŃkissjÃ³Ã°i":6645,"Ġmissti":6646,"Ã¡kvÃ¦Ã°i":6647,"Ġfelur":6648,"hÃºssins":6649,"ĠEyjaf":6650,"garÃ°":6651,"ĠmjÃ³lkur":6652,"Ġth":6653,"ĠnÃ½rra":6654,"ildir":6655,"ily":6656,"Ã¶lur":6657,"sleit":6658,"ĠbÃ¡rust":6659,"Ġbyggist":6660,"Ġvekur":6661,"Ġreynst":6662,"ĠafleiÃ°ingar":6663,"slegu":6664,"ĠskÃ³lanum":6665,"Ġhreins":6666,"veriÃ°":6667,"ĠatvinnulÃŃfsins":6668,"ĠEvrÃ³pum":6669,"frv":6670,"ĠbÃ½Ã°ur":6671,"ĠfrÃ¦Ã°slu":6672,"ansi":6673,"ĠdÃ½ra":6674,"âĢ¦":6675,"ĠfjÃ¡rmÃ¶gn":6676,"ĠdauÃ°":6677,"ĠrÃŃf":6678,"Ġstaf":6679,"ĠHe":6680,"ĠkrÃ³nunnar":6681,"ĠfÃ©lÃ¶gum":6682,"ĠÃįr":6683,"ĠumrÃ¦Ã°unni":6684,"gaÃ°":6685,"rim":6686,"Ġveitingast":6687,"frÃ¦Ã°ingar":6688,"Enginn":6689,"ĠgjaldÃ¾rota":6690,"ĠsjÃ¡varÃºtvegs":6691,"ĠbÃ¦kur":6692,"unga":6693,"ĠHarÃ°ar":6694,"fyrirtÃ¦ki":6695,"ĠafgreiÃ°":6696,"afrumvarp":6697,"ĠÃŃslenskt":6698,"rÃŃÃ°a":6699,"tingar":6700,"ĠfjÃ¡rveit":6701,"Ġhlutir":6702,"Ġkrist":6703,"Ġellefu":6704,"Ã¡nÃ¦g":6705,"Ġstytt":6706,"ĠviÃ°rÃ¦Ã°um":6707,"ĠlÃ¶greglunni":6708,"Ġ67":6709,"Ġhinir":6710,"Ġgildandi":6711,"nanna":6712,"ĠframhjÃ¡":6713,"leiki":6714,"ĠFjÃ¡rmÃ¡laeftirlit":6715,"ĠÃ¾ver":6716,"ĠÃ¡framhald":6717,"ĠAlÃ¾Ã½Ã°u":6718,"ĠblÃ¡":6719,"Ġkven":6720,"ĠdÃ¡lÃŃtiÃ°":6721,"vef":6722,"ĠÃįR":6723,"ĠÃ³viss":6724,"Ġgreind":6725,"ĠTor":6726,"Ġforsrh":6727,"ĠSveinsson":6728,"ĠhÃ¡Ã°":6729,"Ġkonan":6730,"ĠvaliÃ°":6731,"ĠverkefniÃ°":6732,"hlÃŃÃ°":6733,"ĠgerÃ°ir":6734,"ĠGripiÃ°":6735,"Ġru":6736,"alk":6737,"SÃ³knar":6738,"ĠskilaboÃ°":6739,"Ġgagna":6740,"ĠfrumsÃ½":6741,"ĠGunnarsdÃ³ttir":6742,"svÃ¦Ã°inu":6743,"Ġbland":6744,"ĠHelgason":6745,"ĠlÃ¶gÃ°u":6746,"Â°":6747,"Ãºni":6748,"ĠnÃºtÃŃm":6749,"nan":6750,"Ġhorn":6751,"Ġauknum":6752,"stirÃ©ttur":6753,"Ġvelkom":6754,"tÃ³n":6755,"ĠleiÃ°t":6756,"ĠlÃ¡ni":6757,"Ġborgara":6758,"ĠalÃ¾ingis":6759,"ĠAm":6760,"afyrirtÃ¦ki":6761,"ĠsÃ³kn":6762,"Ġhegningarlaga":6763,"ĠflÃ³k":6764,"skan":6765,"aset":6766,"Ġrefsi":6767,"35":6768,"Gr":6769,"Ġuppfyll":6770,"lÃŃnis":6771,"ĠhÃ¦star":6772,"lad":6773,"Ġvart":6774,"lynd":6775,"ĠfulltrÃºi":6776,"Ġleikmann":6777,"Ġmennta":6778,"BA":6779,"iz":6780,"lass":6781,"Ġheimavelli":6782,"Ġlofti":6783,"ĠslegiÃ°":6784,"inho":6785,"jÃ³Ã°a":6786,"Ġlent":6787,"liÃ°iÃ°":6788,"Ġyfirheyr":6789,"ĠIngvar":6790,"ĠÃįsafirÃ°i":6791,"ĠframfÃ¦ri":6792,"Ġtalinn":6793,"ĠÃ¶l":6794,"Ġ54":6795,"ĠlÃŃtill":6796,"ĠElÃŃ":6797,"Ġ#":6798,"ĠmÃ³tmÃ¦la":6799,"Mig":6800,"vÃ¦gi":6801,"ĠsÃŃÃ°degis":6802,"Ġrekur":6803,"Ġsegjast":6804,"skaplega":6805,"ER":6806,"blik":6807,"Ġkirkju":6808,"ĠmÃ¦ld":6809,"Ġkynni":6810,"valdiÃ°":6811,"ĠGÃŃsli":6812,"Ã°ing":6813,"ĠfjÃ¶lbreytt":6814,"Ã¶gur":6815,"ĠhÃ¶nnun":6816,"ĠvÃ¶ll":6817,"ĠbeinlÃŃnis":6818,"Ġgengis":6819,"Ġdollara":6820,"RÃº":6821,"KristjÃ¡n":6822,"rÃ¦Ã°a":6823,"ÃŃfiÃ°":6824,"ĠhagkvÃ¦m":6825,"ĠÃŀÃ³rÃ°arson":6826,"gangi":6827,"drÃ¦":6828,"framleiÃ°slu":6829,"BÃ¦":6830,"Ġhreinlega":6831,"aÃ°inn":6832,"ĠBreiÃ°ablik":6833,"Ġ66":6834,"Ã¦kja":6835,"ĠÃ¡stÃ¦Ã°":6836,"Ġflugv":6837,"ĠHug":6838,"ore":6839,"ssur":6840,"yrirtÃ¦kiÃ°":6841,"ĠfÃ¶rum":6842,"ĠferÃ°aÃ¾jÃ³nustu":6843,"ĠÃºrskurÃ°ar":6844,"ĠhrÃ³":6845,"Varnar":6846,"afundi":6847,"ĠdÃ³ttir":6848,"ĠKrÃ³":6849,"helgisgÃ¦":6850,"sfl":6851,"75":6852,"ĠvariÃ°":6853,"ogg":6854,"80":6855,"Ġlanga":6856,"Ġviti":6857,"ĠmiÃ°vikudag":6858,"ĠvÃŃÃ°tÃ¦k":6859,"unina":6860,"Ġfeg":6861,"ĠverÃ°bÃ³lgu":6862,"ĠHalldÃ³rsson":6863,"stofan":6864,"Ġvirkilega":6865,"ĠleiÃ°andi":6866,"ĠsÃ³knaraÃ°ili":6867,"ĠrÃ¡Ã°stafanir":6868,"ĠTrump":6869,"ĠvinnubrÃ¶gÃ°":6870,"Ġneinum":6871,"ors":6872,"verÃ°laun":6873,"ĠreiÃ°u":6874,"ĠmÃ¶gulegt":6875,"Ġtillaga":6876,"ĠbrjÃ³ta":6877,"lista":6878,"Ã¾egar":6879,"ĠhjÃºkrunar":6880,"ĠPepsi":6881,"KÃ³re":6882,"stra":6883,"launin":6884,"ske":6885,"ĠsamtÃ¶k":6886,"Ã¡kv":6887,"ĠvÃ¡trygg":6888,"ĠathÃ¶fn":6889,"ÃŃas":6890,"ĠGrÃ¦n":6891,"orÃ°i":6892,"veitu":6893,"ĠstÃ³rkost":6894,"ĠummÃ¦li":6895,"Ġbyrjunar":6896,"ĠÃ¾riÃ°judag":6897,"ĠhÃ³pnum":6898,"Ã³tum":6899,"gerÃ°ur":6900,"Ġ95":6901,"Minn":6902,"Ã¾ekk":6903,"ĠmÃ¶rgu":6904,"Ġ1992":6905,"ljÃ³msveit":6906,"ĠRa":6907,"Ġsvarar":6908,"herjar":6909,"ilegri":6910,"ĠMag":6911,"Ġkosta":6912,"verÃ°s":6913,"Ġ49":6914,"MagnÃºs":6915,"Ġrangt":6916,"Ġverkefn":6917,"ĠvirÃ°u":6918,"kerfiÃ°":6919,"ĠÃ¡kÃ¦rÃ°u":6920,"bÃŃu":6921,"ĠevrÃ³p":6922,"Ġalmann":6923,"ĠLit":6924,"ĠHÃºsa":6925,"fÃ©lagsins":6926,"saÃ°":6927,"Ġaukast":6928,"Ġhind":6929,"ĠdÃ³msins":6930,"ĠsÃ¶gur":6931,"alda":6932,"Ġboltanum":6933,"Ġykkar":6934,"ĠbarniÃ°":6935,"Ġbankinn":6936,"ĠnÃ¡nari":6937,"ĠfrÃ©ttatilkyn":6938,"ĠGuÃ°jÃ³nsson":6939,"ĠnÃ¦stunni":6940,"ĠEvrÃ³pusambandiÃ°":6941,"ĠtÃ³":6942,"ĠFÃ©lags":6943,"sel":6944,"Ġvini":6945,"Ġkveik":6946,"ko":6947,"kenn":6948,"ĠhaustiÃ°":6949,"ĠstjÃ³rnmÃ¡laflokk":6950,"ĠslÃ³":6951,"Ġvelli":6952,"hÃºsnÃ¦Ã°i":6953,"Ġtilfellum":6954,"aÃ°arins":6955,"Ġhverja":6956,"ĠgÃ³Ã°ri":6957,"ĠHannes":6958,"ĠsÃ¦ta":6959,"Ġlandsmanna":6960,"ĠmÃ¦la":6961,"ĠkosiÃ°":6962,"ĠlÃŃfs":6963,"ĠHeil":6964,"ĠmÃ³ts":6965,"ĠrÃ¡Ã°uneyti":6966,"ĠÃºtboÃ°":6967,"ĠÃ¶flug":6968,"ĠSkÃºla":6969,"Ġforsvar":6970,"ĠBandarÃŃkin":6971,"heiÃ°i":6972,"ĠmÃ¦lt":6973,"Ġskylt":6974,"andair":6975,"ĠrÃ¦Ã°um":6976,"ĠfrÃ¡bÃ¦rt":6977,"ĠrÃ¦Ã°ur":6978,"smark":6979,"ĠGroup":6980,"ĠPÃ©tursson":6981,"ĠinnanrÃŃkis":6982,"ĠstÃ³ran":6983,"gerÃ°um":6984,"ĠHelgu":6985,"Ġeinkar":6986,"ĠfjÃ¶lgaÃ°":6987,"Hr":6988,"Mar":6989,"alaus":6990,"ĠlÃŃt":6991,"ĠframlÃ¶g":6992,"ĠÃŀorlÃ¡":6993,"amaÃ°urinn":6994,"Ġheimila":6995,"Ġ2018":6996,"Ġkynnast":6997,"ns":6998,"ĠsÃ½nist":6999,"ĠhjÃ³nin":7000,"Ġstarfar":7001,"Ġ53":7002,"ĠhÃ©rlendis":7003,"ĠÃ¡ratugi":7004,"teng":7005,"VitniÃ°":7006,"Ġspurningum":7007,"ĠkynferÃ°is":7008,"ĠskÃ¶p":7009,"ĠafleiÃ°ingum":7010,"ĠniÃ°":7011,"Ġleikmanna":7012,"ness":7013,"Ġhitti":7014,"ĠrithÃ¶f":7015,"ĠframkvÃ¦m":7016,"ĠolÃŃ":7017,"ĠumsÃ¶gn":7018,"ĠstÃ½ri":7019,"ĠstarfsmaÃ°ur":7020,"ĠTyrk":7021,"Ġlengst":7022,"Ġtreysta":7023,"ĠnÃŃ":7024,"ĠHÃ³lm":7025,"ĠframbjÃ³Ã°":7026,"VerÃ°ur":7027,"ĠfjÃ³rir":7028,"sÃ¶lu":7029,"ĠÃºrskurÃ°i":7030,"ĠSport":7031,"Grein":7032,"Ġveldur":7033,"ĠhlotiÃ°":7034,"ĠsÃ©um":7035,"Ġstigi":7036,"ĠaÃ°drag":7037,"ĠSeÃ°labankans":7038,"VarÃ°":7039,"Ġsvig":7040,"Ġrannsaka":7041,"bragÃ°":7042,"Ã°un":7043,"narl":7044,"ĠhliÃ°sjÃ³n":7045,"70":7046,"ĠtiltÃ¶lu":7047,"ĠJam":7048,"alÃ¦k":7049,"Ġskrifstof":7050,"Ġhelsta":7051,"ĠfÃ¦Ã°ingar":7052,"ĠviÃ°skiptav":7053,"Ġyfirgef":7054,"ĠsauÃ°":7055,"hÃºss":7056,"ĠÃļt":7057,"hÃ¶nd":7058,"ĠalfariÃ°":7059,"ha":7060,"jÃ³t":7061,"ĠHilmar":7062,"Vil":7063,"shÃºs":7064,"FrÃ©tt":7065,"ĠskoÃ°aÃ°":7066,"Ġverka":7067,"Ġneinn":7068,"ĠferÃ°ir":7069,"EF":7070,"jenda":7071,"ĠAir":7072,"Ġafn":7073,"ĠmorÃ°":7074,"Ġsafna":7075,"ĠÃŃbÃºar":7076,"Ġsvari":7077,"TÃ³n":7078,"aleiÃ°":7079,"Ġstofnunarinnar":7080,"ĠÃºtilok":7081,"ĠgerÃ°um":7082,"Ġhaming":7083,"ĠvÃŃÃ°ar":7084,"'s":7085,"Ġmannsins":7086,"Ġengum":7087,"ĠforstjÃ³ra":7088,"ĠEll":7089,"amp":7090,"Ġros":7091,"ĠSta":7092,"Ġstofna":7093,"Ġneinu":7094,"ĠÃºtgerÃ°":7095,"Ġheimildar":7096,"ninnar":7097,"Ġhinni":7098,"ĠÃŀorsteinn":7099,"ĠsjÃ¡lfan":7100,"EvrÃ³p":7101,"ĠhefÃ°um":7102,"Ġskulum":7103,"Ġnemenda":7104,"lÃ¡ss":7105,"ĠtungumÃ¡l":7106,"Ã¶flum":7107,"ĠÃ¾Ã¡ttur":7108,"ĠumrÃ¦Ã°ur":7109,"bann":7110,"verton":7111,"Kann":7112,"ĠaÃ°stand":7113,"Ã¶tunni":7114,"ĠÃ¡framhaldandi":7115,"ĠvarÃ°v":7116,"sagnar":7117,"off":7118,"ĠJÃ³hanna":7119,"Ġsyngja":7120,"ĠSund":7121,"Ġ41":7122,"ĠGrikk":7123,"Ġstarfsmann":7124,"Ġstrand":7125,"AÃĲ":7126,"Bre":7127,"ĠfrestaÃ°":7128,"ĠUng":7129,"Ġnei":7130,"Ġefnahagsl":7131,"ĠKanada":7132,"ĠstjÃ³ri":7133,"ĠÃºtskrif":7134,"ĠmÃ¶gulega":7135,"sstofnun":7136,"Ġungmen":7137,"utÃŃma":7138,"freÃ°":7139,"ĠBretlands":7140,"Ġskrifstofu":7141,"ĠnÃºmer":7142,"byl":7143,"Ġfimmta":7144,"Ġodd":7145,"Ġvegg":7146,"emi":7147,"ĠkynferÃ°i":7148,"Bir":7149,"ĠfriÃ°i":7150,"Ġregl":7151,"Ġeinstaka":7152,"ĠJÃ³hannesson":7153,"ĠopiÃ°":7154,"ttar":7155,"bÃºnir":7156,"ĠÃ¡stÃ¦Ã°ur":7157,"ĠÃ¾jÃ³Ã°ir":7158,"ĠtrÃ©":7159,"Ġleikurinn":7160,"starfi":7161,"ĠplÃ¶tu":7162,"sneyti":7163,"ĠÃ¾ekki":7164,"Ġafgrei":7165,"brÃºn":7166,"Ġaka":7167,"ĠrÃ©":7168,"skÃ³li":7169,"Ġleikir":7170,"ĠtillÃ¶gum":7171,"Ġ1987":7172,"ea":7173,"ĠlÃŃtur":7174,"gun":7175,"ĠBald":7176,"ĠtiltÃ¶lulega":7177,"berandi":7178,"Ãºgal":7179,"ĠÃ¡tak":7180,"lagt":7181,"AÃ°spurÃ°ur":7182,"fangs":7183,"Ã¶pp":7184,"ĠumfjÃ¶llunar":7185,"ĠÃ¾vert":7186,"ĠstuÃ°ningi":7187,"estu":7188,"lÃ¡n":7189,"Ġunnin":7190,"ĠÃ¾v":7191,"ĠÃŀeir":7192,"ĠspurÃ°ur":7193,"ĠHafnarfjarÃ°ar":7194,"Ġsamstarfs":7195,"Ġwww":7196,"Nefndin":7197,"ĠLund":7198,"ĠBÃ¦":7199,"Ġ=":7200,"Lag":7201,"ĠViÃ°ar":7202,"AF":7203,"Ġbjarga":7204,"Ãºra":7205,"Ġloknum":7206,"ĠlÃ¶greglumenn":7207,"Ġgerum":7208,"Ġstarfandi":7209,"Ġskapi":7210,"ĠHvÃŃ":7211,"Ġsameiningu":7212,"dist":7213,"erki":7214,"Ġansi":7215,"Ġ600":7216,"Ġfylgdi":7217,"MarkmiÃ°":7218,"Ġmag":7219,"ĠdÃ³mara":7220,"Ġbeggja":7221,"ĠSÃ¦var":7222,"amynd":7223,"Ġlokinni":7224,"ĠgjaldmiÃ°":7225,"Ġeflaust":7226,"iliÃ°":7227,"ĠkÃŃlÃ³metra":7228,"Ã°ra":7229,"Ġ73":7230,"ĠkÃŃlÃ³":7231,"cast":7232,"heit":7233,"ĠmÃ¦ttu":7234,"Ġeinstaklega":7235,"ĠvÃ©":7236,"dreg":7237,"Ġraunverulega":7238,"ĠÃºrslitaleik":7239,"vÃŃkingar":7240,"Ġkvikmynda":7241,"Ġgu":7242,"ĠniÃ°urstaÃ°an":7243,"Ġbygging":7244,"ĠafsÃ¶k":7245,"Ġrennur":7246,"prÃ³f":7247,"ĠstÃ¶Ã°va":7248,"Ġmeidd":7249,"Ġuppg":7250,"Engin":7251,"ĠÃ¡rabil":7252,"bama":7253,"HÃ¶fundur":7254,"Ã¡byrgÃ°":7255,"ĠkjÃ¶t":7256,"Ġhyggst":7257,"Ġaukin":7258,"ugrein":7259,"ddum":7260,"RÃ©tt":7261,"Ġennfremur":7262,"cia":7263,"ĠstjÃ¶r":7264,"ĠSigrÃºn":7265,"ĠRÃºsslandi":7266,"ĠSal":7267,"pum":7268,"hÃºsum":7269,"ĠgripiÃ°":7270,"ĠvarnaraÃ°ili":7271,"ĠskilaÃ°i":7272,"Ġ76":7273,"ĠgleÃ°":7274,"arins":7275,"urt":7276,"ĠÃ¾ingmann":7277,"ensÃŃn":7278,"bjÃ¶rnsson":7279,"ĠdÃ³":7280,"ĠmargvÃŃ":7281,"ĠhÃ¦starÃ©ttar":7282,"Ġframmist":7283,"ĠdrÃ¡ttarv":7284,"ĠbÃºist":7285,"Ġkallar":7286,"ĠHermann":7287,"Ġhlutum":7288,"Ġkvenn":7289,"smik":7290,"lo":7291,"ĠjÃ³k":7292,"Ġ64":7293,"ĠHK":7294,"ÃŃta":7295,"ĠvitniÃ°":7296,"Ġvatni":7297,"ĠÃ¡rsf":7298,"ĠgÃŃfur":7299,"Ġundanfarna":7300,"ĠÃºtgerÃ°ar":7301,"sinn":7302,"ĠaÃ°stÃ¦Ã°um":7303,"Ġ130":7304,"Ġuppfyl":7305,"ldi":7306,"ĠsniÃ°":7307,"Ġupphaflega":7308,"veÃ°":7309,"reka":7310,"Ġgeyma":7311,"ĠsÃ³":7312,"hvert":7313,"Ġvetrar":7314,"HalldÃ³r":7315,"Ġgraf":7316,"ĠAron":7317,"ĠtÃ¡k":7318,"ĠsÃ¶muleiÃ°is":7319,"Ġsamningnum":7320,"Ġhvetja":7321,"vÃŃg":7322,"hi":7323,"Ġreikna":7324,"aferÃ°":7325,"bÃ¶nd":7326,"Ġmaki":7327,"Ġ63":7328,"ĠmikilvÃ¦gi":7329,"Ġkast":7330,"Ġrannsak":7331,"ĠhafnaÃ°i":7332,"HÃ¡":7333,"aflokki":7334,"BÃ¦Ã°i":7335,"agrein":7336,"ĠskÃ¡k":7337,"Ġfluttur":7338,"Ġnetinu":7339,"ĠRafn":7340,"lat":7341,"Ġ250":7342,"samlega":7343,"ĠhljÃ³ta":7344,"afÃ©lagsins":7345,"knattleik":7346,"iggjandi":7347,"ĠendurskoÃ°a":7348,"Ã¶mm":7349,"ĠvÃ¶ld":7350,"ĠÃ³hÃ¡Ã°":7351,"ĠpÃ³st":7352,"ĠhlÃ©":7353,"ĠhÃ¦fileik":7354,"ĠbiÃ°ja":7355,"Ġgengu":7356,"ĠrÃ¡Ã°herrar":7357,"skÃ¡ld":7358,"Ġfallega":7359,"sÃ³knari":7360,"fÃ©lags":7361,"vÃ¶x":7362,"setning":7363,"Ġsamkeppnis":7364,"ĠKaupÃ¾ings":7365,"ĠlagÃ°ar":7366,"erÃŃ":7367,"Ġveitir":7368,"Ġsekt":7369,"rafa":7370,"Ġsvart":7371,"JA":7372,"ĠhÃ¦li":7373,"Ġ120":7374,"ĠfjÃ¶lskyldunni":7375,"ĠKeflavÃŃkurflug":7376,"Ġheilsug":7377,"Ġeyr":7378,"Ġslysa":7379,"ĠAndri":7380,"Ã¦rt":7381,"Ġathyglis":7382,"Ġeinang":7383,"Ġskyni":7384,"ĠtilbÃºinn":7385,"Ġnefni":7386,"ĠvÃŃg":7387,"Ġkomum":7388,"ĠheimsÃ³tt":7389,"Ġhvatt":7390,"IÃĲ":7391,"ĠgÃ¡tu":7392,"keppnis":7393,"Ġsinnt":7394,"ams":7395,"ade":7396,"ĠfÃ¶studaginn":7397,"mÃ¡li":7398,"ferÃ°um":7399,"bolt":7400,"ĠstÃ¦rsti":7401,"van":7402,"ĠfrÃ³Ã°":7403,"ĠÃ³n":7404,"ĠÃŀorsteinsson":7405,"auta":7406,"Ġafur":7407,"Ġinnflyt":7408,"Ġforeldrum":7409,"reiÃ°slu":7410,"arÃ°a":7411,"ge":7412,"Ġmak":7413,"ĠMosf":7414,"ildar":7415,"ĠÃ¡gÃ¦tlega":7416,"Ġofur":7417,"Ġstofnana":7418,"Ġly":7419,"ĠJapan":7420,"bro":7421,"ĠviÃ°kvÃ¦m":7422,"ĠrakiÃ°":7423,"ĠfimmtÃ¡n":7424,"ĠVerk":7425,"mennsku":7426,"Ġkleift":7427,"Ġbik":7428,"ĠjÃ³lin":7429,"ĠÃ¡fengi":7430,"Fer":7431,"ĠÃįA":7432,"ÃŃra":7433,"Ġ68":7434,"ĠÃ¦vi":7435,"ĠHÃ¦starÃ©tti":7436,"Ġsundur":7437,"ulltrÃºa":7438,"Ġslas":7439,"bÃºar":7440,"ĠÃ¾inn":7441,"ĠMal":7442,"ĠÃįslendingum":7443,"Ġerlenda":7444,"ddar":7445,"sjÃ³Ã°":7446,"Ġskipuleg":7447,"ĠÃŃbÃºÃ°ir":7448,"ĠsamfÃ©lagi":7449,"ĠÃ¾orsk":7450,"stÃ¶Ã°vum":7451,"ĠbÃ¦jarins":7452,"ĠBrynjar":7453,"ĠsjÃ³manna":7454,"Ġtryggingar":7455,"ĠaÃ°dÃ¡":7456,"ĠÃ¾jÃ³Ã°fÃ©laginu":7457,"innu":7458,"ĠÃĿ":7459,"Ġsunnudaginn":7460,"ĠmÃ³tt":7461,"Ġsil":7462,"ĠhÃ¡ttsemi":7463,"Ãŀeim":7464,"fund":7465,"Ġformanns":7466,"smÃ¡la":7467,"HÃºs":7468,"ĠsvÃ¦Ã°um":7469,"ĠÃ¾Ã½Ã°ingu":7470,"ĠlandsliÃ°inu":7471,"Ġbros":7472,"Ġhrepp":7473,"Ġsyn":7474,"ĠSvavar":7475,"arson":7476,"ĠÃ¡skor":7477,"Ġtexta":7478,"ĠÃ¡berandi":7479,"HjÃ¡":7480,"ĠlandsbyggÃ°inni":7481,"ĠLÃŃ":7482,"ĠtÃŃmabiliÃ°":7483,"ĠÃŀorlÃ¡k":7484,"Ġvatns":7485,"ĠKaupmannahÃ¶fn":7486,"vinna":7487,"ĠFran":7488,"ĠnÃ¡mu":7489,"ĠÃ¾rÃ½st":7490,"âĢĵ":7491,"tÃ¶kur":7492,"Ġvinir":7493,"HÃ¦gt":7494,"vÃ¶rum":7495,"ĠReykjavÃŃkurborgar":7496,"Ġker":7497,"Ġaugu":7498,"ĠnÃ¡ms":7499,"ĠÃĸr":7500,"Ġfylgst":7501,"leikur":7502,"ĠhÃ¡degi":7503,"ĠmÃ¶mmu":7504,"ĠsÃ¦t":7505,"ndan":7506,"yrkja":7507,"Ġdanska":7508,"ĠleiÃ°rÃ©tt":7509,"ĠAtli":7510,"ĠÃ³t":7511,"Ġmunn":7512,"Ġkyrr":7513,"Ste":7514,"Ġbankanum":7515,"ĠviÃ°horf":7516,"JÃ¡":7517,"ĠundanÃºrslit":7518,"ĠJÃ³nasson":7519,"LjÃ³st":7520,"anak":7521,"ĠIcelandair":7522,"ovic":7523,"ĠtÃ¶ldu":7524,"afer":7525,"ĠÃŃslenskri":7526,"katt":7527,"Ġheita":7528,"ĠfjÃ¡rlaga":7529,"leys":7530,"stÃ½r":7531,"aÃ°num":7532,"rin":7533,"Ġvissu":7534,"Ġdeila":7535,"ĠbrÃ¡Ã°abirgÃ°a":7536,"Ġ74":7537,"ĠverÃ°mÃ¦":7538,"legrar":7539,"EN":7540,"ony":7541,"skjÃ¶r":7542,"tunar":7543,"stofunnar":7544,"ier":7545,"ipp":7546,"ĠleiÃ°to":7547,"ending":7548,"Ġmanninn":7549,"Ġskilning":7550,"gjar":7551,"virkjunar":7552,"Ġkrepp":7553,"Ġanda":7554,"Ġflokkurinn":7555,"ettir":7556,"atna":7557,"sveitir":7558,"verÃ°ur":7559,"ĠhÃ©raÃ°":7560,"olla":7561,"kerfinu":7562,"Ġalmanna":7563,"ĠfrÃ¦n":7564,"Ġminnis":7565,"ĠfrÃ©ttatilkynningu":7566,"ĠnafniÃ°":7567,"ela":7568,"ĠhÃ³":7569,"Ġhrif":7570,"Ġ78":7571,"ildum":7572,"erni":7573,"stral":7574,"Ġsvon":7575,"meti":7576,"ĠnÃ½tingu":7577,"ĠÃ¡liti":7578,"ĠfrjÃ¡ls":7579,"ĠvÃŃkja":7580,"ĠHvaÃ°":7581,"RÃŃk":7582,"myndir":7583,"Ġ1988":7584,"jÃ³ti":7585,"aviÃ°":7586,"ĠSigfÃºsson":7587,"veik":7588,"rÃ¦nu":7589,"ĠsamgÃ¶ngur":7590,"astofnun":7591,"Ġgreininni":7592,"Hef":7593,"ĠSviss":7594,"ĠvandrÃ¦Ã°um":7595,"ĠnÃ¦stum":7596,"ĠrÃŃkjum":7597,"verÃ°ar":7598,"ĠliÃ°um":7599,"Ġkynntist":7600,"ĠaÃ°far":7601,"ĠhÃ¶ggum":7602,"Ġuppli":7603,"Ġskera":7604,"ĠSan":7605,"ĠÃ³ljÃ³":7606,"vÃ¶l":7607,"Ġevra":7608,"ĠMeÃ°":7609,"bÃŃÃ³":7610,"Ġinnanlands":7611,"Ġfly":7612,"falli":7613,"ĠstjÃ³rnarflokk":7614,"Fimm":7615,"ĠCol":7616,"bÃºiÃ°":7617,"sly":7618,"Ġbjuggu":7619,"Ġstopp":7620,"ĠLax":7621,"Ġ77":7622,"ĠLandhelgisgÃ¦":7623,"Ġskaut":7624,"ĠbÃ³kinni":7625,"mennirnir":7626,"int":7627,"ĠundanÃ¾Ã¡":7628,"Ġtog":7629,"Ã©kk":7630,"Ġsaga":7631,"ĠmÃ¡laflokk":7632,"ĠHval":7633,"ĠfjÃ¡rlÃ¶gum":7634,"65":7635,"Ġhafna":7636,"ĠStur":7637,"Ġraunveru":7638,"Ġleitar":7639,"ĠÃ¦fing":7640,"ĠbensÃŃn":7641,"ĠÃ¾skj":7642,"ĠfjÃ¶lskyldan":7643,"rÃ©ttis":7644,"MÃ¡":7645,"ilÃŃf":7646,"ĠÃ¾jÃ³Ã°inni":7647,"linu":7648,"Karl":7649,"ĠÃ¾rey":7650,"ĠfjÃ¡rmÃ¡la":7651,"ĠHÃ¶r":7652,"ĠmÃ¡lefnum":7653,"fÃ©lagi":7654,"avÃ©l":7655,"ĠrÃ©ttur":7656,"Ġtalar":7657,"hÃ¡skÃ³la":7658,"bÃºnaÃ°i":7659,"ĠreiknaÃ°":7660,"Ġdregur":7661,"Ġsanna":7662,"ĠSteinar":7663,"ÃŃÃ°um":7664,"ĠjÃ¶f":7665,"Ġsakna":7666,"Ġheill":7667,"ĠleikmÃ¶nnum":7668,"ĠlÃŃfeyris":7669,"Ġskylda":7670,"ĠnÃ¦tur":7671,"ĠlÃŃfsins":7672,"ĠÃ³sann":7673,"arÃ¶Ã°":7674,"ensen":7675,"ĠtÃŃmanum":7676,"ĠSamtaka":7677,"ugt":7678,"Ġbirti":7679,"ĠkÃ¦ru":7680,"Ġefa":7681,"OR":7682,"Ġunglinga":7683,"ĠfjÃ¶lga":7684,"Ġ1989":7685,"ĠEftir":7686,"ĠÃ¾Ã½ska":7687,"ĠMenn":7688,"Fyrsta":7689,"Ġsamningsins":7690,"ĠfÃ©l":7691,"ĠÃ¶rfÃ¡":7692,"ÃŃnar":7693,"eymi":7694,"verÃ°a":7695,"Ġsamtakanna":7696,"Ġlenda":7697,"ĠtÃ¶lum":7698,"alÃ¡nas":7699,"Ġku":7700,"skjal":7701,"entu":7702,"ĠfurÃ°u":7703,"ĠBandarÃŃkja":7704,"eiÃ°ar":7705,"Ġhverfa":7706,"Ġ52":7707,"Ġpar":7708,"Ġprent":7709,"ĠfÃ³rnarl":7710,"Ã°iÃ°":7711,"ĠrekiÃ°":7712,"rÃŃÃ°i":7713,"ĠASÃį":7714,"yp":7715,"ĠstjÃ³rnendur":7716,"Ġdrykk":7717,"ino":7718,"ĠEF":7719,"Ġeitthvert":7720,"speg":7721,"ĠmarkmiÃ°i":7722,"ĠRobert":7723,"Ãºli":7724,"uninni":7725,"Ġmetin":7726,"ĠhjÃºkrunarfrÃ¦Ã°":7727,"ĠBrasil":7728,"Helgi":7729,"ĠReykjanesbÃ¦":7730,"ĠÃŃslenskir":7731,"ĠstÃŃga":7732,"ĠskjÃ³l":7733,"ĠtjÃ³ni":7734,"Ġstarfsem":7735,"ĠtrÃºar":7736,"ĠÃįslandsbanka":7737,"ĠrÃŃkir":7738,"ĠbrÃ³Ã°ur":7739,"Ġundantek":7740,"skÃ¡l":7741,"ĠstjÃ³rna":7742,"ĠlÃ¦kkaÃ°i":7743,"Ġkeyra":7744,"ĠGrund":7745,"SagÃ°i":7746,"ĠorÃ°i":7747,"ĠÃĸn":7748,"ĠsamhliÃ°a":7749,"Ġgjaf":7750,"kall":7751,"ĠskÃ¡":7752,"ĠÃ¡kveÃ°na":7753,"Fyrst":7754,"ĠLang":7755,"ĠstÃ¶Ã°una":7756,"Ã¦rÃ°":7757,"form":7758,"huga":7759,"naÃ°urinn":7760,"Ġ84":7761,"Hlu":7762,"ĠumsÃ¦k":7763,"ĠÃ¾Ã¦g":7764,"stjÃ³rnin":7765,"tugs":7766,"Ġkjarnorku":7767,"Ġeini":7768,"ĠÃ¡Ã¦tlaÃ°":7769,"Ġkrafti":7770,"ĠSil":7771,"Ġtilskip":7772,"ĠfjÃ³rÃ°ung":7773,"ĠatkvÃ¦Ã°a":7774,"Ġhverri":7775,"ashington":7776,"supp":7777,"ĠaÃ°stoÃ°a":7778,"Ã¡ttum":7779,"StefÃ¡n":7780,"Ġ1940":7781,"eyg":7782,"Ġ72":7783,"Ġflokks":7784,"Ġvonir":7785,"tus":7786,"ĠkjÃ¶rdÃ¦m":7787,"Ġforn":7788,"Sumir":7789,"Borg":7790,"lingur":7791,"ĠÃģlf":7792,"ĠstÃ¦Ã°i":7793,"ĠPat":7794,"ĠleiÃ°bein":7795,"Ġhamingju":7796,"Ġ@":7797,"eigendur":7798,"ĠHÃºn":7799,"Ġsvefn":7800,"ĠAlÃ¾jÃ³Ã°a":7801,"rÃºnu":7802,"Ġmyndast":7803,"Ġskyldur":7804,"ĠMi":7805,"sfor":7806,"flutningur":7807,"by":7808,"AnnaÃ°":7809,"ĠSveinn":7810,"Ġmisskil":7811,"als":7812,"reglur":7813,"vÃŃsun":7814,"Ġeinasta":7815,"ĠLind":7816,"ĠrannsÃ³kna":7817,"bÃ¦num":7818,"atur":7819,"ĠaÃ°draganda":7820,"ĠgjÃ¶f":7821,"Ġ800":7822,"ĠBygg":7823,"ĠskÃ³lann":7824,"Ġmyndin":7825,"legs":7826,"lÃ¶f":7827,"ĠslÃŃkra":7828,"ĠÃ¶Ã°last":7829,"ĠliÃ°num":7830,"sgrein":7831,"jÃºkra":7832,"Ġbirta":7833,"Ġkrabbamein":7834,"ĠliÃ°anna":7835,"ĠviÃ°urkenna":7836,"ĠlÃŃnu":7837,"be":7838,"Ġopinberum":7839,"Ġkosningum":7840,"jÃ¶ri":7841,"Ġbit":7842,"atriÃ°um":7843,"ĠGunnlaugsson":7844,"slynd":7845,"ĠfarÃ¾ega":7846,"ĠEvrÃ³pusambandinu":7847,"ĠlÃ¦gra":7848,"ĠfrumkvÃ¦Ã°i":7849,"Ã³na":7850,"lausn":7851,"Ġstraum":7852,"Ã¸":7853,"Ġbreytinga":7854,"ĠlÃ¦":7855,"Ġframundan":7856,"lingum":7857,"ĠRom":7858,"ĠÃºttekt":7859,"rÃ¡Ã°uneytisins":7860,"Ġkeppa":7861,"bÃºÃ°alÃ¡nas":7862,"ĠÃ³lÃ¶gmÃ¦":7863,"arfram":7864,"Ġvellinum":7865,"Ġhelgar":7866,"merÃŃku":7867,"ĠPh":7868,"ĠtÃŃmarit":7869,"ĠuppgjÃ¶r":7870,"ÃŃni":7871,"Ġtali":7872,"ĠbÃ¦ti":7873,"ĠmiÃ°borg":7874,"ĠÃ¡t":7875,"ĠbÃ¦nda":7876,"ren":7877,"ĠgrundvÃ¶ll":7878,"ĠsÃ¡rt":7879,"Ġstefnir":7880,"Ġsatt":7881,"ĠkvÃ¶ldiÃ°":7882,"ĠframleiÃ°a":7883,"Ġfrelsi":7884,"ulltrÃºar":7885,"tic":7886,"Ġhandknattleik":7887,"ĠviÃ°urkennt":7888,"Ġ59":7889,"ĠsÃ½ningu":7890,"ĠnÃ½skÃ¶p":7891,"ink":7892,"castle":7893,"ĠFÃ³t":7894,"ach":7895,"cher":7896,"ĠgreiÃ°slum":7897,"ĠvÃŃn":7898,"ĠÃ¦fa":7899,"dÃ³ma":7900,"ĠsÃ¦tiÃ°":7901,"ĠBirna":7902,"Ġskug":7903,"Ġeinkenn":7904,"slug":7905,"AÃ°eins":7906,"las":7907,"Ġspurningu":7908,"amÃŃn":7909,"Ġ^":7910,"ĠslÃŃkri":7911,"kirkju":7912,"ĠsjÃ³n":7913,"ĠtrÃºnaÃ°ar":7914,"ĠstÃŃl":7915,"blaÃ°iÃ°":7916,"Ġhreint":7917,"ĠframkvÃ¦mdum":7918,"ĠvinnumarkaÃ°i":7919,"ĠLo":7920,"sÃ¾jÃ¡lf":7921,"ĠsvipaÃ°":7922,"ĠsÃ³larhring":7923,"Ġbless":7924,"ĠfjÃ¶lskyldur":7925,"rad":7926,"ĠÃ³vÃ¦nt":7927,"Ġ69":7928,"ningurinn":7929,"ĠLeif":7930,"Ġgefi":7931,"ĠhÃ¦st":7932,"afjÃ¡r":7933,"hlÃ©":7934,"Ã³Ã°ar":7935,"Ġundank":7936,"ĠskÃ½ringar":7937,"ĠMilan":7938,"ĠfÃ³lksins":7939,"ĠVilla":7940,"angi":7941,"Ġbro":7942,"Ġnorska":7943,"Ġfresta":7944,"ĠBreta":7945,"ĠMichael":7946,"ĠkÃŃnver":7947,"herja":7948,"ĠÃ³Ã¡nÃ¦g":7949,"ĠtilbÃºin":7950,"Ġgeim":7951,"Ġvina":7952,"sstjÃ³ri":7953,"ĠSuÃ°urlands":7954,"ĠfÃ³stur":7955,"ĠfÃ¦rÃ°":7956,"ĠÃ³sam":7957,"Ġalmenningi":7958,"ĠdÃ³mst":7959,"hagsm":7960,"ĠbrÃ³Ã°ir":7961,"Ġtjald":7962,"Ġspill":7963,"ĠskipiÃ°":7964,"skjÃ¡lf":7965,"rÃ¡Ã°uneytiÃ°":7966,"Ġfermet":7967,"ĠValdimar":7968,"ĠEverton":7969,"Ġneina":7970,"Mun":7971,"Ġeinstakra":7972,"ĠElÃŃs":7973,"ĠÃŀÃ³rs":7974,"ĠskjÃ¡lf":7975,"ĠfÃ©llu":7976,"lympÃŃ":7977,"GuÃ°rÃºn":7978,"own":7979,"nesk":7980,"ĠHÃ©raÃ°sdÃ³ms":7981,"ĠstjÃ³rnvÃ¶ldum":7982,"rÃ³f":7983,"Ġeignarhald":7984,"ĠsÃ³tti":7985,"mikiÃ°":7986,"Ã³tak":7987,"Ġvinum":7988,"ĠsjÃ¡lfa":7989,"Ġbikar":7990,"eitur":7991,"fisk":7992,"MikiÃ°":7993,"ĠkveÃ°ja":7994,"ĠhÃ³fust":7995,"ĠÃļkra":7996,"Ġhval":7997,"les":7998,"Har":7999,"ĠGre":8000,"ĠvÃŃsb":8001,"Ã¦rri":8002,"ĠfÃ©lagsmÃ¡l":8003,"greina":8004,"ĠskjÃ³ta":8005,"ĠsÃ¦r":8006,"rÃ¦Ã°slu":8007,"ĠlÃ¡tin":8008,"Ġhlutinn":8009,"ĠfrÃ¦Ã°i":8010,"ĠaugljÃ³st":8011,"ON":8012,"aft":8013,"outh":8014,"Ġlaunum":8015,"illinn":8016,"Ġhross":8017,"bs":8018,"Ġafhent":8019,"ĠfjÃ¶lskylda":8020,"Ġkarlar":8021,"LeiÃ°":8022,"jÃ¡kvÃ¦m":8023,"ĠrÃŃflega":8024,"ĠfrÃ©ttastofu":8025,"ĠtÃŃsku":8026,"ĠkvÃ¦n":8027,"arÃŃk":8028,"atil":8029,"ĠLÃ¶g":8030,"ĠfjÃ¶lmiÃ°lar":8031,"ĠboÃ°a":8032,"eÃ°labanka":8033,"ĠlagÃ°ur":8034,"Ġtekst":8035,"eignar":8036,"ĠÃ¦sku":8037,"eistarati":8038,"Ġleikk":8039,"undurinn":8040,"Ġhelming":8041,"ĠpÃŃan":8042,"FjÃ³r":8043,"ĠÃºtgjÃ¶ld":8044,"ilegra":8045,"ĠkÃ¶lluÃ°":8046,"gerÃ°a":8047,"ĠleiÃ°i":8048,"ĠbrugÃ°ist":8049,"byrÃ°i":8050,"ĠsnÃºiÃ°":8051,"Kannski":8052,"nef":8053,"ĠgÃ³Ã°ir":8054,"ĠlÃ¡nveit":8055,"ĠviÃ°fangs":8056,"Ġmunur":8057,"ĠAndre":8058,"ĠÃ³skaÃ°i":8059,"Kl":8060,"rÃ¶Ã°":8061,"Ġkirkjunnar":8062,"Ã¡lykt":8063,"firÃ°":8064,"ĠgÃ³Ã°s":8065,"ĠÃ¾Ã¡verandi":8066,"Ã³bert":8067,"ĠsÃ¦tt":8068,"jÃ¡rn":8069,"Ġ1980":8070,"ĠSkip":8071,"Ġminning":8072,"Ġegg":8073,"ĠÃ½mist":8074,"Ung":8075,"ĠafstaÃ°a":8076,"ĠÃ¡kveÃ°nar":8077,"Ġtalsins":8078,"samningi":8079,"Ġ86":8080,"stfl":8081,"ĠDaily":8082,"Ġrosalega":8083,"Ġsvonefnd":8084,"UN":8085,"nuÃ°ust":8086,"ĠÃ½msa":8087,"ĠnÃ¡grenni":8088,"Ġendurspeg":8089,"ĠNjarÃ°vÃŃk":8090,"ĠÃŀÃ¡":8091,"atti":8092,"The":8093,"kunar":8094,"Ġtann":8095,"ĠStr":8096,"ĠTwitter":8097,"ĠframkvÃ¦mdar":8098,"akerfi":8099,"rast":8100,"Ġafkomu":8101,"ĠrÃºmum":8102,"stuÃ°":8103,"Ã¡Ã°s":8104,"Ġfullum":8105,"ĠlÃ¶ng":8106,"Ġtekjuskatt":8107,"ĠSc":8108,"Ġfundum":8109,"ĠAngel":8110,"vÃ¦n":8111,"skatti":8112,"Ġaukning":8113,"yndÃŃs":8114,"ĠÃ¾ak":8115,"Ġ62":8116,"ĠsamrÃ¡Ã°i":8117,"ungiÃ°":8118,"ĠAusturlandi":8119,"hvort":8120,"Sama":8121,"ĠMu":8122,"Ġfundinn":8123,"FrÃº":8124,"34":8125,"Ġork":8126,"reglum":8127,"valdi":8128,"Ġsli":8129,"ĠmetiÃ°":8130,"Eru":8131,"ĠFI":8132,"ĠsvokÃ¶llu":8133,"Ã¾Ã¦tt":8134,"leiÃ°is":8135,"tas":8136,"ĠAd":8137,"Ger":8138,"ĠfjÃ¡rmÃ¡larÃ¡Ã°":8139,"Ã¶rÃ°un":8140,"Ã¾rÃ³tt":8141,"ĠÃ³lst":8142,"ĠalÃ¾":8143,"ĠsÃ½nd":8144,"rÃ¦tt":8145,"vellinum":8146,"ĠbÃºi":8147,"Ġsaum":8148,"verÃ°um":8149,"Ġeldsneyti":8150,"ĠgÃ¦tt":8151,"ĠPaul":8152,"ĠskerÃ°":8153,"liÃ°ar":8154,"unandi":8155,"ĠSiglu":8156,"ĠBay":8157,"ĠnÃ½justu":8158,"ĠLÃº":8159,"ĠÃ¾eg":8160,"ĠHol":8161,"Ġtilgreind":8162,"Ġsameiginlega":8163,"ĠstuÃ°ningsmenn":8164,"hafar":8165,"ĠsamtÃŃm":8166,"ĠHeiÃ°ar":8167,"Ġafskaplega":8168,"ĠÃºtflutning":8169,"ĠafsÃ¶kunar":8170,"ĠumrÃ¦Ã°um":8171,"ĠGrÃ©tar":8172,"ĠrÃŃkisborg":8173,"ĠBÃŃ":8174,"pan":8175,"36":8176,"ĠsÃ¶gunnar":8177,"ĠmÃŃnar":8178,"Ġhit":8179,"ĠBush":8180,"ĠKal":8181,"ĠLandspÃŃtalans":8182,"Gert":8183,"leiÃ°a":8184,"ĠkveÃ°a":8185,"aÃ°gerÃ°ir":8186,"ĠsveitarfÃ©lÃ¶gin":8187,"Ġbana":8188,"Ġutanr":8189,"Ã©t":8190,"ĠframkvÃ¦ma":8191,"ĠjÃ³kst":8192,"ĠTimes":8193,"ĠBragi":8194,"fyrir":8195,"Ġtru":8196,"ĠÃĵlafsdÃ³ttir":8197,"Heild":8198,"ĠmeÃ°li":8199,"ĠÃŃbÃºÃ°a":8200,"Ã¡tÃŃÃ°ar":8201,"ĠveiÃ°ar":8202,"Ġfyrirspurn":8203,"Ġmundu":8204,"sÃ¡Ã¦tl":8205,"ĠBirgi":8206,"ĠÃ¶lv":8207,"rÃ©ttindi":8208,"ĠFoss":8209,"Ġâ":8210,"ĠbÃŃlum":8211,"Ġvonum":8212,"Ġreisa":8213,"stefnd":8214,"ĠmÃ³tmÃ¦lt":8215,"stoÃ°":8216,"Ġaftan":8217,"ĠniÃ°ri":8218,"Ġtelst":8219,"ĠSkot":8220,"ĠskÃ³g":8221,"ĠBarna":8222,"Bandar":8223,"ĠviÃ°sk":8224,"afjÃ¶l":8225,"ĠsÃŃÃ°astliÃ°num":8226,"Ġburt":8227,"ĠsnÃ½r":8228,"ĠskotiÃ°":8229,"Ġbankar":8230,"shÃ¶f":8231,"ĠfjÃ¶lskyldum":8232,"ĠdÃ½p":8233,"ĠfÃ¡st":8234,"Ġsof":8235,"Bl":8236,"ĠmÃ¡lskostnaÃ°ar":8237,"ĠÃ¡Ã¦tlanir":8238,"Ġnefnir":8239,"Ġkomnar":8240,"Ġpabba":8241,"Ġkosninga":8242,"Ã¦riÃ°":8243,"Ġvalinn":8244,"ĠverÃ°iÃ°":8245,"Ãĸnnur":8246,"aris":8247,"alau":8248,"ĠLauga":8249,"ĠÃ¡tÃ¶k":8250,"ban":8251,"meÃ°ferÃ°":8252,"Ġhelmingur":8253,"ĠÃ¡hugi":8254,"ÃģstÃ¦Ã°an":8255,"ĠheilbrigÃ°isk":8256,"Ġdvel":8257,"Ġsein":8258,"Forseti":8259,"ĠHen":8260,"tanir":8261,"Ġforgangs":8262,"Ã³lum":8263,"ĠÃ¾jÃ³nusta":8264,"skÃ³":8265,"ldar":8266,"abet":8267,"ĠblaÃ°iÃ°":8268,"pr":8269,"tans":8270,"jÃºka":8271,"xel":8272,"ĠNorÃ°urlÃ¶nd":8273,"Ġatvinnuleysi":8274,"Ġbeinni":8275,"Ã¦Ã°u":8276,"ÃŃmi":8277,"red":8278,"Ġ51":8279,"ĠstjÃ³rnarformaÃ°ur":8280,"ĠbÃ¡Ã°ar":8281,"vog":8282,"VerÃ°i":8283,"beiÃ°":8284,"ĠklÃ¦":8285,"ĠkrÃ³nu":8286,"agr":8287,"ĠMari":8288,"VarÃ°andi":8289,"Ġson":8290,"Ġtegund":8291,"ĠviÃ°skiptar":8292,"svif":8293,"ĠÃ¡ratugum":8294,"ĠgjÃ¶ld":8295,"ĠbÃ³kmenn":8296,"ĠumsÃ³kn":8297,"ĠÃįbÃºÃ°alÃ¡nas":8298,"ĠopnaÃ°":8299,"Ġreynir":8300,"ĠStÃ¶Ã°":8301,"Ġbilinu":8302,"ĠGuÃ°ni":8303,"ĠElÃŃn":8304,"ÃŀjÃ³Ã°":8305,"Ġkynnti":8306,"bolti":8307,"FramkvÃ¦md":8308,"ĠvÃ¶xtum":8309,"Ġopinberlega":8310,"Ġendanum":8311,"Ġsnertir":8312,"spek":8313,"anlegur":8314,"leit":8315,"skrÃ¡r":8316,"ĠnÃ½veriÃ°":8317,"Ġhress":8318,"Ġlokin":8319,"IRK":8320,"oru":8321,"lunum":8322,"sj":8323,"ĠslÃ¦mt":8324,"ĠFrank":8325,"38":8326,"Ġmyndina":8327,"ĠÃ³hjÃ¡kvÃ¦m":8328,"ningarf":8329,"Ġeiginkonu":8330,"veiÃ°i":8331,"afÃ©lÃ¶g":8332,"ferÃ°ir":8333,"Ġfynd":8334,"ĠgÃ¡fu":8335,"ĠfjÃ¶lgun":8336,"gengni":8337,"hjÃ³":8338,"Ġumdeild":8339,"myndin":8340,"ĠsÃ©rstÃ¶kum":8341,"Ã¤":8342,"ĠmarkaÃ°ss":8343,"ĠHÃ¶f":8344,"reif":8345,"ssi":8346,"Ġdau":8347,"anlegar":8348,"LL":8349,"rinu":8350,"ĠeinstÃ¶k":8351,"ĠframsÃ³knar":8352,"ĠstÃ³riÃ°":8353,"ĠÃ¾itt":8354,"ĠfjÃ¡rfesting":8355,"Ã³lmi":8356,"Ġeftirspurn":8357,"Ġgos":8358,"rÃ¡Ã°her":8359,"ĠBru":8360,"ĠbyggÃ°a":8361,"Ġgolf":8362,"ĠObama":8363,"gin":8364,"ĠnÃ½tur":8365,"ĠDanÃŃel":8366,"ĠGarÃ°abÃ¦":8367,"rÃºnar":8368,"exÃŃk":8369,"ĠPalestÃŃnum":8370,"ĠsÃ©rfrÃ¦Ã°inga":8371,"tv":8372,"PÃ¡ll":8373,"ĠdjÃºp":8374,"ĠStef":8375,"ĠÃģstral":8376,"ĠtapaÃ°":8377,"ĠII":8378,"ĠSmÃ¡ri":8379,"55":8380,"arph":8381,"ĠverÃ°brÃ©f":8382,"ĠEur":8383,"Ġhinar":8384,"Ġeinstaklingum":8385,"ĠFisk":8386,"bÃºÃ°ir":8387,"ĠEFTA":8388,"StÃ³r":8389,"Ġminnir":8390,"rÃ¦Ã°u":8391,"ĠhÃ¶fÃ°um":8392,"hÃ¡l":8393,"Ġnk":8394,"arphÃ©Ã°":8395,"skri":8396,"wood":8397,"ĠWashington":8398,"ĠJÃ³ni":8399,"ĠfÃ¦tur":8400,"ĠhÃ³pinn":8401,"ĠlandsliÃ°sins":8402,"ystk":8403,"ĠkallaÃ°i":8404,"smeÃ°ferÃ°":8405,"ĠGlitnis":8406,"Ġlifandi":8407,"ĠsvokallaÃ°":8408,"ĠArnÃ³r":8409,"Ġstundu":8410,"ĠkerfiÃ°":8411,"ĠneitaÃ°":8412,"ĠtalsmaÃ°ur":8413,"Ġnu":8414,"Ġ87":8415,"nuÃ°um":8416,"Ġheiminn":8417,"Ġkonung":8418,"ĠTom":8419,"rÃ¡Ã°uneytinu":8420,"ĠrannsÃ³knum":8421,"ĠframhaldsskÃ³la":8422,"strÃ¶nd":8423,"ĠhÃºÃ°":8424,"tÃ¦kni":8425,"ĠmiÃ°n":8426,"ĠTa":8427,"Ġendanlega":8428,"ĠhÃ¡ttar":8429,"Ġveitti":8430,"ĠÃ³viÃ°":8431,"ones":8432,"ĠHo":8433,"ĠmÃºsl":8434,"Ġgir":8435,"stÃ¶Ã°ina":8436,"ĠsamfÃ©lagiÃ°":8437,"Ġformann":8438,"Ã¶tuna":8439,"slÃ¶greglu":8440,"ĠÃ¡standi":8441,"heimildir":8442,"tÃ³":8443,"lingu":8444,"ĠTil":8445,"Ġskipulags":8446,"ĠmÃ³tiÃ°":8447,"Ġsj":8448,"Ġlek":8449,"ĠgrÃ¦nna":8450,"ĠsÃ¶gÃ°":8451,"ĠAtlant":8452,"afÃ©lagiÃ°":8453,"fÃ©laga":8454,"ĠeÃ°lilega":8455,"Ġafsl":8456,"ĠfÃ¡tt":8457,"ĠstjÃ³rnarandstÃ¶Ã°":8458,"ĠfÃ¦ddur":8459,"Ġungur":8460,"Ġinnflutning":8461,"ĠKÃ¡ri":8462,"ĠÃ¶nd":8463,"Ġbreytast":8464,"verÃ°iÃ°":8465,"ĠseÃ°labank":8466,"ĠÃŀorsteins":8467,"Ġtilfelli":8468,"ĠÃ¡rsfjÃ³rÃ°ung":8469,"ĠkynslÃ³Ã°":8470,"eysis":8471,"ion":8472,"bÃºnaÃ°ur":8473,"ĠskiptiÃ°":8474,"Ġfundust":8475,"44":8476,"ilegan":8477,"ĠSw":8478,"Ã³knum":8479,"ĠvoriÃ°":8480,"Ġalmenningur":8481,"grip":8482,"ĠbarnabÃ¶rn":8483,"ĠsjÃºklinga":8484,"imp":8485,"Ġatvikum":8486,"ĠÃ¡greiningur":8487,"brÃº":8488,"ĠbÃŃlinn":8489,"ĠmilljarÃ°":8490,"ĠÃ½msir":8491,"Ġskemmti":8492,"ĠÃĵli":8493,"Mat":8494,"Ġgestir":8495,"Flestir":8496,"Ġsu":8497,"bÃºÃ°um":8498,"Ġfangelsis":8499,"vÃ¶llur":8500,"jinn":8501,"bra":8502,"reisn":8503,"ĠhÃ¶fÃ°i":8504,"nefnda":8505,"ĠReykjavÃŃkurborg":8506,"ĠÃ¡stÃ¦Ã°an":8507,"rans":8508,"setningar":8509,"ĠLilja":8510,"Flug":8511,"brÃ¶gÃ°um":8512,"ĠJÃ³hanns":8513,"ĠmeÃ°vit":8514,"ĠeinstÃ¶kum":8515,"virki":8516,"Loks":8517,"ĠÃ¾ykja":8518,"ĠsÃ½ningunni":8519,"ĠSuÃ°urlandi":8520,"ĠAra":8521,"ferÃ°a":8522,"aÃ°ilum":8523,"Ġskapast":8524,"Ġon":8525,"ĠrÃŃkissjÃ³Ã°":8526,"ĠBri":8527,"ĠviÃ°sta":8528,"afÃ³lks":8529,"seta":8530,"ĠVG":8531,"Ġflytur":8532,"ĠLandsbanka":8533,"Ġhugmyndum":8534,"kynhneig":8535,"Ġella":8536,"Ġgamli":8537,"Ġknattspyr":8538,"der":8539,"ĠaldraÃ°":8540,"ĠAlÃ¾jÃ³Ã°":8541,"Jo":8542,"Ġlifir":8543,"Honum":8544,"37":8545,"ardi":8546,"za":8547,"ĠtÃŃÃ°ina":8548,"ennd":8549,"sleiÃ°":8550,"ĠleiÃ°arl":8551,"Ġfjarri":8552,"ĠHaukur":8553,"Ġleyst":8554,"Ãŀessu":8555,"BÃ³k":8556,"bik":8557,"ĠgÃ¶tu":8558,"Ġheimsins":8559,"ĠÃ³vissu":8560,"Ġfinni":8561,"List":8562,"ĠJames":8563,"ĠBlÃ¶ndal":8564,"ĠlÃ¡nsf":8565,"indast":8566,"veiÃ°ar":8567,"ĠspÃ¡Ã°":8568,"augar":8569,"Okkur":8570,"ĠBaldvin":8571,"erkja":8572,"ĠfatlaÃ°":8573,"ĠtÃŃmabundiÃ°":8574,"Kaup":8575,"gert":8576,"ĠlÃ¡num":8577,"Ġaldrinum":8578,"ĠGylfi":8579,"ĠskÃ¡l":8580,"ĠÃŀar":8581,"akist":8582,"Ġhefir":8583,"ĠHollandi":8584,"Am":8585,"ofnanir":8586,"stjÃ³rans":8587,"Ã³nÃŃu":8588,"ĠLÃŃf":8589,"Ġsyngur":8590,"ĠÃĵmar":8591,"ĠrÃ¡Ã°inn":8592,"ĠÃºtgef":8593,"ĠGrÃ³":8594,"Ġvextir":8595,"Ġpari":8596,"Ġeitur":8597,"Ġgegna":8598,"Ġvernda":8599,"ĠheyrÃ°i":8600,"ĠKÃ³pavogs":8601,"StaÃ°an":8602,"ĠSamkeppnis":8603,"ATO":8604,"ĠHans":8605,"ĠList":8606,"ĠtÃ½":8607,"slegar":8608,"Ġheimamenn":8609,"Ġhermenn":8610,"ustan":8611,"SÃŃÃ°ar":8612,"ĠkÃ¦rÃ°i":8613,"Ã³ginn":8614,"ĠhlutabrÃ©fa":8615,"Kat":8616,"ĠhÃ¶fÃ°aÃ°":8617,"bÃ¦ra":8618,"ĠrÃ¡Ã°uneytisins":8619,"slaus":8620,"liÃ°inu":8621,"Ġvikna":8622,"ĠniÃ°urstÃ¶Ã°um":8623,"ĠRauÃ°a":8624,"ĠstÃ¶kk":8625,"ĠbÃ¶rnunum":8626,"Ġloksins":8627,"95":8628,"Ġdaglega":8629,"ĠlÃ¡gu":8630,"ĠsÃ©rlega":8631,"jÃ³lfur":8632,"ĠheimsÃ¦kja":8633,"sambands":8634,"ĠgrunnskÃ³l":8635,"Ġnef":8636,"sker":8637,"ĠsamÃºÃ°":8638,"Ġfluttu":8639,"ĠsamgÃ¶ngu":8640,"ĠtakmÃ¶rk":8641,"lÃ¦knir":8642,"Ġerlendir":8643,"Fors":8644,"vÃŃst":8645,"Ġsaf":8646,"ĠfarsÃ¦":8647,"Ġallsherjar":8648,"Ġsalt":8649,"....":8650,"kort":8651,"ĠHring":8652,"exÃŃkÃ³":8653,"staÃ°ar":8654,"Ġhaga":8655,"ĠfjÃ¡rmÃ¶gnun":8656,"Ġmeirihluti":8657,"Ġur":8658,"Ġlitlum":8659,"engd":8660,"hyggju":8661,"ĠNewcastle":8662,"hafnar":8663,"vÃ¶rur":8664,"ĠboÃ°aÃ°":8665,"Ġjafng":8666,"ille":8667,"ĠstoliÃ°":8668,"ĠSigmund":8669,"ĠÃ¾jÃ³Ã°ina":8670,"ĠrÃ¡Ã°i":8671,"ĠsveitarfÃ©laganna":8672,"Ġgler":8673,"ox":8674,"ĠmÃ¦tast":8675,"PÃ©tur":8676,"Ã³knun":8677,"ĠvÃ¶x":8678,"ĠÃ¾jÃ¡":8679,"ĠÃģsm":8680,"rÃŃÃ°ar":8681,"Ġfullv":8682,"ĠbjÃ³r":8683,"leiÃ°slu":8684,"ĠÃ³Ã¾Ã¦g":8685,"gildandi":8686,"Ġneinar":8687,"Ġkirk":8688,"Ã¶skuld":8689,"ĠEinars":8690,"ĠÃ½missa":8691,"ĠBÃºn":8692,"ĠskilorÃ°":8693,"ĠHorn":8694,"eigenda":8695,"Ġbisku":8696,"shlut":8697,"Ġreyni":8698,"ĠtryggÃ°i":8699,"ĠhÃºsa":8700,"aldar":8701,"Ġfarnir":8702,"ĠhÃ¦fi":8703,"Ġkvart":8704,"Ġalvarleg":8705,"alÃŃf":8706,"ĠMÃ¡":8707,"ĠslysiÃ°":8708,"ĠforstÃ¶Ã°umaÃ°ur":8709,"ĠÃ¡rslok":8710,"ĠKe":8711,"ĠEgils":8712,"ĠPortÃºgal":8713,"Ġumfangsmik":8714,"jara":8715,"Ġaukna":8716,"ĠÃºrrÃ¦Ã°i":8717,"Ġvenjulega":8718,"ĠhÃ©raÃ°sdÃ³ms":8719,"Hlut":8720,"ĠlesiÃ°":8721,"Ġeigenda":8722,"stÃ¶Ã°varinnar":8723,"eifl":8724,"ĠrÃŃkisstjÃ³rninni":8725,"Ġvirka":8726,"gerÃ°i":8727,"Ġskuldbindingar":8728,"Ġhvarf":8729,"PR":8730,"frÃ©tt":8731,"press":8732,"randi":8733,"arkit":8734,"tekjur":8735,"Ey":8736,"Ġlandsleik":8737,"ĠmiÃ°ju":8738,"ĠAfganist":8739,"ff":8740,"Ġlas":8741,"ĠBandarÃŃkjamenn":8742,"ĠAs":8743,"ĠfÃŃkniefn":8744,"Ġdeilt":8745,"Ġbls":8746,"ĠsamÃºÃ°ar":8747,"akstur":8748,"Ġfengist":8749,"ĠÃ¾ÃŃnum":8750,"Ġhlaupa":8751,"Se":8752,"andans":8753,"oke":8754,"Ã¡Ã°i":8755,"ĠPÃ³ll":8756,"Fyl":8757,"ĠsÃ¡ttur":8758,"reiÃ°ar":8759,"Ġnemi":8760,"Ġands":8761,"ĠsÃ¶nnunar":8762,"ĠjÃ¶rÃ°inni":8763,"ĠfarÃ¾eg":8764,"ĠTel":8765,"ĠSteingrÃŃmur":8766,"alandi":8767,"vera":8768,"Ġhlutina":8769,"ĠlÃ¶gfrÃ¦Ã°":8770,"Ġpott":8771,"ĠSjÃ³":8772,"drÃ¡tt":8773,"bÃŃla":8774,"Ġflokkur":8775,"ĠblaÃ°sins":8776,"ĠlÃ¶ngum":8777,"ĠÃ¾ingsÃ¡lykt":8778,"agerÃ°ar":8779,"ĠjafnvÃ¦gi":8780,"ĠfjÃ¡rlÃ¶g":8781,"ĠÃ¡rsreik":8782,"Ġfulla":8783,"ĠfjÃ¡rmÃ¡lafyrirtÃ¦k":8784,"ĠMosfells":8785,"JÃ³hanna":8786,"ary":8787,"ĠkvÃ³ta":8788,"ĠSpÃ¡n":8789,"Ġvitna":8790,"ĠstoÃ°s":8791,"ĠnÃ¶fn":8792,"bifreiÃ°":8793,"LÃ¶gregla":8794,"rÃ¦num":8795,"ĠÃ³heimil":8796,"Ã¡lf":8797,"ĠbÃ¦ri":8798,"tein":8799,"Ġpist":8800,"hen":8801,"Ġveruleika":8802,"starfsemi":8803,"ĠSA":8804,"Ġalvarlegt":8805,"Ġfest":8806,"ĠRÃºsslands":8807,"ÃŃsa":8808,"kaÃ°":8809,"ĠsagÃ°ur":8810,"vind":8811,"ĠeÃ°lis":8812,"ĠSkarphÃ©Ã°":8813,"ĠsÃ¦m":8814,"hlutfall":8815,"Man":8816,"kveÃ°jur":8817,"EvrÃ³pu":8818,"ĠorÃ°alag":8819,"ĠbifreiÃ°inni":8820,"ĠÃ¾jÃ³Ã°a":8821,"bÃ¦k":8822,"samninga":8823,"ster":8824,"ĠStjarnan":8825,"arÃ¡Ã°s":8826,"Ġferm":8827,"verslun":8828,"ĠsÃ½ning":8829,"ĠtÃ³nleikum":8830,"ĠÃ¾rÃ³ast":8831,"ĠferÃ°alag":8832,"ĠKristjÃ¡nsdÃ³ttir":8833,"Ġgift":8834,"ĠsÃ¶gunni":8835,"ÃŃmu":8836,"ĠNATO":8837,"Ġtilraunir":8838,"Ġvafa":8839,"ĠÃºtveg":8840,"Ġskemmtilega":8841,"tekiÃ°":8842,"ĠâĢ¦":8843,"Ã¾jÃ³nustunnar":8844,"SigrÃŃÃ°ur":8845,"ĠGull":8846,"bÃºnaÃ°ar":8847,"ÃļtfÃ¶r":8848,"Ã¡rÃ¡s":8849,"ĠrÃ¡Ã°gjÃ¶f":8850,"stjÃ³rar":8851,"Ã¶rg":8852,"Ã°ari":8853,"frÃ¦Ã°ist":8854,"Ġhringt":8855,"ĠyfirmaÃ°ur":8856,"ĠNoregs":8857,"ĠsvokallaÃ°a":8858,"ĠRi":8859,"Ġ79":8860,"ĠsÃ½ndu":8861,"Ġsleppa":8862,"ĠÃ¾rett":8863,"taliÃ°":8864,"ĠBelg":8865,"ĠpÃ³litÃŃk":8866,"ĠsjÃ¡i":8867,"ĠÃ³lÃŃklegt":8868,"kkul":8869,"ĠÃ¡fall":8870,"tional":8871,"ĠvantaÃ°i":8872,"unniÃ°":8873,"Ġ1986":8874,"nunar":8875,"Ġframhaldinu":8876,"Ã³ma":8877,"gjafi":8878,"helgi":8879,"Ġloknu":8880,"Ġborgarf":8881,"ĠskoruÃ°u":8882,"ĠÃĸnnu":8883,"ĠfÃ¡ir":8884,"raÃ°a":8885,"ĠRang":8886,"ĠSeÃ°labanka":8887,"Ġ99":8888,"ĠbÃ³ka":8889,"Ġtilviki":8890,"Eld":8891,"ĠsvigrÃºm":8892,"ĠAlbert":8893,"eistaramÃ³t":8894,"Ġuppruna":8895,"ĠMartin":8896,"ĠskilyrÃ°um":8897,"ssa":8898,"ĠRonald":8899,"ĠhÃ¶fundar":8900,"GÃŃ":8901,"ĠÃºtgÃ¡":8902,"ĠÃ¾jÃ¡lfun":8903,"ĠbrjÃ³st":8904,"iktor":8905,"ĠfordÃ¦m":8906,"ĠneikvÃ¦Ã°":8907,"ĠLÃ¦k":8908,"ĠÃ¡hÃ¦tt":8909,"ĠbÃºskap":8910,"inf":8911,"Ġhugann":8912,"ĠneitaÃ°i":8913,"Ġsykur":8914,"ĠorÃ°nir":8915,"KÃ³reu":8916,"SÃ©rstak":8917,"Ġbyggi":8918,"ĠNorÃ°urlandi":8919,"Ġatvinnugrein":8920,"Ġeignum":8921,"ĠnÃ¡Ã°st":8922,"chen":8923,"48":8924,"ĠÃ¾riÃ°jung":8925,"ĠsjÃº":8926,"Ġaukinni":8927,"ĠÃ¦tÃŃÃ°":8928,"ĠaldraÃ°ra":8929,"ĠÃ¾ingmÃ¶nnum":8930,"ĠLundÃº":8931,"Ã³Ã°i":8932,"Ġpapp":8933,"Ġreist":8934,"Ġburtu":8935,"stigi":8936,"ĠlandsliÃ°iÃ°":8937,"Anna":8938,"ĠNÃ¡tt":8939,"slna":8940,"ĠplÃ¡ss":8941,"ĠfÃ¦st":8942,"Ġauga":8943,"Ġsigurinn":8944,"Ġskildi":8945,"Leikurinn":8946,"ĠSjÃ¡lfstfl":8947,"ĠBlack":8948,"geirsson":8949,"emÃ³k":8950,"rÃŃr":8951,"Ġsveita":8952,"Vin":8953,"ĠbÃ¦inn":8954,"ararnir":8955,"ĠupplÃ½sa":8956,"Ġkannske":8957,"Ġtekna":8958,"ĠdÃ³mur":8959,"ĠundirbÃºningi":8960,"Sm":8961,"sheiÃ°i":8962,"ĠskjÃ³":8963,"lÃŃÃ°ar":8964,"gent":8965,"ĠkallaÃ°ur":8966,"ĠAlexander":8967,"ud":8968,"Ġ1974":8969,"ĠstaÃ°i":8970,"ston":8971,"stÃ¶Ã°in":8972,"ĠskÃŃr":8973,"ĠBaug":8974,"ĠhÃ³pa":8975,"Ġmanninum":8976,"ĠGl":8977,"ĠhljÃ³ti":8978,"Ġgildist":8979,"ĠGunnars":8980,"ĠâĢ¢":8981,"ĠbarÃ¡ttunni":8982,"Ġster":8983,"ĠKen":8984,"SteingrÃŃm":8985,"Ã³knast":8986,"ĠskaÃ°abÃ³t":8987,"smaÃ°urinn":8988,"asÃ½":8989,"Ġ1985":8990,"Ġneytenda":8991,"LA":8992,"ĠsjÃ¶tta":8993,"ĠsnÃºast":8994,"jÃ¶rgu":8995,"Ġfimmtudaginn":8996,"regl":8997,"Ġhart":8998,"Stundum":8999,"ĠStokk":9000,"ĠAndrÃ©":9001,"Ġ98":9002,"Ġframleidd":9003,"ix":9004,"full":9005,"ĠGuÃ°mundar":9006,"Ġbinda":9007,"FrÃ©tta":9008,"AÃ°rir":9009,"kÃ³r":9010,"imskip":9011,"ago":9012,"Ġskelf":9013,"slaust":9014,"ĠtÃ¦kn":9015,"Ġteldi":9016,"ĠVals":9017,"jÃ³na":9018,"Tek":9019,"ĠmannrÃ©ttind":9020,"ĠstarfsfÃ³lki":9021,"lÃŃnu":9022,"ĠtÃ¡kn":9023,"ĠsÃ¶l":9024,"sÃ¡tt":9025,"ĠÃ³per":9026,"ĠSnorra":9027,"Ġ110":9028,"lustu":9029,"krÃ³":9030,"insdÃ³ttir":9031,"egg":9032,"NorÃ°ur":9033,"ĠJÃº":9034,"hÃ¦kkun":9035,"Ġefri":9036,"Ġloftslag":9037,"ĠÃºrskurÃ°ur":9038,"ima":9039,"ĠRÃ³":9040,"Ġmisnot":9041,"ĠLandssam":9042,"ĠbÃ³ginn":9043,"skÃ³linn":9044,"ĠÃ¾Ã¡ttum":9045,"ĠkvÃŃ":9046,"Ġafskrif":9047,"ĠskipuÃ°":9048,"Ġinnihald":9049,"Ġleggi":9050,"ofnana":9051,"ĠfljÃº":9052,"ĠMatthÃŃas":9053,"Ġis":9054,"Ġtengja":9055,"ĠfulltrÃºum":9056,"ĠÃ¾rjÃ¡tÃŃu":9057,"ĠÃ¡rek":9058,"Ġtilfinning":9059,"Ġinnheimtu":9060,"ĠannaÃ°hvort":9061,"Ġbind":9062,"ĠÃŃslenskar":9063,"Ald":9064,"KristÃŃn":9065,"vet":9066,"ĠskoÃ°anak":9067,"Ġfullkomlega":9068,"ĠFrjÃ¡l":9069,"bÃ³tum":9070,"ĠsÃ¦tta":9071,"Ġfranska":9072,"Ã³ng":9073,"Ġkn":9074,"Ġtapa":9075,"stofnunar":9076,"ĠfyrirtÃ¦kin":9077,"ĠatriÃ°um":9078,"Ġkarlmenn":9079,"ĠlÃ¦knir":9080,"ĠbÃŃlar":9081,"Ġtilnefnd":9082,"Ġevr":9083,"Ġflestar":9084,"ate":9085,"Allar":9086,"ĠStraum":9087,"Bygg":9088,"Ġsamninginn":9089,"sagnir":9090,"HÃ©raÃ°sdÃ³m":9091,"ĠstjÃ³rnmÃ¡lamenn":9092,"heimilinu":9093,"ner":9094,"ĠGo":9095,"Meiri":9096,"ĠhegÃ°un":9097,"Ġtakt":9098,"Ġkt":9099,"ĠÃ¦tlunin":9100,"Ġstill":9101,"Einhver":9102,"ĠfÃ¦kkaÃ°":9103,"Ġkyns":9104,"Nei":9105,"ĠgrÃ¦nmeti":9106,"ĠstaÃ°festa":9107,"Ġ700":9108,"Ġsamkv":9109,"efl":9110,"engja":9111,"ĠSuÃ°urnesja":9112,"rÃ¦nt":9113,"ĠjafnrÃ©ttis":9114,"anÃ³tt":9115,"aflug":9116,"ĠmÃ¡nudaginn":9117,"Ġforyst":9118,"Vel":9119,"Ġkennt":9120,"ĠkÃ¶rfu":9121,"ĠfullyrÃ°a":9122,"brag":9123,"ĠnumiÃ°":9124,"SkÃ½r":9125,"Ġjepp":9126,"ljÃ³t":9127,"ĠKon":9128,"ĠvefsÃŃÃ°u":9129,"Ġ83":9130,"Ġsameiginlegt":9131,"ĠÃ³eÃ°lilegt":9132,"ĠfullnÃ¦gjandi":9133,"ĠÃŃtal":9134,"Ġarf":9135,"anlegum":9136,"KR":9137,"Reykv":9138,"ĠvÃ¶":9139,"ĠblaÃ°inu":9140,"Ġ71":9141,"ldum":9142,"ĠafgreiÃ°a":9143,"Ġathugun":9144,"Ġtrom":9145,"Ġofbeldis":9146,"ĠviÃ°eigandi":9147,"ĠBl":9148,"ĠlÃ¦knar":9149,"ĠWilli":9150,"Ġgreiddi":9151,"ĠsjÃ¡varÃºtvegi":9152,"ĠÃĵlympÃŃ":9153,"ĠsamfÃ©lagsins":9154,"ÃŃsil":9155,"ĠstÃºlkur":9156,"ylf":9157,"ĠÃŀessi":9158,"NA":9159,"Ġherbergi":9160,"ÃįS":9161,"ĠstjÃ³rnmÃ¡lum":9162,"ĠHÃ³tel":9163,"jiÃ°":9164,"afli":9165,"Ġathugasemdum":9166,"ĠmÃ¡lefn":9167,"svik":9168,"lÃ½singu":9169,"Myndin":9170,"ĠsÃ©rfrÃ¦Ã°ingar":9171,"ĠhÃ³purinn":9172,"Ġrefsingar":9173,"agerÃ°i":9174,"ĠÃ¾akklÃ¡t":9175,"Ġbrag":9176,"Ġuppfylla":9177,"Ġefast":9178,"ati":9179,"ventus":9180,"Ġtef":9181,"Ġbendi":9182,"ĠskipaÃ°":9183,"ĠaÃ°gengi":9184,"ĠvÃ¦nta":9185,"ĠRich":9186,"slitak":9187,"Oft":9188,"ĠÃ¡nÃ¦gÃ°":9189,"kunum":9190,"Ġtilkynna":9191,"ĠhÃ©raÃ°i":9192,"ĠerfiÃ°leikum":9193,"Ġkeppninni":9194,"Ġumsvif":9195,"Ġramma":9196,"Ġrokk":9197,"ĠÃ¡horfendur":9198,"Ġmynt":9199,"ĠhryÃ°juverka":9200,"ssins":9201,"Ġhandteknir":9202,"takiÃ°":9203,"Ġeinfalt":9204,"eypis":9205,"ĠBal":9206,"lÃ½sing":9207,"46":9208,"ĠÃ¾ÃŃna":9209,"Ġkvar":9210,"Ġmenningu":9211,"rukk":9212,"Ġminnist":9213,"Da":9214,"Ġgrunni":9215,"Ġbeit":9216,"ĠhagrÃ¦Ã°":9217,"ĠnÃ½s":9218,"hÃ¦ft":9219,"gildi":9220,"ĠopnuÃ°":9221,"kjÃ¶rdÃ¦mi":9222,"ĠÃ¾Ã¡l":9223,"SÃ³knaraÃ°ili":9224,"ĠÃ¾rÃ¶ng":9225,"vogi":9226,"VÃŃk":9227,"krÃ¶fu":9228,"ĠsÃ¡u":9229,"bÃºÃ°ar":9230,"ĠmÃ¦ldist":9231,"Ġtilra":9232,"ĠÃ¾jÃ¡lfara":9233,"asa":9234,"ningunum":9235,"Ġnokkurs":9236,"Ã¶gulegt":9237,"ĠprÃ½":9238,"Ġhagsmunum":9239,"ĠharÃ°lega":9240,"angt":9241,"Ġ61":9242,"ĠrÃ©ttu":9243,"ĠrÃºmar":9244,"Ġdagur":9245,"Ġrug":9246,"ĠrÃ¡Ã°stÃ¶fun":9247,"ĠjÃ¡kvÃ¦tt":9248,"Ġreynsla":9249,"Ġfyrirspur":9250,"Ġstaddur":9251,"Ġhaus":9252,"ĠEinarsdÃ³ttir":9253,"fÃ©laginu":9254,"Ġstarfsl":9255,"Ġmargf":9256,"skyni":9257,"Ġeinkenni":9258,"nÃ¦m":9259,"valdsins":9260,"ĠstÃ½ra":9261,"istrygg":9262,"ĠVeÃ°ur":9263,"FyrirtÃ¦kiÃ°":9264,"Ġgag":9265,"0000":9266,"frÃŃÃ°ur":9267,"ĠnorÃ°":9268,"bre":9269,"Ġmeint":9270,"ĠferÃ°um":9271,"vÃŃsu":9272,"Ãįslenska":9273,"ĠÃ¡li":9274,"Ġsvik":9275,"ĠMann":9276,"ĠbÃ¦r":9277,"slÃ³":9278,"Ġbarnanna":9279,"Ġnemendum":9280,"NiÃ°urstaÃ°a":9281,"Ġhugsun":9282,"snesi":9283,"ĠtÃŃmabund":9284,"Ġfyrradag":9285,"INN":9286,"rÃ¡Ã°a":9287,"ĠtÃ¦pum":9288,"bakka":9289,"jarna":9290,"brota":9291,"uÃ°vestur":9292,"ssÃ½":9293,"sveitar":9294,"tuÃ°u":9295,"eytiÃ°":9296,"ĠbÃ¦jarstjÃ³ri":9297,"oÃ°um":9298,"ĠSvan":9299,"Ġdul":9300,"Ġberast":9301,"Ġlitlar":9302,"ĠAxel":9303,"ĠÃļkraÃŃnu":9304,"slys":9305,"Ġpress":9306,"ĠmeiÃ°sla":9307,"ĠlÃ©tust":9308,"ĠLandsvirkjun":9309,"ĠBirgir":9310,"ĠmikilvÃ¦gur":9311,"ĠRagnarsson":9312,"ĠÃŃtarlega":9313,"Ġfallegt":9314,"ĠgÃ³lf":9315,"ĠEmil":9316,"Ġ89":9317,"Ġsnyr":9318,"ĠlÃ¶gmaÃ°ur":9319,"nÃ¡mi":9320,"Ġmeina":9321,"Ã¶mb":9322,"ĠbrÃ½nt":9323,"Ġverkinu":9324,"ĠrÃŃkissjÃ³Ã°ur":9325,"lyf":9326,"che":9327,"Heil":9328,"hreppi":9329,"Ġ82":9330,"oney":9331,"Ġsterkari":9332,"Ġ97":9333,"ÃŃskur":9334,"ĠJa":9335,"Ġuppreisnar":9336,"ĠbandarÃŃsku":9337,"32":9338,"ĠCr":9339,"svelli":9340,"illu":9341,"ĠblaÃ°amaÃ°ur":9342,"hef":9343,"ĠÃ¾rota":9344,"ĠtjÃ¡Ã°":9345,"ĠvÃŃtaspyrnu":9346,"affi":9347,"ĠtrÃºa":9348,"emÃ³kra":9349,"ĠhÃ©t":9350,"Ġteknir":9351,"irr":9352,"Ġungt":9353,"Ã¶ryggi":9354,"ĠsambÃ½li":9355,"ĠFrakklands":9356,"eyrissjÃ³Ã°":9357,"FriÃ°":9358,"ĠandstÃ¶Ã°u":9359,"Ġsamkynhneig":9360,"ÃŃum":9361,"ĠtÃ¶p":9362,"Ã¾Ã³rsson":9363,"ĠstjÃ³rnarskrÃ¡rinnar":9364,"Sl":9365,"eÃ°li":9366,"ĠreglugerÃ°ar":9367,"ĠvÃ©lar":9368,"ĠdagskrÃ¡r":9369,"Ġdagar":9370,"Ġathugasemd":9371,"ganga":9372,"ĠÃ¦ttum":9373,"ĠMel":9374,"ĠÃŀÃ³rhall":9375,"Ġgul":9376,"ĠGrafar":9377,"ĠRagnheiÃ°ur":9378,"ĠrÃ©ttum":9379,"Ġkaupum":9380,"Undan":9381,"ĠfjallaÃ°i":9382,"Ġatbur":9383,"ĠCap":9384,"Ã¥":9385,"sÃŃÃ°":9386,"Ġfengju":9387,"Ġsala":9388,"Ġbarnaverndar":9389,"ĠÃ¾urftu":9390,"ĠmÃ¡lsÃ¡":9391,"Ġmyndlistar":9392,"ĠlÃ¦knis":9393,"VarnaraÃ°ili":9394,"ĠgÃ¦Ã°i":9395,"ĠbÃ³t":9396,"ĠlÃ¶gmanns":9397,"ĠbÃ³ndi":9398,"ulÃ¶g":9399,"ĠeinlÃ¦g":9400,"Enda":9401,"ĠÃŀÃ³ra":9402,"ĠMÃ½r":9403,"ĠfyrirliÃ°i":9404,"ĠframmistÃ¶Ã°u":9405,"Ġvakt":9406,"Ġbyrjar":9407,"Ġhlutur":9408,"ĠfjÃ¡rmuni":9409,"uÃ°ust":9410,"vÃ¶rp":9411,"hrun":9412,"Ġleyft":9413,"ker":9414,"ĠhlutafÃ©lag":9415,"Von":9416,"Ġheimilanna":9417,"ĠstaÃ°sett":9418,"blaÃ°i":9419,"Ġpeningum":9420,"ilinu":9421,"ĠsamÃºÃ°arkveÃ°jur":9422,"ĠVigdÃŃs":9423,"ĠlandsliÃ°sÃ¾jÃ¡lf":9424,"Ġvissum":9425,"ĠstarfshÃ³p":9426,"SÃŃÃ°ustu":9427,"brigÃ°um":9428,"Ġklukkustund":9429,"vÃ¶llum":9430,"ĠGuÃ°nÃ½":9431,"ĠbÃ¦tist":9432,"jÃ³narmiÃ°":9433,"tureld":9434,"shreyf":9435,"kis":9436,"boriÃ°":9437,"ĠheitiÃ°":9438,"srÃŃk":9439,"ĠThom":9440,"Ã¶fnum":9441,"ĠsjÃ³num":9442,"hÃ¶ld":9443,"ĠHÃºsavÃŃk":9444,"ĠrauÃ°":9445,"Ġyfirgefa":9446,"mt":9447,"jÃ¶rÃ°ur":9448,"ĠMagnÃºsdÃ³ttir":9449,"Ġgafst":9450,"ĠAfrÃŃku":9451,"ĠAtla":9452,"ĠBirk":9453,"Ġ96":9454,"ĠbrotaÃ¾oli":9455,"ĠsjÃ¶unda":9456,"ÃŀrÃŃr":9457,"ĠglÃŃma":9458,"ykkish":9459,"ĠvÃ¶k":9460,"hÃ¦kkanir":9461,"ĠÃ¾jÃ³f":9462,"vott":9463,"anÃ¡m":9464,"eypa":9465,"Ġmilljar":9466,"td":9467,"ĠkÃ¶flum":9468,"ĠgÃ¦sluvarÃ°hald":9469,"Ġhollen":9470,"Ben":9471,"FÃ©lagiÃ°":9472,"ĠHÃ¶rpu":9473,"Lands":9474,"ĠaÃ°komu":9475,"ĠPÃŃra":9476,"ssv":9477,"RÃºss":9478,"ĠmetnaÃ°":9479,"ĠsamtÃ¶kin":9480,"varnir":9481,"Hvort":9482,"Ã³tta":9483,"ĠgÃŃtar":9484,"Frumvarp":9485,"ĠKristinsson":9486,"ĠSauÃ°":9487,"ĠlÃŃkindum":9488,"Ġtegundir":9489,"ĠaugljÃ³slega":9490,"staf":9491,"ĠmÃ³tmÃ¦li":9492,"hljÃ³Ã°":9493,"nandi":9494,"ĠFrey":9495,"ĠBorgarnesi":9496,"ĠbrauÃ°":9497,"ĠHjar":9498,"ĠskaÃ°a":9499,"ĠLandspÃŃtala":9500,"merkur":9501,"ĠSo":9502,"Ġsami":9503,"ĠfjÃ¶lbreyt":9504,"ĠÃĸl":9505,"ĠnÃ½rrar":9506,"SteingrÃŃmur":9507,"ĠLei":9508,"ĠsÃ½knu":9509,"jÃ³Ã°urinn":9510,"strÃ¦ti":9511,"Ġeindreg":9512,"ĠKeflavÃŃkurflugvelli":9513,"ĠsveitarfÃ©lÃ¶gum":9514,"ĠOp":9515,"orp":9516,"Ġhet":9517,"Ã¡Ã°u":9518,"rÃ¦tÃ³":9519,"tugur":9520,"Ġgalla":9521,"ĠÃ¾Ã¦ttir":9522,"kirkj":9523,"janlegt":9524,"ĠKv":9525,"Ġhringdi":9526,"varna":9527,"ĠdÃ¶nsku":9528,"Of":9529,"ĠÃĸssur":9530,"areg":9531,"Ã¡nar":9532,"astofnunar":9533,"ĠÃºtvarps":9534,"ĠfÃ¶t":9535,"otkun":9536,"ĠÃ¡kÃ¦rÃ°ur":9537,"tÃ¶lum":9538,"Hitt":9539,"Ã¦Ã°isins":9540,"Ġsr":9541,"Ġpassa":9542,"ilsins":9543,"ĠprÃ³senta":9544,"Ġ1984":9545,"skylda":9546,"ĠsÃŃÃ°a":9547,"olÃŃu":9548,"Ãŀessir":9549,"vÃ¶rÃ°ur":9550,"ĠÃģstralÃŃu":9551,"Ġfla":9552,"ĠyfirlÃ½singar":9553,"Ġgestum":9554,"Ġrekinn":9555,"juÃ°u":9556,"ĠSmÃ¡ra":9557,"ĠaÃ°skil":9558,"ĠGal":9559,"Ġmissir":9560,"ĠÃģrmann":9561,"ĠkÃ³k":9562,"aÃ°ra":9563,"ĠÃŀÃ½skalands":9564,"ĠfÃ³lkinu":9565,"Ã°austan":9566,"Ġleyni":9567,"Ġelska":9568,"rÃ©ttur":9569,"Ġgreinum":9570,"ĠÃ³tal":9571,"Ġstefnenda":9572,"Ġheart":9573,"Ġaugna":9574,"Ġlistamenn":9575,"astjÃ³rnar":9576,"ĠlangaÃ°i":9577,"ĠprÃ³fa":9578,"ĠblÃ¶Ã°":9579,"rÃºÃ°":9580,"jÃ¶t":9581,"LiÃ°iÃ°":9582,"ĠHaraldur":9583,"Ġfundur":9584,"herbergi":9585,"ĠvÃ¦rum":9586,"Ġmyndar":9587,"ĠVegagerÃ°":9588,"sÃ¶m":9589,"byggingu":9590,"Ber":9591,"ĠÃ¡fanga":9592,"Ġskilar":9593,"blÃ¡":9594,"KÃ¦r":9595,"ĠnÃ¡Ã°ist":9596,"ĠQu":9597,"ĠvÃŃti":9598,"Fyrstu":9599,"viti":9600,"Ġblanda":9601,"Fyrr":9602,"Ġsjaldan":9603,"ĠÃŃbÃºum":9604,"ĠJan":9605,"Ġkun":9606,"aleigu":9607,"Ġalmannatrygg":9608,"ĠÃºtb":9609,"Ã¡Ã°um":9610,"Ġstofnunin":9611,"ĠbÃºsetu":9612,"ĠsagÃ°ir":9613,"ĠerfÃ°a":9614,"39":9615,"ĠEld":9616,"ĠSÃ½rlandi":9617,"47":9618,"ĠsjÃ¡lfri":9619,"ĠMour":9620,"ĠfjÃ¡rlagafrumvarp":9621,"Ġungu":9622,"Ġdeili":9623,"Ġvirkjun":9624,"Ġsleppt":9625,"Ã¡tur":9626,"Ġkennari":9627,"ĠpersÃ³nulega":9628,"ĠHauka":9629,"esen":9630,"sstofnunar":9631,"ĠverÃ°tryggingu":9632,"Ã³d":9633,"Ġtreysti":9634,"luÃ°":9635,"ĠbÃŃllinn":9636,"snefndar":9637,"Skil":9638,"meiri":9639,"ĠstundaÃ°i":9640,"Ġforskot":9641,"ĠgrunaÃ°ur":9642,"ĠÃ³keypis":9643,"inm":9644,"lyndi":9645,"horn":9646,"astjÃ³r":9647,"Ġarkit":9648,"ĠfrÃ¡sÃ¶gn":9649,"Ġveikindi":9650,"ice":9651,"ĠfÃ¶g":9652,"ĠsÃ¦nska":9653,"ĠÃ¾Ã½sku":9654,"uel":9655,"ĠskÃ³lum":9656,"EÃ°a":9657,"lok":9658,"Sveit":9659,"shÃ¶fn":9660,"ÃŃski":9661,"ĠverÃ°launa":9662,"Ġskort":9663,"Ch":9664,"ĠmjÃ³lk":9665,"ĠGuÃ°s":9666,"Ġvirkj":9667,"greiÃ°slur":9668,"Ġvallar":9669,"Ġkring":9670,"ynur":9671,"rÃ¶fur":9672,"ĠGrindavÃŃkur":9673,"lÃ¡na":9674,"Ġspade":9675,"dan":9676,"Ġundankeppni":9677,"ĠrÃ¡Ã°stefn":9678,"eyk":9679,"ĠmÃŃnÃºt":9680,"HÃ³p":9681,"ĠhÃ¡deg":9682,"hÃ©r":9683,"arde":9684,"lÃ¡tur":9685,"MÃ³t":9686,"Ġmikillar":9687,"spor":9688,"ĠÃ¾riÃ°ji":9689,"ĠtÃºlkun":9690,"ĠkynlÃŃf":9691,"Ġsystir":9692,"ĠClin":9693,"ĠSÃ¦m":9694,"ĠSvo":9695,"Ġeiganda":9696,"Ġnokkurt":9697,"ĠtilbÃºnir":9698,"mn":9699,"ĠrÃ¶dd":9700,"ĠCarl":9701,"ĠerfiÃ°ara":9702,"Ġ1978":9703,"ĠbragÃ°":9704,"ĠmarkmiÃ°um":9705,"ĠÃºrslitak":9706,"Ġmyndlist":9707,"Ġaukinn":9708,"ennu":9709,"unnur":9710,"IRKJA":9711,"leikurinn":9712,"Ġstofnunum":9713,"ĠÃ¡reiÃ°":9714,"bis":9715,"ningarnar":9716,"Ġkomm":9717,"asamtÃ¶k":9718,"Ġevru":9719,"slita":9720,"ĠstÃºdent":9721,"ĠstefnumÃ³t":9722,"enta":9723,"stÃ¶Ã°va":9724,"ĠRÃŃkisÃºtvarpsins":9725,"Ġfleir":9726,"Ġkart":9727,"ĠÃģst":9728,"ĠhÃ¡lfa":9729,"ĠvÃŃsaÃ°i":9730,"Ġkosningabar":9731,"ĠAfganistan":9732,"ĠÃŀÃ³runn":9733,"ĠvaxiÃ°":9734,"ÃģÃ¦tl":9735,"ĠVilhjÃ¡lmur":9736,"ee":9737,"LÃ¡":9738,"ĠsÃ©rstÃ¶ku":9739,"ĠmiÃ°nÃ¦tti":9740,"afrv":9741,"Ġsystkin":9742,"Ġskilur":9743,"ĠÃ³hÃ¦tt":9744,"rÃ¦ktar":9745,"Ġ1981":9746,"ĠbannaÃ°":9747,"ĠstjÃ³rnin":9748,"ĠleitaÃ°i":9749,"ĠviÃ°rÃ¦Ã°":9750,"ĠkÃ¦mu":9751,"ĠsjÃºtv":9752,"Ġeftirliti":9753,"85":9754,"ĠnjÃ³ti":9755,"ming":9756,"ĠÃ¡ratugnum":9757,"Ġafskipti":9758,"Ġdreifa":9759,"liÃ°sins":9760,"vatni":9761,"ĠÃ¡vinn":9762,"Ġverkefninu":9763,"ĠEimskip":9764,"Ġprest":9765,"ĠbrÃºÃ°":9766,"ĠRanns":9767,"barna":9768,"ĠÃŀÃº":9769,"MargrÃ©t":9770,"ĠÃ³skÃ¶p":9771,"IS":9772,"ĠÃįsafjarÃ°ar":9773,"odd":9774,"ĠUmhverfis":9775,"ĠÃŀÃ³rÃ°ur":9776,"ĠstÃ¶Ã°unni":9777,"akerfiÃ°":9778,"lutning":9779,"jÃ³si":9780,"Em":9781,"Ġopnum":9782,"ĠÃ¾roska":9783,"NÃºna":9784,"Ġsamningurinn":9785,"skvÃ¶ldiÃ°":9786,"eppnin":9787,"GÃŃsli":9788,"ĠfatlaÃ°ra":9789,"ĠÃ¶kumenn":9790,"Ġhvat":9791,"ĠsaksÃ³knara":9792,"ĠÃ¦fingar":9793,"field":9794,"ĠÃ¾ingsÃ¡lyktunar":9795,"Ġathugunar":9796,"ĠEyst":9797,"sÃ¶gum":9798,"Ġfanga":9799,"ĠEyjÃ³lf":9800,"ĠPeter":9801,"ĠsÃ³ttu":9802,"Ġrann":9803,"Ġundirstri":9804,"ĠBrasilÃŃu":9805,"eth":9806,"ĠrÃ¡Ã°stefnu":9807,"Ġgefinn":9808,"ĠReyni":9809,"Ġgrip":9810,"ĠgagnrÃ½nt":9811,"verÃ°ir":9812,"ĠLandsvirkjunar":9813,"ĠÃ¡lits":9814,"Ġlagaset":9815,"tarnir":9816,"brÃ©fi":9817,"sheim":9818,"ĠsÃ©rstakar":9819,"Ã©lum":9820,"Ġsagn":9821,"borÃ°iÃ°":9822,"ĠkveÃ°ju":9823,"ĠminnkaÃ°":9824,"Ã³kna":9825,"Ġmin":9826,"Ġpil":9827,"Ġopnar":9828,"amat":9829,"ÃŃÃ°ur":9830,"ĠdÃ¦mt":9831,"ĠGa":9832,"mÃ¡liÃ°":9833,"jalda":9834,"Ġflokknum":9835,"Ġveitinga":9836,"ĠStykkish":9837,"Ġborin":9838,"ĠKirkju":9839,"amÃ³tum":9840,"ĠviÃ°urkenningu":9841,"ĠmarkvÃ¶rÃ°ur":9842,"ingas":9843,"Ġsamdi":9844,"ĠIÃ°":9845,"ĠhÃ¶fuÃ°iÃ°":9846,"ĠArion":9847,"EC":9848,"ĠgÃ¦sluvarÃ°haldi":9849,"ĠjarÃ°skjÃ¡lf":9850,"ĠlÃ¡ti":9851,"ĠnetiÃ°":9852,"ĠmenntamÃ¡larÃ¡Ã°herra":9853,"fÃ¶ll":9854,"ĠtÃ³bak":9855,"ĠBlÃ¡":9856,"ĠstarfiÃ°":9857,"Ġfullri":9858,"ĠnÃ¡grann":9859,"ĠstÃ¶Ã°ugleika":9860,"Ġsettu":9861,"ĠCharl":9862,"byggÃ°ar":9863,"rÃ©ttinda":9864,"ĠÃģsta":9865,"Ġupplifa":9866,"ĠvaraformaÃ°ur":9867,"Ġheila":9868,"ĠGuardi":9869,"ĠrÃ³m":9870,"emmt":9871,"Ġmiklir":9872,"ĠHÃ¶rÃ°ur":9873,"ĠleiÃ°toga":9874,"ĠWat":9875,"rÃ¦nna":9876,"ĠhÃ¡ttaÃ°":9877,"Ãįslendingar":9878,"ĠGra":9879,"Ġsyni":9880,"ĠlÃ¶ggjafar":9881,"Ã¶flun":9882,"ĠEyr":9883,"tjarnar":9884,"flutt":9885,"ĠsmÃ¡tt":9886,"Ãī":9887,"sfrÃ¦Ã°":9888,"sbund":9889,"ĠGuÃ°laug":9890,"ĠfjÃ¶lskyldunnar":9891,"amun":9892,"Ã¡lit":9893,"ĠsauÃ°fjÃ¡r":9894,"ĠstjÃ³rnarandstÃ¶Ã°u":9895,"Ġkallast":9896,"Ġkant":9897,"ĠÃ¾ingmanni":9898,"BjÃ¶rg":9899,"ĠdÃº":9900,"ĠstÃ³riÃ°ju":9901,"ĠkjÃ³senda":9902,"skÃ½rslu":9903,"ĠlÃ¦rt":9904,"gl":9905,"ĠÃ¾ekktur":9906,"Ġflm":9907,"Ġmiska":9908,"ĠskjÃ¶l":9909,"ĠÃ¾ekkir":9910,"ĠdÃ½rmÃ¦":9911,"sjÃ³Ã°s":9912,"indin":9913,"ĠmÃŃns":9914,"ĠmÃ³ta":9915,"Ã¾jÃ³Ã°ar":9916,"ĠrÃ¡Ã°uneytiÃ°":9917,"FjÃ¶ldi":9918,"urÃ°ar":9919,"ĠhÃ¦kkar":9920,"sstjÃ³rn":9921,"ĠNÃ½ja":9922,"ĠDu":9923,"ĠhernaÃ°ar":9924,"ĠrÃ¶kstu":9925,"ĠbÃ½s":9926,"age":9927,"konan":9928,"ĠumrÃ¦tt":9929,"Ġveidd":9930,"Ġhall":9931,"Ġsetjast":9932,"emen":9933,"hÃ¦ttu":9934,"Kjar":9935,"Ġrifja":9936,"Ġsettir":9937,"ĠSÃŃ":9938,"xem":9939,"gjarnt":9940,"Ġefsta":9941,"Ġlangur":9942,"ĠrÃ³tt":9943,"leifur":9944,"ĠÃ¡hyggju":9945,"Gyl":9946,"ĠTÃ³n":9947,"gÃ¦slu":9948,"ĠBandarÃŃkjafor":9949,"ĠleiÃ°togi":9950,"Ġfyrirfram":9951,"hlutverki":9952,"ĠMourinho":9953,"inginn":9954,"Ġhagsmun":9955,"aupp":9956,"andann":9957,"bog":9958,"ĠÃ¡ramÃ³tin":9959,"Ġ1983":9960,"gmundur":9961,"ĠAust":9962,"ĠMexÃŃkÃ³":9963,"tÃ³k":9964,"ĠnotaÃ°i":9965,"Ãºm":9966,"veld":9967,"ĠnauÃ°synleg":9968,"ĠSind":9969,"ĠdÃ³mari":9970,"ferÃ°i":9971,"ĠbÃŃÃ°ur":9972,"ĠBayern":9973,"unkti":9974,"lÃŃka":9975,"ĠveÃ°riÃ°":9976,"ĠÃ¾jÃ³Ã°aratkvÃ¦Ã°agreiÃ°slu":9977,"Ġhlust":9978,"ĠVÃŃkingur":9979,"ĠÃļr":9980,"Breyt":9981,"Ġhafin":9982,"okka":9983,"farir":9984,"ĠhÃ³fu":9985,"hita":9986,"ĠstÃ¡l":9987,"Ġkass":9988,"krafa":9989,"bÃºinn":9990,"ĠLÃ¡ra":9991,"ĠsamanboriÃ°":9992,"UM":9993,"ĠAlfreÃ°":9994,"Ġ101":9995,"ĠsmÃ¡m":9996,"HvaÃ°a":9997,"ĠfÃ¦kka":9998,"ĠstoÃ°sendingar":9999,"ĠHaukar":10000,"hÃ¶llinni":10001,"ĠloÃ°nu":10002,"ÃŃminn":10003,"66":10004,"ĠlÃ¦rÃ°i":10005,"ĠÃŀÃ³rar":10006,"ĠhlutafÃ©":10007,"orld":10008,"ĠnÃ½liÃ°":10009,"ĠÃºtilokaÃ°":10010,"ĠRÃŃkisendur":10011,"sskil":10012,"ĠmÃŃnir":10013,"ĠsÃ©rstakan":10014,"Ġvopna":10015,"ĠJack":10016,"ĠsÃ©rfrÃ¦Ã°ingur":10017,"49":10018,"Ġhelmingi":10019,"Hafa":10020,"Svona":10021,"ĠÃºtivelli":10022,"ingjar":10023,"Ã¡rÃ¡":10024,"shÃ¶ll":10025,"ĠtrÃºi":10026,"Ġ1970":10027,"ĠhjÃ¡lpaÃ°":10028,"ritiÃ°":10029,"kor":10030,"ĠsaknaÃ°":10031,"ĠBryndÃŃs":10032,"Ġvinnuna":10033,"naÃ°inn":10034,"kva":10035,"bikar":10036,"Ġverra":10037,"ersen":10038,"ĠdÃ³msmÃ¡larÃ¡Ã°herra":10039,"ĠMor":10040,"StjÃ³rnar":10041,"Ġerlendu":10042,"sÃ³tt":10043,"ĠÃĵlÃ¶f":10044,"stÃŃmab":10045,"ĠloforÃ°":10046,"orlof":10047,"Ġhreinu":10048,"gjÃ¶ld":10049,"viÃ°i":10050,"lausu":10051,"HiÃ°":10052,"sambandiÃ°":10053,"varandi":10054,"sska":10055,"FormaÃ°ur":10056,"ingunum":10057,"88":10058,"SÃŃÃ°ast":10059,"ĠCon":10060,"ĠÃ¾Ã¡tta":10061,"yfirvalda":10062,"ĠNorÃ°urland":10063,"ĠÃ³heimilt":10064,"ĠfriÃ°ar":10065,"Ġkenndi":10066,"ĠÃģsgrÃŃm":10067,"Ġnotar":10068,"ĠbÃ³kina":10069,"ĠfjÃ¡rmagna":10070,"Ġhlutdeild":10071,"ĠforÃ°ast":10072,"framkvÃ¦md":10073,"ennir":10074,"Ġbankarnir":10075,"ĠÃ¡fang":10076,"ĠFramsfl":10077,"ĠÃ³Ã¾arf":10078,"Ġkem":10079,"ninn":10080,"lagan":10081,"mrn":10082,"ĠgÃ¶tur":10083,"ĠrÃ¡Ã°herrann":10084,"th":10085,"ĠeignaÃ°ist":10086,"ĠmeiÃ°sli":10087,"Gylfi":10088,"BandarÃŃk":10089,"valla":10090,"Ã¦la":10091,"Ġskipan":10092,"breytingu":10093,"ĠÃ³tta":10094,"ÃŃskum":10095,"ĠalÃ¾jÃ³Ã°legum":10096,"sambandsins":10097,"ĠlÃŃkamsÃ¡":10098,"ĠstundaÃ°":10099,"ĠAtlantshaf":10100,"ĠOrri":10101,"Ġplast":10102,"jag":10103,"ĠmÃ¶guleiki":10104,"Ã¾Ã¶rf":10105,"ĠPark":10106,"Ã©la":10107,"Ġhorfir":10108,"Ġneita":10109,"Ġlosa":10110,"Ġtonnum":10111,"ĠtÃŃminn":10112,"Ġtakmarka":10113,"ĠMennta":10114,"ĠÃ¡Ã¦t":10115,"ĠhÃ¡lku":10116,"Ġstem":10117,"ĠuppgÃ¶t":10118,"Stein":10119,"Ġafhenda":10120,"ĠfjÃ¡rmÃ¡last":10121,"bandiÃ°":10122,"Ġhir":10123,"Ã°ri":10124,"Ġ180":10125,"Ġbreytist":10126,"Ã¡rs":10127,"Ġvalin":10128,"ĠglÃ¦":10129,"ĠhÃ¡lka":10130,"ĠUpp":10131,"Ġmisser":10132,"ĠtrÃºverÃ°u":10133,"Ġmikilla":10134,"ostnaÃ°ur":10135,"ĠeinkamÃ¡la":10136,"Flest":10137,"ĠdÃ¦md":10138,"Ġgjalda":10139,"Ãŀorsteinn":10140,"ĠSlÃ³":10141,"ING":10142,"ĠGÃŃsladÃ³ttir":10143,"ĠRau":10144,"ĠsÃ¡tu":10145,"ĠAu":10146,"ĠhÃ¡a":10147,"Ġklubs":10148,"Ġbanna":10149,"ĠHÃ©raÃ°sdÃ³mi":10150,"Ã¡frÃ½":10151,"Ġleggjast":10152,"ĠstÃ¶ndum":10153,"GuÃ°jÃ³n":10154,"ĠsamstÃ¶Ã°u":10155,"Ġfellt":10156,"ĠEgill":10157,"ĠlÃ½Ã°v":10158,"fÃ¶rum":10159,"mis":10160,"ĠveÃ°ri":10161,"ĠrÃ©Ã°":10162,"Ġneytendur":10163,"ottiÃ°":10164,"Ãģkv":10165,"ĠbjartsÃ½":10166,"ĠstjÃ³rnmÃ¡la":10167,"konur":10168,"pton":10169,"Ġmal":10170,"Ġstolt":10171,"ĠLandspÃŃtalanum":10172,"ĠBolungar":10173,"ĠsambÃºÃ°":10174,"ĠMosk":10175,"asonar":10176,"ĠskaÃ°abÃ³ta":10177,"ĠVesturlandi":10178,"Ġ81":10179,"ĠArgent":10180,"SlÃŃkt":10181,"Ġalltof":10182,"ĠhÃ¡degis":10183,"ĠbÃºum":10184,"ĠumrÃ¦Ã°una":10185,"ĠÃ¾rÃ³a":10186,"Ġfresti":10187,"ĠhÃ¦sta":10188,"KatrÃŃn":10189,"Ġhvetur":10190,"Ġkraft":10191,"ĠRÃ³bert":10192,"ÃŀÃŃn":10193,"Ġbyss":10194,"ÃºÃ°vÃŃk":10195,"ĠfaÃ°":10196,"Ġ1979":10197,"ĠhÃ¶fuÃ°borgarsvÃ¦Ã°isins":10198,"amanns":10199,"Ġmarkinu":10200,"ĠeinfÃ¶ld":10201,"skapur":10202,"ĠJuventus":10203,"ssel":10204,"ĠDo":10205,"ĠlÃ¡gt":10206,"ĠMcC":10207,"ĠstjÃ³rnsÃ½":10208,"sÃ¶gur":10209,"arfer":10210,"ĠskapaÃ°":10211,"kennara":10212,"hljÃ³msveit":10213,"ĠBank":10214,"ĠskurÃ°":10215,"Dr":10216,"Ġdatt":10217,"ferli":10218,"ĠAlÃ¾fl":10219,"ĠÃºthlutaÃ°":10220,"ĠheilsugÃ¦slu":10221,"ĠvirÃ°a":10222,"ĠgreiÃ°sludags":10223,"Ġvopn":10224,"AND":10225,"Eg":10226,"Ã³ru":10227,"afÃ©lagi":10228,"ĠglÃ¶g":10229,"ĠendurgreiÃ°slu":10230,"ĠsÃ¦tinu":10231,"Ġseldi":10232,"Ġhringja":10233,"Ġheimilinu":10234,"Ġforsend":10235,"ĠÃ¡ttunda":10236,"ĠErla":10237,"100":10238,"ĠSkÃ¡l":10239,"kan":10240,"Ġskipuleggja":10241,"ĠborgarstjÃ³ri":10242,"Ġlandsmenn":10243,"Ġyfirg":10244,"Ġkannast":10245,"Hag":10246,"endingum":10247,"Mikill":10248,"ĠSigmundur":10249,"ĠÃ¾Ã½Ã°ingar":10250,"77":10251,"ljÃ³s":10252,"uleysi":10253,"ĠlÃ©tta":10254,"Ġsams":10255,"ĠÃ¡kvÃ¶rÃ°unar":10256,"ĠstrÃŃÃ°a":10257,"eyta":10258,"ĠSeltjarnar":10259,"ÃŃla":10260,"ĠsannaÃ°":10261,"Ġhinnar":10262,"ĠSey":10263,"05":10264,"Ġupprun":10265,"ĠÃ¡varp":10266,"ĠlÃŃfsg":10267,"Ġstefnendur":10268,"ĠAF":10269,"Ġveig":10270,"ĠsvipuÃ°um":10271,"Ġfit":10272,"ĠFÃ³tbolta":10273,"Ġfyrrnefnd":10274,"deildin":10275,"ks":10276,"ĠeinkavÃ¦Ã°":10277,"sviÃ°s":10278,"ĠMarÃŃu":10279,"Ġmorgni":10280,"ĠfjÃ¶ld":10281,"ĠnÃ½ir":10282,"Amma":10283,"stofunni":10284,"Svar":10285,"abygg":10286,"asp":10287,"ĠKF":10288,"ĠmiÃ°vikudaginn":10289,"Ġverri":10290,"Ġ1982":10291,"Ġverjanda":10292,"Ġhlutl":10293,"ĠFriÃ°riksson":10294,"ĠraÃ°ir":10295,"ĠEB":10296,"ĠbÃ½sna":10297,"ĠflÃº":10298,"Ġhaldnir":10299,"Ġkerfinu":10300,"ĠliÃ°inn":10301,"ĠumferÃ°inni":10302,"ĠslÃŃkur":10303,"raels":10304,"ĠkjÃ³sendur":10305,"Ġhla":10306,"ĠauÃ°veldara":10307,"ĠsendirÃ¡Ã°":10308,"ĠlÃŃfsh":10309,"Ġverksins":10310,"krÃ¶fur":10311,"ĠÃ¶kur":10312,"ĠSigurjÃ³nsson":10313,"ĠstÃ¦rra":10314,"LÃŃf":10315,"ĠÃ¡hyggjum":10316,"ĠgÃ¦tum":10317,"ĠsparisjÃ³Ã°":10318,"MiÃ°aÃ°":10319,"Ġ94":10320,"Ragnar":10321,"te":10322,"Ġeiginkona":10323,"ĠsÃ¡st":10324,"Ġflugi":10325,"ĠgrÃŃn":10326,"ĠnÃºgildandi":10327,"Ãºmer":10328,"ĠsafnaÃ°":10329,"ĠHaarde":10330,"Ġskr":10331,"stÃ¶rfum":10332,"Ġtoga":10333,"ĠJes":10334,"ĠsÃºkkul":10335,"Ġklipp":10336,"ĠdÃ³mstÃ³la":10337,"verki":10338,"ĠskÃ½rsla":10339,"ĠSauÃ°Ã¡r":10340,"ĠvirÃ°ulegi":10341,"Ġertu":10342,"Ġskell":10343,"Ã¶rÃ°um":10344,"Ġnefnist":10345,"Trygg":10346,"verkum":10347,"kuÃ°u":10348,"erry":10349,"tillÃ¶gu":10350,"ĠviÃ°halda":10351,"Ġundar":10352,"Ġflokkum":10353,"estan":10354,"ĠKa":10355,"ĠrÃŃkisfjÃ¡r":10356,"Ġfagn":10357,"Ġinnkaup":10358,"ĠlÃ©ku":10359,"Ġsterkt":10360,"Ġleggjum":10361,"ĠfÃŃkniefni":10362,"ldir":10363,"laÃ°i":10364,"ĠheilbrigÃ°isrÃ¡Ã°herra":10365,"ĠSveins":10366,"ĠÃĵla":10367,"Ġ1960":10368,"Ġflokkar":10369,"Ġmennirnir":10370,"allag":10371,"Ġutanrrh":10372,"agnir":10373,"ĠÃ¦skilegt":10374,"Geir":10375,"Ġtonna":10376,"ĠÃŀorgeir":10377,"ĠalÃ¾jÃ³Ã°lega":10378,"Ġfalleg":10379,"ĠlÃºta":10380,"afrÃ¦Ã°ingur":10381,"Ġâĭ":10382,"ĠheilbrigÃ°isÃ¾jÃ³nustu":10383,"ĠaflaÃ°":10384,"Ġafrek":10385,"eistarar":10386,"ĠâĭĦ":10387,"ĠerfÃ°":10388,"ĠsamanburÃ°ar":10389,"Ġblogg":10390,"sd":10391,"BlaÃ°":10392,"alinn":10393,"ĠLos":10394,"ĠÃ¡sak":10395,"Ġolli":10396,"ĠGen":10397,"RA":10398,"ĠrÃ¦tur":10399,"rÃºmsl":10400,"Ġkynningar":10401,"ĠJÃ³hÃ¶nnu":10402,"ĠsjÃ¡lfstÃ¦tt":10403,"Ġspara":10404,"ĠgÃ¶mlum":10405,"ĠGi":10406,"ĠÃ¾rettÃ¡n":10407,"ĠFyrir":10408,"ĠrÃŃkissak":10409,"Ġhalla":10410,"Ġtilkynningunni":10411,"virkni":10412,"Ragn":10413,"oktor":10414,"ĠnÃ¡granna":10415,"ĠdÃ³mar":10416,"ĠHjÃ¡lmar":10417,"ĠÃ¡lyk":10418,"ĠviÃ°skiptal":10419,"ĠPo":10420,"Ġafkom":10421,"ĠvÃŃsitÃ¶lu":10422,"Ġverst":10423,"Ġforsetak":10424,"deildina":10425,"ĠskrÃ¡ningu":10426,"byrjun":10427,"ĠefniÃ°":10428,"gjafa":10429,"ĠEkki":10430,"hÃ¦tt":10431,"Ġtakist":10432,"gÃ¶ngum":10433,"ĠÃŃtreka":10434,"komin":10435,"slÃ¶greglustjÃ³ra":10436,"Ġgetu":10437,"Ġefst":10438,"ĠVilhjÃ¡lmsson":10439,"ĠsextÃ¡n":10440,"slegri":10441,"sjÃºkra":10442,"sskyld":10443,"jaÃ°i":10444,"ĠfjÃ¶lmen":10445,"Ġskar":10446,"xl":10447,"andanum":10448,"vaxta":10449,"vers":10450,"ĠneÃ°ri":10451,"ĠÃ¦vintÃ½r":10452,"ĠJÃ³nssonar":10453,"ĠflÃ³Ã°":10454,"StjÃ³rnvÃ¶ld":10455,"tuga":10456,"ĠkÃŃk":10457,"VeÃ°ur":10458,"Ġtreyst":10459,"ogiÃ°":10460,"Ġkjarasamninga":10461,"ĠMars":10462,"ĠCom":10463,"Ã³st":10464,"Ġminnar":10465,"Ġstakk":10466,"ĠTr":10467,"ĠvÃ¶llinn":10468,"ĠÃ¦tluÃ°u":10469,"ĠauglÃ½st":10470,"ĠLandhelgisgÃ¦slunnar":10471,"ĠÃ³hag":10472,"ĠsÃºr":10473,"ĠÃ³um":10474,"ĠDanmerkur":10475,"rÃ³Ã°ur":10476,"ĠViktor":10477,"Ã¶mmum":10478,"ĠneikvÃ¦":10479,"ĠfjarlÃ¦gÃ°":10480,"ĠsÃ©rstakur":10481,"ile":10482,"ĠtÃ¦":10483,"Ġsakarkost":10484,"ingastofnun":10485,"ĠtÃ¶lul":10486,"ĠsveitarfÃ©lagsins":10487,"barn":10488,"Ġmyndarinnar":10489,"ĠsjÃ¡lfstÃ¦Ã°":10490,"ĠumsjÃ³n":10491,"endinga":10492,"Ġeinna":10493,"Ġklukkustundir":10494,"ric":10495,"ĠRu":10496,"Ã¶kli":10497,"ĠHauksson":10498,"Ġhentar":10499,"Ingib":10500,"ĠÃ³mÃ¶gulegt":10501,"bÃ³":10502,"Ġforvit":10503,"Ġvelkomnir":10504,"ĠskriÃ°":10505,"ĠdÃ³murinn":10506,"ĠfjÃ¶lskylduna":10507,"ĠBraga":10508,"ĠfjÃ¡rl":10509,"Ġstang":10510,"Ġlaust":10511,"ĠMÃ½":10512,"Ġsprengju":10513,"ĠstÃºlku":10514,"frey":10515,"ĠhÃ¦kkuÃ°u":10516,"Finn":10517,"KvaÃ°":10518,"fjÃ¶rÃ°":10519,"ĠKring":10520,"ĠbÃºÃ°":10521,"ĠnÃ½jasta":10522,"ĠhÃºsm":10523,"âĢ¦âĢ¦":10524,"Ġhagsmunir":10525,"ĠhrÃ¡efni":10526,"Ġatvinnuveg":10527,"astur":10528,"ĠSauÃ°Ã¡rkrÃ³":10529,"ĠaÃ°ildarrÃŃk":10530,"ĠmÃ¡lsmeÃ°ferÃ°":10531,"ĠbÃ¦jarstjÃ³rnar":10532,"ugh":10533,"RannsÃ³kn":10534,"Ġdala":10535,"ĠHelli":10536,"Ġgatn":10537,"ĠkjÃºk":10538,"skiptin":10539,"ĠRÃºssa":10540,"ĠClinton":10541,"skoÃ°unar":10542,"Ġpopp":10543,"ĠbrÃ¦Ã°ur":10544,"ĠbrÃºn":10545,"arÃ°ar":10546,"Ġalgengt":10547,"Hvers":10548,"ĠstÃ³rar":10549,"Alltaf":10550,"Ġvafi":10551,"egn":10552,"HvÃŃ":10553,"jo":10554,"ĠAftureld":10555,"Ġeftirlits":10556,"Mann":10557,"tugsaldri":10558,"Ġinnri":10559,"ĠVÃŃ":10560,"mÃ¦la":10561,"FA":10562,"ĠÃºtlendinga":10563,"Ġgefst":10564,"ĠsamningaviÃ°":10565,"ĠSum":10566,"Ġfry":10567,"ĠdÃ¡nar":10568,"rauni":10569,"Ġskattlag":10570,"Ã¦Ã°in":10571,"ĠhlutafjÃ¡r":10572,"drott":10573,"ĠskipaÃ°ur":10574,"ĠsamstaÃ°a":10575,"Ġlengd":10576,"ĠfjÃ¡rmunum":10577,"ĠumhverfisrÃ¡Ã°herra":10578,"ĠKrÃ³at":10579,"ĠGeorge":10580,"Ġsneri":10581,"ĠfÃ¦ru":10582,"ĠEvrÃ³pumÃ³t":10583,"ock":10584,"Ġbu":10585,"ĠbakiÃ°":10586,"vÃŃsitalan":10587,"31":10588,"ĠÃ¾ola":10589,"ĠÃ¡bendingar":10590,"Ġ140":10591,"ristian":10592,"ĠstjÃ³rnskip":10593,"ĠÃºtgÃ¡f":10594,"ĠbÃ¦jarstjÃ³rn":10595,"sskÃ³la":10596,"ĠBÃºnaÃ°ar":10597,"ĠbÃ½st":10598,"mÃ¡larÃ¡Ã°herra":10599,"Ġfelast":10600,"ĠlÃŃtra":10601,"ĠVÃŃsi":10602,"ĠfrÃ¡bÃ¦ra":10603,"ÃŀriÃ°":10604,"vexti":10605,"smanni":10606,"Ġblasir":10607,"Ġdrukk":10608,"ĠÃįvar":10609,"Ġkan":10610,"neska":10611,"ĠendurskoÃ°unar":10612,"ĠmarkmiÃ°iÃ°":10613,"Ġstyrki":10614,"Ġskili":10615,"ĠfljÃºga":10616,"stÃŃma":10617,"igi":10618,"Ã¡lag":10619,"ĠÃºthlutun":10620,"hÃ³pi":10621,"ĠlÃŃtinn":10622,"banki":10623,"ĠÃ½ta":10624,"Ġgreiningar":10625,"Ġborgina":10626,"Ġkva":10627,"ĠÃŃslenskan":10628,"ĠÃ¾Ã¦ttinum":10629,"Ġstelp":10630,"teg":10631,"Ġmyndirnar":10632,"ĠMen":10633,"ĠBlÃ¶ndu":10634,"ĠtÃ¦par":10635,"ĠrÃ¶kum":10636,"ĠNorÃ°urlÃ¶ndunum":10637,"bandalagsins":10638,"Ġskuldum":10639,"ĠknattspyrnustjÃ³ri":10640,"ĠfjÃ³rtÃ¡n":10641,"ĠVan":10642,"Ġskugga":10643,"Ġvinni":10644,"mars":10645,"Ġgall":10646,"bÃºin":10647,"DavÃŃÃ°":10648,"Ġsambandsins":10649,"Ġklass":10650,"Ġlak":10651,"arfl":10652,"ĠÃ¾Ã¡tttakendur":10653,"ĠinnanrÃŃkisrÃ¡Ã°herra":10654,"okkur":10655,"ĠÃĵlympÃŃuleik":10656,"Ġstrik":10657,"ĠKSÃį":10658,"Ġplan":10659,"Ġforsetinn":10660,"ĠnotaÃ°ur":10661,"Ġpart":10662,"Ġvelti":10663,"ĠhagvÃ¶x":10664,"ĠsÃ¶gÃ°ust":10665,"sstyr":10666,"drÃ¡ttur":10667,"Ġfluttir":10668,"ĠÃ¾riÃ°judaginn":10669,"ĠmÃ¦list":10670,"Ġfesta":10671,"ĠmiÃ°la":10672,"ĠÃ³gild":10673,"ĠefnahagslÃŃf":10674,"Ġ105":10675,"Ġteljist":10676,"ĠAngeles":10677,"Ġspark":10678,"sjÃ³Ã°i":10679,"Ġraunin":10680,"ĠÃ¦v":10681,"ĠtÃ¦kifÃ¦riÃ°":10682,"Ġper":10683,"Ã¦Ã°ra":10684,"vÃŃkinga":10685,"Ġtilvil":10686,"IngibjÃ¶rg":10687,"ves":10688,"ekja":10689,"hÃºsa":10690,"brautar":10691,"Ġpeningar":10692,"setur":10693,"SÃ½ningin":10694,"Ġ160":10695,"SÃ³l":10696,"ĠfjÃ¡rhagslega":10697,"shÃ¦":10698,"Ġfrost":10699,"ĠmarkaÃ°num":10700,"ĠSeÃ°labankinn":10701,"ĠafmÃ¦lis":10702,"ĠInn":10703,"Ġhau":10704,"ĠHaraldsson":10705,"efndar":10706,"ĠÃįsraels":10707,"ĠsnÃºist":10708,"Ġblekk":10709,"ĠdÃ³ma":10710,"Ġfylgdist":10711,"tugt":10712,"ĠÃįran":10713,"erland":10714,"slau":10715,"ĠeilÃŃf":10716,"Ġleitast":10717,"Ġopinn":10718,"Ġeinstaklingur":10719,"Ġ92":10720,"Ġgreiddar":10721,"stÃ¶Ã°una":10722,"ĠhÃ©raÃ°sdÃ³mi":10723,"Ġfasteignas":10724,"Utan":10725,"alÃ¡n":10726,"ektar":10727,"efa":10728,"ĠnÃŃunda":10729,"ĠsjÃ³menn":10730,"ĠbÃ¦jarf":10731,"Ġmuninn":10732,"epÃº":10733,"Ġtilteknum":10734,"ĠtiltekiÃ°":10735,"Ġverndar":10736,"ĠhlaupiÃ°":10737,"enger":10738,"Ġ1972":10739,"ĠÃģgÃºstsson":10740,"StaÃ°":10741,"Ġverslanir":10742,"Ġvinnuveit":10743,"gleika":10744,"Ġkerfis":10745,"Ġ1973":10746,"ĠsjÃ³narmiÃ°um":10747,"ĠbÃŃll":10748,"ĠborÃ°i":10749,"76":10750,"urÃŃk":10751,"ĠsjÃ³nvarpsÃ¾":10752,"ĠplÃ¶n":10753,"ĠstrÃ¶nd":10754,"ĠmÃ¶guleikar":10755,"Ġtaldir":10756,"ĠBÃ¶Ã°var":10757,"embÃ¦tt":10758,"ĠÃ¦tlast":10759,"guson":10760,"ĠÃ¾akklÃ¦ti":10761,"hjÃ³l":10762,"lÃŃt":10763,"ĠhugsaÃ°i":10764,"Ã¶sku":10765,"yri":10766,"Ã¶nskum":10767,"runum":10768,"ĠklukkutÃŃma":10769,"ĠlÃ¶gfest":10770,"Ġskyndilega":10771,"ĠmeÃ°hÃ¶nd":10772,"Ġfarar":10773,"dÃ½ra":10774,"Ġsveitinni":10775,"Ġinnih":10776,"ĠÃºtflutnings":10777,"ĠsÃŃÃ°u":10778,"aÃ°gerÃ°":10779,"Li":10780,"Ġsigra":10781,"ĠReynir":10782,"ĠNorÃ°urlÃ¶ndum":10783,"Ġlaunak":10784,"rÃŃmur":10785,"Ġtvennt":10786,"din":10787,"Ġrekin":10788,"bundiÃ°":10789,"ĠeyÃ°ileg":10790,"Ġvaxa":10791,"still":10792,"ĠRonaldo":10793,"Ġhafist":10794,"Ġgeisl":10795,"ĠdÃ¦tur":10796,"Ġgangandi":10797,"verji":10798,"jam":10799,"ĠglÃŃm":10800,"ykst":10801,"Ġknattspyrnum":10802,"Ġuppsagnar":10803,"ĠbjargaÃ°":10804,"ĠÃ³trÃºlegt":10805,"ĠAc":10806,"ĠforrÃ¡Ã°":10807,"ĠEva":10808,"ĠÃºtsk":10809,"artÃŃma":10810,"ĠsumarbÃº":10811,"Ġpre":10812,"ĠhnÃ©":10813,"ĠveiÃ°ig":10814,"ĠbrÃ©finu":10815,"96":10816,"ĠrÃ©ttlÃ¦ti":10817,"Ġ1975":10818,"rausti":10819,"Ġsameina":10820,"ĠLogi":10821,"Ġaukningu":10822,"aldast":10823,"ĠpÃ³l":10824,"Ġkylf":10825,"ugerÃ°":10826,"ĠVi":10827,"ruÃ°u":10828,"ĠAC":10829,"Ġpakk":10830,"sy":10831,"Ġhandbolta":10832,"Ġmetrar":10833,"Ġdagsett":10834,"ĠrÃ¡Ã°um":10835,"ĠSparis":10836,"ĠstÃ³l":10837,"ĠsmÃ¡s":10838,"ĠÃŀÃ³ri":10839,"frÃ©tta":10840,"Ġsamsvar":10841,"ĠtÃŃÃ°um":10842,"Ġduga":10843,"ĠÃ¾yrftu":10844,"Ġbandalag":10845,"Ãģg":10846,"sfjarÃ°ar":10847,"breyting":10848,"ĠNorÃ°menn":10849,"vÃ©lar":10850,"ĠOddsson":10851,"ĠupptÃ¶ku":10852,"ĠAuÃ°":10853,"ĠSunnu":10854,"ĠGau":10855,"ĠmÃ¡nuÃ°ir":10856,"Ġgesti":10857,"Ġeykst":10858,"Ã¡ttunni":10859,"ĠÃ³tvÃŃ":10860,"Ġveruleg":10861,"leyfi":10862,"ĠhÃ¶nnu":10863,"ĠNÃŃ":10864,"alandsliÃ°":10865,"cester":10866,"urs":10867,"ĠJÃ¶kul":10868,"ganisti":10869,"ĠExpress":10870,"vallar":10871,"ĠlÃ¦ri":10872,"ĠstofnaÃ°i":10873,"ĠkvÃ³t":10874,"aldi":10875,"ĠmiÃ°ar":10876,"stefnanda":10877,"ĠdrÃ¡ttarvÃ¶xtum":10878,"ĠmÃ¶rkuÃ°um":10879,"ami":10880,"ÃºÃ°a":10881,"ĠstÃ¦kkun":10882,"agnaÃ°ur":10883,"Ġumtalsvert":10884,"Ġtalist":10885,"starfiÃ°":10886,"ĠsjÃ¡lfbÃ¦r":10887,"ĠHildur":10888,"Ġfugl":10889,"ĠhÃ¡marki":10890,"erÃ°ur":10891,"Ġforsetakos":10892,"Ġheimilum":10893,"ĠjÃ¡rn":10894,"Ġuppfyllt":10895,"rauk":10896,"400":10897,"ĠskrÃ½":10898,"Ġreyndu":10899,"Ġvitnesk":10900,"86":10901,"ÃĨt":10902,"ĠsamanburÃ°i":10903,"ĠTryggvi":10904,"meÃ°":10905,"sonar":10906,"Ġafsal":10907,"ĠstÃ¦kka":10908,"kenni":10909,"Ġfryst":10910,"Ġefnislega":10911,"ica":10912,"Ġax":10913,"skona":10914,"standandi":10915,"kostnaÃ°ur":10916,"ĠGuÃ°na":10917,"Ġtaf":10918,"ĠmatvÃ¦la":10919,"Ġallavega":10920,"ĠandrÃºmsl":10921,"jalli":10922,"ĠÃ¦fingu":10923,"ĠborgarstjÃ³rnar":10924,"rita":10925,"Dan":10926,"afÃ©":10927,"Ġbarns":10928,"Eigin":10929,"ĠfjÃ¡rfestingu":10930,"ĠEirÃŃkur":10931,"Ġhandrit":10932,"MikilvÃ¦g":10933,"rÃ¡Ã°uneyti":10934,"ĠgreiÃ°ir":10935,"Ġskilgreind":10936,"Ġleyfis":10937,"ĠÃ¾inni":10938,"andamÃ¡l":10939,"hjÃ¡lp":10940,"are":10941,"Ġhark":10942,"Ġtilfinningar":10943,"Ġlu":10944,"ovÃ©t":10945,"ĠiÃ°ulega":10946,"morgun":10947,"Gagn":10948,"Ġverslunum":10949,"AAAA":10950,"lest":10951,"ĠÃģrnadÃ³ttir":10952,"Ġ1976":10953,"eskaup":10954,"ĠÃģsgeirsson":10955,"ĠHÃį":10956,"arfÃ©lagiÃ°":10957,"jamenn":10958,"ĠbÃ³l":10959,"Ġferil":10960,"Ġgrunur":10961,"JÃĵ":10962,"fre":10963,"ĠMer":10964,"Kristinn":10965,"ĠdÃ³minn":10966,"umÃ¡lum":10967,"Konan":10968,"blettir":10969,"ĠHvÃŃta":10970,"Ã¶Ã°ur":10971,"aflokksins":10972,"Ġopnun":10973,"Ġharm":10974,"ĠjafnrÃ©tti":10975,"Ġstyrkt":10976,"Ġleikja":10977,"Ġathaf":10978,"flokki":10979,"ĠrÃ©ttindum":10980,"Ġungum":10981,"ĠsjÃºkling":10982,"ĠRut":10983,"part":10984,"Ġ93":10985,"Ġsmit":10986,"LI":10987,"ĠÃ¾Ã¶rfum":10988,"ĠÃŀr":10989,"Ġkaupin":10990,"ilipp":10991,"Ġveginum":10992,"Ġbresku":10993,"Ġfinnist":10994,"ĠhÃ¡v":10995,"ĠslÃŃkan":10996,"ssp":10997,"ĠSamfylkingin":10998,"Reyndar":10999,"abÃ¦":11000,"deilt":11001,"Ġpunk":11002,"ĠvÃ¦ntingar":11003,"aw":11004,"ĠnÃ¦Ã°i":11005,"Ġdra":11006,"ĠÃºtfÃ¦r":11007,"ĠhnÃŃf":11008,"eb":11009,"ĠhorfiÃ°":11010,"Ġhverfi":11011,"ĠfarÃ¾egar":11012,"SS":11013,"Ã¶ru":11014,"Ã¾rey":11015,"Ã¶kkviliÃ°":11016,"aframkvÃ¦md":11017,"liggjandi":11018,"Ġlamb":11019,"breyttu":11020,"Ġupplifun":11021,"DA":11022,"Ġkosningunum":11023,"Ġsumrin":11024,"Ġforsenda":11025,"ĠrÃ½mi":11026,"ĠblaÃ°amenn":11027,"Ġvirkar":11028,"Ã¡stand":11029,"ĠÃ¡nÃ¦gjulegt":11030,"mor":11031,"ĠRÃ¡s":11032,"ĠsÃ¦kir":11033,"ĠÃ¾jÃ¡lfar":11034,"amer":11035,"Ã¶nnuÃ°":11036,"ĠÃ¡frÃ½janda":11037,"hlutinn":11038,"Ġdrekka":11039,"xd":11040,"ĠÃºtsendingu":11041,"Ġskipum":11042,"ĠkvÃ¦ntur":11043,"ĠÃ¡hugavert":11044,"Ġben":11045,"Ã¾Ã¦tti":11046,"ĠleiÃ°rÃ©tta":11047,"Ġdisk":11048,"spurÃ°":11049,"ĠÃ¡nÃ¦gÃ°ir":11050,"Ġstrey":11051,"ĠHÃ¦stirÃ©ttur":11052,"Ġspurningin":11053,"lags":11054,"bÃ½lishÃºs":11055,"ĠSverrir":11056,"sÃ¦ti":11057,"ĠFax":11058,"stad":11059,"ĠRÃ³s":11060,"ĠglaÃ°":11061,"Ġsagan":11062,"blÃ¶Ã°":11063,"ĠSjÃ¡lfstÃ¦Ã°isflokks":11064,"Ġfran":11065,"Ġdekk":11066,"ĠFM":11067,"ĠlifaÃ°":11068,"ĠmatsgerÃ°":11069,"FerÃ°":11070,"ĠEnglands":11071,"ĠklÃºbb":11072,"dÃ³mur":11073,"ĠBretar":11074,"ĠslÃ³Ã°um":11075,"Ġefasem":11076,"ĠÃ¡vÃ¶x":11077,"ĠÃ¾Ã½Ã°a":11078,"Ġberst":11079,"ĠeldhÃºs":11080,"ĠIII":11081,"ĠtÃºlka":11082,"setja":11083,"ĠmarkaÃ°sset":11084,"ĠjafnaÃ°ar":11085,"fari":11086,"Fleiri":11087,"Ġfylla":11088,"ĠbundiÃ°":11089,"Ãºna":11090,"Ġframvegis":11091,"ĠHelgadÃ³ttir":11092,"ĠupplÃ½":11093,"ĠÃºrslitin":11094,"TT":11095,"ĠHanna":11096,"Ġas":11097,"alegum":11098,"Ġtilheyrandi":11099,"sfer":11100,"ĠbrÃºÃ°kaup":11101,"Ġversta":11102,"ĠFinnlandi":11103,"Ġx":11104,"ĠVestmannaeyja":11105,"ĠÃºtivist":11106,"ĠhliÃ°ina":11107,"ĠBjÃ¶rnsdÃ³ttir":11108,"Helga":11109,"boÃ°um":11110,"ech":11111,"ĠaÃ°faranÃ³tt":11112,"asson":11113,"Ġvitanlega":11114,"olton":11115,"svÃ¦Ã°iÃ°":11116,"Austur":11117,"skipa":11118,"eistaratitil":11119,"ĠvatniÃ°":11120,"ĠnauÃ°synlegar":11121,"ĠhrÃ¦Ã°":11122,"Ġgra":11123,"ĠSteinunn":11124,"aleig":11125,"Ã°irnar":11126,"ĠSjÃ¡lfstÃ¦Ã°isflokkurinn":11127,"ĠopnaÃ°i":11128,"JÃº":11129,"ĠEvrÃ³pska":11130,"tis":11131,"ĠÃºtskÃ½rir":11132,"Ġmisjafn":11133,"akel":11134,"ĠtÃ¶lvupÃ³st":11135,"ĠFi":11136,"firÃ°inga":11137,"ĠbÃ¡ru":11138,"ĠÃ³skil":11139,"ĠrÃ¦kt":11140,"ĠstuÃ°ningur":11141,"ĠbÃ¡Ã°a":11142,"ĠaÃ°ferÃ°ir":11143,"ĠStep":11144,"ywood":11145,"ĠlÃ¡nt":11146,"ĠfiskveiÃ°i":11147,"ĠÃ¡verka":11148,"Ġsynd":11149,"Samt":11150,"Ġstand":11151,"eftirlitiÃ°":11152,"ĠAlÃ¾jÃ³Ã°agjald":11153,"ilegir":11154,"ĠAb":11155,"ĠtÃ¶k":11156,"Ġafnema":11157,"eginum":11158,"ĠHveragerÃ°i":11159,"steyp":11160,"ĠkynferÃ°isbrot":11161,"StÃ¦r":11162,"ĠstjÃ³rnenda":11163,"ĠÃ¾ekkjum":11164,"ĠgÃ¦rmorgun":11165,"drÃ¦tti":11166,"Ġofangreind":11167,"abbi":11168,"Ġsveig":11169,"Ġvant":11170,"ĠÃ¡kvÃ¡Ã°u":11171,"har":11172,"ĠIngim":11173,"afng":11174,"Ġ1971":11175,"Ġvarp":11176,"Ġherinn":11177,"ĠmÃŃnÃºtna":11178,"Ġflokkanna":11179,"ĠverÃ¶ld":11180,"SÃ©rstaklega":11181,"ĠDavÃŃÃ°s":11182,"prÃ³fi":11183,"Ġbanki":11184,"ĠmikilvÃ¦ga":11185,"ĠEgyp":11186,"hÃ¶fum":11187,"alegu":11188,"ĠÃ¡rsfjÃ³rÃ°ungi":11189,"Ġlosun":11190,"dÃ³mstÃ³l":11191,"rausta":11192,"any":11193,"Ġbirtingu":11194,"Ġmenning":11195,"Ġfelist":11196,"kÃ³":11197,"ĠsamfÃ©lagsmiÃ°":11198,"Ã¾yng":11199,"ÃŃÃ³":11200,"Ġbug":11201,"Ġelsk":11202,"alest":11203,"ĠviÃ°skiptarÃ¡Ã°herra":11204,"ĠÃŀork":11205,"ean":11206,"fet":11207,"ĠnotaÃ°ar":11208,"hampton":11209,"Ġfyrirmyndar":11210,"ĠbÃºnaÃ°":11211,"rÃŃÃ°":11212,"Ġfiskvinnslu":11213,"Ġkoll":11214,"Ġgiftist":11215,"ugjald":11216,"Ġendurheim":11217,"Rek":11218,"Ġlagar":11219,"ĠÃ¡gÃ¦tt":11220,"Ã¡liÃ°":11221,"ĠkÃ¦":11222,"Ġnorsku":11223,"Ã¦Ã°ur":11224,"Ġskall":11225,"ĠÃ¾risvar":11226,"ĠStoke":11227,"Ġhluthafa":11228,"elt":11229,"deginum":11230,"ranna":11231,"ĠBa":11232,"ĠhagnaÃ°ur":11233,"Ġheimspek":11234,"Ġherberg":11235,"Ã¾jÃ³n":11236,"Ġkynnst":11237,"agerÃ°arinnar":11238,"ĠbrÃ¦Ã°":11239,"ĠrÃ½r":11240,"ĠVerÃ°":11241,"ĠlÃ¡tnir":11242,"Sex":11243,"ĠkrafÃ°ist":11244,"ĠTryggva":11245,"Ġstundar":11246,"ĠstigiÃ°":11247,"ĠfjÃ¶lmiÃ°l":11248,"Ġsamtaka":11249,"merki":11250,"ĠtryggÃ°":11251,"ystra":11252,"ĠÃ¶kumaÃ°ur":11253,"97":11254,"ĠSun":11255,"ĠDel":11256,"Ġgrg":11257,"ĠVinn":11258,"ĠstjÃ¶rnu":11259,"ĠMac":11260,"Ġeinelti":11261,"Ġbreytir":11262,"Ġfyrirlest":11263,"vÃŃn":11264,"vals":11265,"300":11266,"ĠfjÃ¡rhags":11267,"ĠskoriÃ°":11268,"ĠkjÃ¶rtÃŃmabili":11269,"kunn":11270,"ĠBandarÃŃkjamanna":11271,"ssvÃ¦Ã°i":11272,"boÃ°iÃ°":11273,"amÃ¶rk":11274,"ĠmÃ¦lir":11275,"ĠtÃŃunda":11276,"ĠfjÃ¡rmÃ¡lafyrirtÃ¦ki":11277,"Ġbarist":11278,"jÃ¡rauk":11279,"ĠUni":11280,"Ġfyrrgreind":11281,"skyldan":11282,"ĠÃ¡hÃ¶fn":11283,"aldra":11284,"nuÃ°ur":11285,"Ġsand":11286,"Ġeytt":11287,"ĠÃ¶ruggt":11288,"SÃ¶m":11289,"ĠsÃŃÃ°asti":11290,"ĠheiÃ°ar":11291,"ĠskrÃŃ":11292,"ĠMosfellsbÃ¦":11293,"Ã¶rum":11294,"ĠgyÃ°":11295,"ĠhÃ¶fn":11296,"ĠÃ¡skorun":11297,"sÃ¡Ã¦tlun":11298,"ĠrÃŃkisstjÃ³rnina":11299,"ĠReykjaness":11300,"ystkini":11301,"ĠKjartansson":11302,"Ġcm":11303,"Ġeg":11304,"ĠvelferÃ°":11305,"Ġsterka":11306,"42":11307,"sviÃ°i":11308,"ĠhÃ¦ttur":11309,"Ġhersins":11310,"ningarnir":11311,"bÃºum":11312,"ĠhÃ¦starÃ©ttardÃ³m":11313,"ĠÃ¶rorku":11314,"Ġkasta":11315,"Ġvelt":11316,"ĠSÃ¡":11317,"unt":11318,"IV":11319,"ĠKÃŃnver":11320,"fundar":11321,"ĠlÃ¡nssam":11322,"Ġprins":11323,"ĠsÃ¶guna":11324,"hÃ¦tti":11325,"alista":11326,"ĠvÃŃmu":11327,"ĠkostaÃ°i":11328,"Ġlosna":11329,"fylg":11330,"Bank":11331,"orth":11332,"ĠKo":11333,"ĠÃ¡tjÃ¡n":11334,"Ġumsagnar":11335,"ĠKÃ¡rahn":11336,"gÃ¶ngur":11337,"ĠDom":11338,"ĠBjart":11339,"ĠAsÃŃu":11340,"Ġby":11341,"ĠrÃ¦dd":11342,"Ġtilein":11343,"Ġkennarar":11344,"Ġmargs":11345,"jurnar":11346,"ĠrÃ½m":11347,"ĠÃ¾ekkti":11348,"ĠauÃ°l":11349,"ĠmÃ¶rkin":11350,"minja":11351,"ĠBjarki":11352,"ĠrÃ¡Ã°ning":11353,"umhverfi":11354,"ĠgagnrÃ½na":11355,"Ġsakar":11356,"Ġformanni":11357,"lÃ¦kni":11358,"grunn":11359,"Ã¡na":11360,"Ġveturinn":11361,"ĠAston":11362,"ilm":11363,"atriÃ°iÃ°":11364,"ĠtÃŃmar":11365,"verÃ°launa":11366,"ĠrÃ©ttlÃ¦":11367,"ĠlÃŃkama":11368,"Ġteig":11369,"ĠgÃ¦Ã°a":11370,"Ġstyrktar":11371,"ĠElÃŃsabet":11372,"Ġorsak":11373,"Engu":11374,"Ġorlof":11375,"bba":11376,"Ġinnl":11377,"ĠReykjanesbÃ¦jar":11378,"ĠFrÃ©ttablaÃ°inu":11379,"ĠSnÃ¦r":11380,"ight":11381,"ĠÃ¶kutÃ¦k":11382,"ĠÃ¶rlÃŃtiÃ°":11383,"ekju":11384,"600":11385,"ĠfordÃ¦mi":11386,"VilhjÃ¡l":11387,"ĠrÃ¡Ã°uneytinu":11388,"ĠSif":11389,"Ġmerkilegt":11390,"ĠflÃ³ttamanna":11391,"stÃ³ll":11392,"arÃ¡Ã°uneytiÃ°":11393,"Ġbjarg":11394,"ÃŃskt":11395,"ĠPakist":11396,"amÃ³ta":11397,"ĠÃŃslenskrar":11398,"ĠÃ³vissa":11399,"Ġsakir":11400,"ĠhrÃŃÃ°":11401,"ĠbÃ³kin":11402,"Ã¶nsk":11403,"Ġskildu":11404,"Ġind":11405,"ĠNÃ¡ttÃºru":11406,"Ġalmennu":11407,"ARK":11408,"hÃ³purinn":11409,"Ġtilnef":11410,"hÃ³pur":11411,"ĠGam":11412,"Ġdreifingu":11413,"ĠtÃŃmap":11414,"Ġminningu":11415,"vÃ¦last":11416,"vn":11417,"ĠFjÃ¡rmÃ¡laeftirlitsins":11418,"Ġvaxt":11419,"samningur":11420,"ĠviÃ°unandi":11421,"ulla":11422,"ÃºtÃŃn":11423,"Ġten":11424,"ĠÃ¡s":11425,"ĠLundÃºnum":11426,"vÃ¶rÃ°":11427,"ĠnÃ½jung":11428,"astarfsemi":11429,"ynni":11430,"SV":11431,"ingnum":11432,"RÃŃkisstjÃ³rnin":11433,"akerfinu":11434,"ĠJose":11435,"ĠendurgreiÃ°":11436,"gÃ¶gn":11437,"Ġsterkur":11438,"Ġkaupm":11439,"yne":11440,"GA":11441,"ĠvinsÃ¦la":11442,"Ġvert":11443,"ĠlÃ½tur":11444,"Ã¾rÃ³tta":11445,"Ġfylk":11446,"Ġnefndir":11447,"ĠVesturlands":11448,"ĠauglÃ½singar":11449,"ĠjÃ¶rÃ°ina":11450,"ĠRÃ³m":11451,"way":11452,"eislu":11453,"BÃ¦jar":11454,"ĠlÃ¡nsfjÃ¡r":11455,"ĠhÃ¦kki":11456,"ĠGylfa":11457,"ĠvÃŃsbendingar":11458,"ĠhÃ¡lfleiks":11459,"ĠleiÃ°um":11460,"Ġyfirstandandi":11461,"ofnunin":11462,"Ġvandi":11463,"Ġsigurvegar":11464,"43":11465,"ĠsjÃºkraf":11466,"Ġspjall":11467,"Ġinnbrot":11468,"ĠÃ³gn":11469,"ĠDÃ¶gg":11470,"Ã¾ykk":11471,"ire":11472,"Hl":11473,"Ġungir":11474,"skÃ½":11475,"ĠsjÃ¡lfstÃ¦Ã°ismanna":11476,"slurnar":11477,"ĠTÃ©kk":11478,"Ġ108":11479,"ĠtilbÃºiÃ°":11480,"ĠDar":11481,"oc":11482,"Ġengir":11483,"Bryn":11484,"ĠÃ¾ykk":11485,"Ġtilkynningar":11486,"ĠleiÃ°arljÃ³si":11487,"ĠMaÃ°ur":11488,"ĠHreiÃ°ar":11489,"Ã¶ls":11490,"ĠFljÃ³":11491,"Ġvegur":11492,"AfrÃŃku":11493,"ĠBerlÃŃn":11494,"Ġgras":11495,"slegan":11496,"Ġfallast":11497,"Telur":11498,"ĠkÃ¦rÃ°a":11499,"ĠgrundvÃ¶llur":11500,"ĠMoskvu":11501,"bÃ¡ta":11502,"ungum":11503,"ĠframhaldsskÃ³l":11504,"Ġheilbr":11505,"ĠsÃ©rkenn":11506,"Ġforsvarsmenn":11507,"ĠÃ¡herslur":11508,"legustu":11509,"ĠSvÃŃÃ¾jÃ³Ã°ar":11510,"ĠfyrirtÃ¦kjanna":11511,"HÃ¦stirÃ©ttur":11512,"ĠÃ¡rÃ¡sar":11513,"ĠSigurÃ°ardÃ³ttur":11514,"Ġsakbor":11515,"ĠSara":11516,"Ã¶num":11517,"Ġaugun":11518,"ĠstÃŃf":11519,"reins":11520,"ĠviÃ°fangsefni":11521,"ĠKarlsson":11522,"Ġfreg":11523,"ĠSovÃ©t":11524,"Ġflesta":11525,"ĠBeck":11526,"III":11527,"Ġdrag":11528,"ĠsvokÃ¶lluÃ°u":11529,"Ã¦ki":11530,"ĠhÃ¡tÃŃÃ°inni":11531,"ĠeignuÃ°ust":11532,"ulham":11533,"Ġsendiherra":11534,"afÃ³lki":11535,"onu":11536,"ĠpÃ³litÃŃska":11537,"mikil":11538,"hÃ¡ttar":11539,"ĠhÃºsn":11540,"ĠPÃ¡ls":11541,"Ġframherji":11542,"ĠmarkahÃ¦":11543,"ĠpappÃŃr":11544,"brigÃ°is":11545,"rÃ¡n":11546,"rick":11547,"eytend":11548,"VirÃ°ulegur":11549,"Ġathyglisvert":11550,"luÃ°u":11551,"ĠHÃ¡skÃ³lans":11552,"ĠHafranns":11553,"enu":11554,"ĠhÃºmor":11555,"Ġdoktor":11556,"Ġmarks":11557,"alof":11558,"Ġpip":11559,"ĠaÃ°lÃ¶g":11560,"Ġdrepa":11561,"ise":11562,"ĠFyr":11563,"ĠTra":11564,"ĠVÃŃkur":11565,"ĠGest":11566,"ĠAnton":11567,"ĠHeimir":11568,"Ġuppbyggingar":11569,"ĠfeÃ°":11570,"ĠFjarÃ°a":11571,"pen":11572,"ĠÃ¾vo":11573,"ĠrÃ¶kstuÃ°":11574,"ĠauÃ°velda":11575,"ĠBelgÃŃu":11576,"Ġsnar":11577,"ĠFerguson":11578,"ĠÃºrslita":11579,"jÃ¶rt":11580,"Ġyfirskrift":11581,"ĠembÃ¦ttismenn":11582,"ĠFjÃ¶lni":11583,"nslu":11584,"Ġbirtar":11585,"fundur":11586,"ĠEgilsstÃ¶Ã°um":11587,"Ġheitt":11588,"ĠleikskÃ³l":11589,"fylgjandi":11590,"Ġsumri":11591,"Ġfullyrt":11592,"ÃģkvÃ¦Ã°i":11593,"ĠlÃ¶ggjaf":11594,"Viss":11595,"hÃ¡tÃŃÃ°inni":11596,"Ġstofu":11597,"ĠpÃº":11598,"akl":11599,"ĠhlÃ¦r":11600,"Ġforsetans":11601,"AmerÃŃku":11602,"fÃ©lÃ¶gum":11603,"Ġerlendri":11604,"ĠumferÃ°arlaga":11605,"SpurÃ°ur":11606,"Full":11607,"ĠÃ©l":11608,"ĠEdda":11609,"otta":11610,"800":11611,"ĠpersÃ³n":11612,"Ġlausnir":11613,"ĠnÃ³ttina":11614,"ĠlÃŃnur":11615,"afulltrÃºi":11616,"ĠkrÃ¶fuhafa":11617,"slaug":11618,"ĠFÃ¦reyjum":11619,"ĠGarÃ°":11620,"Ġ112":11621,"ĠWa":11622,"stÃ©tt":11623,"ĠGuÃ°nason":11624,"dem":11625,"latan":11626,"vestur":11627,"Ġdeilur":11628,"ĠerfiÃ°a":11629,"Ġdreift":11630,"smÃ³t":11631,"56":11632,"Ġne":11633,"ĠrauÃ°a":11634,"ĠsjÃ³Ã°num":11635,"ĠgildistÃ¶ku":11636,"Ġfata":11637,"leggja":11638,"Ġstreng":11639,"Megin":11640,"ĠblaÃ°amannafundi":11641,"ĠumhverfisÃ¡hrif":11642,"Ġheiti":11643,"ĠsÃŃÃ°astliÃ°iÃ°":11644,"ruÃ°um":11645,"Ġyfirlit":11646,"epÃºblik":11647,"ReykjavÃŃk":11648,"ĠhÃ¦ttir":11649,"ĠÃ¦Ã°i":11650,"samningsins":11651,"ĠjÃ¶fn":11652,"Ġsekur":11653,"Heildar":11654,"sfirÃ°i":11655,"veginn":11656,"Ġkannabis":11657,"Ġdeiliskipulag":11658,"lis":11659,"ĠWorld":11660,"stefnandi":11661,"Ġskorti":11662,"Ro":11663,"sala":11664,"ĠtÃ³kum":11665,"Ġdrott":11666,"ĠÃ¾rosk":11667,"Ġstutta":11668,"Ġvarlega":11669,"sjÃºkdÃ³m":11670,"ĠÃ³hepp":11671,"byggingar":11672,"ĠStjÃ¶rnunnar":11673,"Ġbeinum":11674,"ĠsjÃ³nvarpi":11675,"ĠfÃ©laganna":11676,"ĠhÃ©raÃ°sdÃ³mari":11677,"Ã°uÃ°u":11678,"Ã¦kt":11679,"ĠjÃ¶k":11680,"ĠSiglufirÃ°i":11681,"ĠSkÃºli":11682,"Ġumhugs":11683,"hygli":11684,"ĠErling":11685,"ĠÃŀorstein":11686,"ridge":11687,"jÃ¶ldin":11688,"Fyrri":11689,"ĠGrÃŃmsson":11690,"Ġfeli":11691,"ĠBrussel":11692,"zlu":11693,"ĠStÃ¶Ã°var":11694,"ĠÃŀorskur":11695,"ofb":11696,"manninn":11697,"ĠsmÃ¦rri":11698,"Ġ350":11699,"ĠkvÃ¶ldi":11700,"luÃ°um":11701,"Ġsakfelld":11702,"Ġdregist":11703,"VilhjÃ¡lmur":11704,"ales":11705,"janlega":11706,"ĠtÃŃmabÃ¦rt":11707,"ĠfimmtÃŃu":11708,"ĠhÃ¶fuÃ°borginni":11709,"Ġbarni":11710,"ĠhÃ¡lfan":11711,"Ã¾oli":11712,"Ġoddviti":11713,"ĠByr":11714,"ĠfagnaÃ°":11715,"ĠRaf":11716,"ĠUn":11717,"Ġsendur":11718,"Ġfugla":11719,"ÃŃda":11720,"ĠVol":11721,"ansea":11722,"asafni":11723,"ĠaÃ°hald":11724,"entar":11725,"ĠstaÃ°festingar":11726,"ĠverkalÃ½Ã°shreyf":11727,"ĠBirgisson":11728,"Ġtim":11729,"ĠDen":11730,"ĠfÃ¡tÃ¦kt":11731,"bekk":11732,"Ġsmekk":11733,"ĠKefl":11734,"ĠhafÃ°ir":11735,"Lagt":11736,"Aldrei":11737,"ĠÃ¡ratuga":11738,"Sku":11739,"ĠfyrirtÃ¦kis":11740,"blaÃ°inu":11741,"Lang":11742,"ĠkjÃ¶rinn":11743,"ĠknÃ½":11744,"ĠAusturrÃŃki":11745,"Ġvinkonu":11746,"ĠljÃ³sm":11747,"ĠÃ³nÃ½":11748,"lÃ¦knis":11749,"ĠStefÃ¡nsdÃ³ttir":11750,"ĠSteinn":11751,"ĠKatrÃŃ":11752,"ĠÃ¡hugamÃ¡l":11753,"bÃ¡t":11754,"NÃ¡nar":11755,"viÃ°skipti":11756,"ĠSnorri":11757,"sskip":11758,"ĠbÃ¶nkunum":11759,"aframleiÃ°":11760,"ĠspÃ¦nska":11761,"Hvor":11762,"klÃºbb":11763,"garÃ°i":11764,"mÃ¦tt":11765,"Ġ125":11766,"Ġ1968":11767,"ĠHalld":11768,"ĠÃ½miss":11769,"ĠStokkhÃ³l":11770,"auga":11771,"ĠÃŃslensks":11772,"ĠfjÃ¡rhÃ¦Ã°ir":11773,"sstaÃ°a":11774,"ĠfÃ¦Ã°ingarorlof":11775,"Ġskipinu":11776,"arfjarÃ°ar":11777,"Far":11778,"cy":11779,"ĠdjÃº":11780,"ĠLjÃ³":11781,"ĠHof":11782,"Ġleigja":11783,"Ġbarnsins":11784,"ĠhÃºsum":11785,"Ġheimsstyr":11786,"ĠbÃ³kum":11787,"Ġspari":11788,"nasta":11789,"ĠvÃŃÃ°ast":11790,"ĠvirÃ°isaukaskatti":11791,"Ġtra":11792,"ĠumrÃ¦Ã°an":11793,"ĠLÃºxem":11794,"varÃ°ar":11795,"abÃº":11796,"burÃ°a":11797,"frÃ¡":11798,"ĠlofaÃ°":11799,"Ġmerkingu":11800,"anar":11801,"tr":11802,"ĠFylkis":11803,"ĠgÃ³l":11804,"Ġendurtek":11805,"Ġsamver":11806,"ĠbÃ³khald":11807,"Ġapp":11808,"ĠfrÃº":11809,"MjÃ¶g":11810,"Ġreksturinn":11811,"bÃºi":11812,"slist":11813,"Ġsigurmark":11814,"Ġbei":11815,"ĠEngland":11816,"ĠSjÃºkra":11817,"Ġfrumkv":11818,"ĠhÃ¦lisleit":11819,"ĠÃ³met":11820,"ĠrÃ¦Ã°ust":11821,"Ġyfirvalda":11822,"Ġdeyja":11823,"ĠYou":11824,"ĠhÃ¶fÃ°a":11825,"vegur":11826,"ĠBÃ¡r":11827,"ĠfÃ³tbol":11828,"ĠtÃ¦kja":11829,"Ġlistanum":11830,"arfÃ©lags":11831,"ĠvonbrigÃ°um":11832,"HefÃ°i":11833,"ĠHin":11834,"ĠsmÃŃÃ°":11835,"Ġfinnur":11836,"grund":11837,"Endur":11838,"ement":11839,"Ġfinnast":11840,"Ġhverjar":11841,"Ġrefsing":11842,"arfull":11843,"ĠHvernig":11844,"ĠÃ¡greining":11845,"ĠlÃ¡niÃ°":11846,"Ġeftirminn":11847,"kerfisins":11848,"ĠÃ¾olinm":11849,"napp":11850,"Ġleikhluta":11851,"ĠÃ¾ingkos":11852,"Reg":11853,"ĠÃ¡tÃ¶kum":11854,"âĢľ":11855,"ĠrÃ¶ksem":11856,"Ġbankahrun":11857,"TV":11858,"eip":11859,"ĠfÃ¦ti":11860,"ĠStjÃ¶rnunni":11861,"ĠfrÃ¶nsku":11862,"national":11863,"FÃ¡":11864,"nam":11865,"ĠviÃ°urkenndi":11866,"HM":11867,"ĠvinÃ¡ttu":11868,"Ġsetningu":11869,"Ġhelsti":11870,"fyrirtÃ¦kja":11871,"lagiÃ°":11872,"Ã¦ja":11873,"Ġgamalt":11874,"ĠÃ¾Ã©ttbÃ½li":11875,"Ãįs":11876,"eppnina":11877,"ifr":11878,"Ġhrl":11879,"ĠvinsÃ¦lda":11880,"ĠHollywood":11881,"Ġgesta":11882,"ĠPÃŃrata":11883,"ĠÃ¾ekkta":11884,"ĠstjÃ³rnarskrÃ¡nni":11885,"ĠreiÃ°i":11886,"Ġungra":11887,"ĠRichard":11888,"nauÃ°":11889,"MA":11890,"aleyfi":11891,"Ġsofa":11892,"Ġhvatti":11893,"ĠVestfjarÃ°a":11894,"ĠÃ³vÃŃst":11895,"ĠEiÃ°":11896,"ĠRÃ¡Ã°":11897,"koman":11898,"Ġ170":11899,"Ġeystra":11900,"ĠtÃ©":11901,"ĠatvinnulÃŃfinu":11902,"ibl":11903,"ĠhÃºsnÃ¦Ã°is":11904,"Ġgegndi":11905,"ĠstarfsfÃ³lks":11906,"ĠStaÃ°an":11907,"ĠrÃ³t":11908,"78":11909,"que":11910,"ero":11911,"ĠhÃ¶ldum":11912,"ĠatkvÃ¦Ã°agreiÃ°":11913,"ĠerfiÃ°ar":11914,"ĠSÃ³lveig":11915,"kumÃ¡l":11916,"ĠraÃ°":11917,"inganna":11918,"Ġframsal":11919,"ĠOrkuveit":11920,"sÃ¶ng":11921,"Ġafborg":11922,"sjÃ³Ã°ur":11923,"Arn":11924,"Ġsamanlagt":11925,"Ġendurgjald":11926,"Ġ1955":11927,"Ġkry":11928,"ĠrÃ¦kilega":11929,"ĠframiÃ°":11930,"ĠhÃ¡deginu":11931,"Ġfylgdu":11932,"iforn":11933,"Ġgegnt":11934,"JÃ³nas":11935,"Kol":11936,"siÃ°":11937,"akaup":11938,"den":11939,"ĠumsÃ³knir":11940,"rÃ¶nd":11941,"skÃŃr":11942,"TalsmaÃ°ur":11943,"Ġslysadeild":11944,"ĠRed":11945,"ĠÃŃr":11946,"naÃ°ir":11947,"ĠlÃ¡gmarki":11948,"zy":11949,"oÃ°iÃ°":11950,"outhampton":11951,"wich":11952,"ĠKÃº":11953,"ĠÃŀjÃ³Ã°leik":11954,"ĠvÃ¦ng":11955,"Ġstoltur":11956,"ĠbyrjuÃ°u":11957,"ĠstjÃ³rnarandstÃ¶Ã°unnar":11958,"ĠstaÃ°ur":11959,"Ġgreiddu":11960,"Ġjar":11961,"ĠatkvÃ¦Ã°agreiÃ°slu":11962,"Ġdvalar":11963,"tekt":11964,"ĠKim":11965,"svÃŃk":11966,"aÃ°gerÃ°um":11967,"ĠAFP":11968,"Ġvegfar":11969,"ĠBaugs":11970,"ĠviÃ°skiptavina":11971,"Ġglugga":11972,"Ġsaka":11973,"ĠTo":11974,"ĠÃģsdÃŃs":11975,"ĠbÃ³karinnar":11976,"Ġbirtast":11977,"ĠhÃ¶fundur":11978,"ĠsÃ©rhÃ¦f":11979,"ĠbÃ³lu":11980,"ĠFann":11981,"ĠÃ¾reng":11982,"ersÃ³nu":11983,"menni":11984,"ĠkartÃ¶f":11985,"Ġauknu":11986,"eldu":11987,"Ġskipulagi":11988,"kraf":11989,"anirnar":11990,"arfÃ³lk":11991,"Ġvikunnar":11992,"ĠtÃŃÃ°kast":11993,"ouse":11994,"jendum":11995,"Ġlog":11996,"ĠsannfÃ¦rÃ°ur":11997,"ĠGuÃ°bjar":11998,"ĠReyÃ°":11999,"Ġ1958":12000,"iv":12001,"ĠÃ¾ingmanns":12002,"valds":12003,"ĠstaÃ°festir":12004,"Ġka":12005,"ĠfÃ©kkst":12006,"frjÃ¡l":12007,"stÃ¦Ã°ar":12008,"ĠJones":12009,"Ġtaldar":12010,"ĠhagnaÃ°i":12011,"ĠviÃ°urkennir":12012,"Ġbiskup":12013,"ĠÃ¾Ã¡ltill":12014,"Borgar":12015,"ĠstÃºlkan":12016,"Ġnyt":12017,"ĠritstjÃ³ri":12018,"ats":12019,"Ġdregin":12020,"Ġbylt":12021,"ĠframtÃŃÃ°ina":12022,"sfrÃ¦Ã°i":12023,"ĠmakrÃŃl":12024,"ĠlÃ¶gregluna":12025,"ĠÃĵskarsson":12026,"ĠÃºtrÃ½":12027,"ĠfjÃ¶lgaÃ°i":12028,"ĠvÃ¦nti":12029,"ĠBjÃ¶rns":12030,"nasonar":12031,"ĠsÃ©rstaks":12032,"RÃ¡Ã°herra":12033,"Ġgjaldeyri":12034,"ĠChrist":12035,"ĠnÃºv":12036,"nunni":12037,"Ġ1967":12038,"afund":12039,"ĠMay":12040,"ĠÃ¾en":12041,"fanga":12042,"slegur":12043,"ĠrÃŃkjandi":12044,"ĠFrjÃ¡lslynd":12045,"ĠfrÃ©ttavef":12046,"ĠÃ¾okk":12047,"ĠSl":12048,"ĠHallgrÃŃmsson":12049,"ĠÃ³Ã¾ekk":12050,"Ġskortur":12051,"ĠfiÃ°":12052,"frÃ¦Ã°inga":12053,"ĠrÃ¡Ã°stÃ¶funar":12054,"Byr":12055,"ĠSim":12056,"ĠHjalta":12057,"Ã¶ttum":12058,"ĠhÃ¦filega":12059,"ĠnÃ¡Ã°um":12060,"ĠkvÃ¶ldsins":12061,"Un":12062,"ĠÃŀann":12063,"ĠVegagerÃ°arinnar":12064,"ĠdvÃ¶l":12065,"ennar":12066,"ĠIngÃ³lfsson":12067,"ĠsmjÃ¶r":12068,"Ãºsta":12069,"snÃ¡m":12070,"Ġmeistara":12071,"astarf":12072,"ĠskaÃ°abÃ¦tur":12073,"aÃ°stÃ¶Ã°u":12074,"tÃ¶ldum":12075,"Ġvildum":12076,"ĠvÃ¦ntanleg":12077,"FulltrÃºar":12078,"Ġhittast":12079,"ellu":12080,"ĠslÃ¡tur":12081,"ĠstÃ¶Ã°var":12082,"ĠDÃ³m":12083,"ĠhruniÃ°":12084,"ĠÃĵskars":12085,"ĠleiÃ°tog":12086,"fÃºs":12087,"ĠSpÃ¡nar":12088,"Ġtreg":12089,"Â°Â°":12090,"ilegustu":12091,"Ġdal":12092,"verÃ°an":12093,"Ġafli":12094,"Ġtogar":12095,"ĠhvaÃ°an":12096,"lausnar":12097,"ĠsjÃ³Ã°urinn":12098,"slÃ¡n":12099,"ĠflÃ³kiÃ°":12100,"ĠkvÃ¶ldin":12101,"Ġkynningu":12102,"ĠÃŃslam":12103,"Ġdu":12104,"jana":12105,"ĠÃ¾Ã¶kk":12106,"Ġsteyp":12107,"ĠstyÃ°ur":12108,"Ġmanneskja":12109,"ytt":12110,"ĠÃ¾ekkingar":12111,"ĠalÃ¾ingismaÃ°ur":12112,"ĠsÃ©rstakri":12113,"Ġmengun":12114,"kostnaÃ°":12115,"ĠvÃŃsindamenn":12116,"ĠlÃŃÃ°an":12117,"Ġstytta":12118,"Ġrefsingu":12119,"uknattleik":12120,"Ġ1950":12121,"Ra":12122,"skrar":12123,"ĠundanÃ¾Ã¡gu":12124,"Ã¾jÃ³nustan":12125,"Ġgrim":12126,"ĠDagur":12127,"ĠAmer":12128,"Starfsmenn":12129,"hefur":12130,"Ġfallin":12131,"Ġalmennar":12132,"Ġgjalddaga":12133,"ĠhagnÃ½":12134,"eu":12135,"ĠmÃ³tsins":12136,"hÃ¡tÃŃÃ°ar":12137,"Ġveltu":12138,"Samtals":12139,"ĠframhaldiÃ°":12140,"ĠleikhÃºs":12141,"Ġreikninga":12142,"orgi":12143,"ĠfrÃ¡l":12144,"ĠlandsliÃ°sÃ¾jÃ¡lfari":12145,"jÃ³Ã°um":12146,"Ġfullan":12147,"ĠundirritaÃ°ur":12148,"gju":12149,"ĠÃ¡gÃ¦ta":12150,"ĠKast":12151,"ĠsambÃ¦rileg":12152,"ĠÃ¶ryrkja":12153,"skÃ¡":12154,"ugl":12155,"Ãĸkum":12156,"ĠsambandiÃ°":12157,"ĠfÃŃnt":12158,"Re":12159,"ĠSunderland":12160,"ĠrjÃ³":12161,"ĠRÃŃkisÃºtvarpiÃ°":12162,"ĠsÃ¦nsku":12163,"ĠsvariÃ°":12164,"Ġtilkynning":12165,"Ġfermetra":12166,"skÃºr":12167,"arfor":12168,"Ġhluthaf":12169,"Ġeykur":12170,"ĠborgarstjÃ³ra":12171,"erÃ°ir":12172,"Ġeinkunn":12173,"nattspyrnu":12174,"ĠÃ¡byr":12175,"Ġskyldum":12176,"ĠhÃ©Ã°an":12177,"osti":12178,"ĠÃ³skum":12179,"ĠÃ¾rÃ¦":12180,"ĠviÃ°skiptavinum":12181,"Ġumgengni":12182,"ms":12183,"ĠutanrÃŃkismÃ¡l":12184,"ĠgarÃ°i":12185,"tustu":12186,"ĠThomas":12187,"ĠskÃ½rslur":12188,"Ġdvelja":12189,"svein":12190,"Ã¦rin":12191,"ĠstjÃ³rnarinnar":12192,"Ġmaka":12193,"Ġeinhverri":12194,"ĠeinhliÃ°a":12195,"ĠathÃ¶fnin":12196,"Ġgefist":12197,"ĠÃ¾jÃ³na":12198,"Jafnvel":12199,"ĠskÃ³lag":12200,"Stefndu":12201,"aÃ°stoÃ°":12202,"Ġfangels":12203,"ĠBolungarvÃŃk":12204,"anlegri":12205,"ĠBolton":12206,"Arnar":12207,"ĠkveÃ°jum":12208,"ori":12209,"ynn":12210,"samur":12211,"Ġsafnast":12212,"Ġslapp":12213,"sÃ¶gnum":12214,"SigrÃºn":12215,"Henni":12216,"Ã¾jÃ³nustunni":12217,"Ġaugnablik":12218,"Ġfyllilega":12219,"ĠlÃ½singu":12220,"rÃ¡sar":12221,"Ġmisserum":12222,"Tilkyn":12223,"ĠsamhljÃ³":12224,"ĠÃ¡Ã°urnefnd":12225,"ĠfÃ¦Ã°u":12226,"ĠvitnaÃ°":12227,"ĠhÃ¡tÃŃÃ°arinnar":12228,"Ġ1977":12229,"ura":12230,"leigu":12231,"Ġvinkona":12232,"BjÃ¶rgunar":12233,"jÃ¶rnu":12234,"ĠÃŀjÃ³r":12235,"Ġafnot":12236,"Ġpund":12237,"Ġsamskipta":12238,"kvÃ¦Ã°iÃ°":12239,"ĠLandsbankanum":12240,"ĠfjÃ¡rmagni":12241,"stÃ¦r":12242,"aÃ°iÃ°":12243,"rÃ³Ã°ir":12244,"Ġafgreitt":12245,"ĠhvÃŃld":12246,"ĠgÃ¶tum":12247,"Ġsilfur":12248,"Ġkipp":12249,"ĠÃ¾jÃ³nar":12250,"ĠlÃ¡tist":12251,"ĠbÃ¡ta":12252,"ĠÃ¾ungt":12253,"ĠhÃ³psins":12254,"ninganna":12255,"lÃ¶gin":12256,"HÃ©raÃ°sdÃ³mur":12257,"Ã¾jÃ¡lfari":12258,"ĠÃ³ljÃ³st":12259,"ĠrÃŃkislÃ¶greglustjÃ³ra":12260,"vÃŃu":12261,"Ġamfet":12262,"ĠSÃ³lrÃºn":12263,"KA":12264,"gri":12265,"ĠsjÃ¡lfst":12266,"ĠrÃŃkisborgarar":12267,"ĠJer":12268,"ĠhÃ¶fuÃ°stÃ³l":12269,"StuÃ°":12270,"ĠhlÃ½ju":12271,"Ġ1961":12272,"Ġinnheimta":12273,"ddist":12274,"ĠflugvÃ¶ll":12275,"hafs":12276,"ĠefnahagsmÃ¡lum":12277,"hlutans":12278,"ĠauglÃ½sing":12279,"ĠSkÃ³la":12280,"Ġframs":12281,"Ġslyssins":12282,"ĠHalldÃ³rs":12283,"ĠrÃ¦ktun":12284,"ĠatburÃ°ar":12285,"ĠLeicester":12286,"Ġbat":12287,"Ġfylgist":12288,"encia":12289,"Ġch":12290,"Ã³nus":12291,"Ġlandsk":12292,"Ã¶guleik":12293,"brand":12294,"ĠrÃŃkisskatt":12295,"hers":12296,"ence":12297,"ĠFylki":12298,"ĠbifreiÃ°ar":12299,"Ġeinstakt":12300,"ros":12301,"ĠsekÃºndu":12302,"endurnir":12303,"ĠKaupÃ¾ing":12304,"ĠFÃ³lk":12305,"Ġ103":12306,"ĠmeiÃ°sl":12307,"Ġregla":12308,"Ġskamms":12309,"BÃºiÃ°":12310,"ĠsveitarstjÃ³r":12311,"Ġunglingar":12312,"ĠJohnson":12313,"eifar":12314,"yan":12315,"ĠmiÃ°ast":12316,"Ġvefnum":12317,"ĠÃ¾Ãºsundir":12318,"Ġtilviljun":12319,"Ġsendum":12320,"ĠstjÃ³rnun":12321,"Ġnaum":12322,"HjÃ¶r":12323,"Ġbyggjast":12324,"ĠSamfylkingar":12325,"ĠRos":12326,"Ãģsgeir":12327,"ĠhljÃ³p":12328,"Ġheildina":12329,"ĠÃ¾unga":12330,"ĠÃºtskÃ½ra":12331,"ĠframburÃ°i":12332,"ĠnÃ¡ist":12333,"ĠstaÃ°festur":12334,"ĠlandbÃºnaÃ°":12335,"via":12336,"Ġreglna":12337,"hrepps":12338,"Ġfatl":12339,"viÃ°s":12340,"ĠPe":12341,"ĠVar":12342,"skapar":12343,"sland":12344,"ĠstofnuÃ°":12345,"eppninnar":12346,"mÃ¡linu":12347,"ĠÃºtlanda":12348,"eftirlitsins":12349,"Ġumhyggju":12350,"ĠrÃ¡Ã°gjafar":12351,"naÃ°a":12352,"ĠSol":12353,"ĠÃ¾rÃ¡":12354,"bakk":12355,"gjÃ¶rÃ°":12356,"ĠÃŃtalska":12357,"ĠReykja":12358,"ĠStar":12359,"ĠveiÃ°um":12360,"ĠÃĵlafsvÃŃk":12361,"Ġhreinsa":12362,"Sigmundur":12363,"ĠhlutabrÃ©fum":12364,"Ġbruna":12365,"Ġvitnis":12366,"ĠmannrÃ©ttinda":12367,"ĠGaz":12368,"Ġskapar":12369,"Ġ1966":12370,"ĠfiskveiÃ°ist":12371,"ÃŃmann":12372,"burn":12373,"ĠKaliforn":12374,"vopn":12375,"orÃ°um":12376,"dl":12377,"tÃŃmi":12378,"ĠniÃ°urskurÃ°":12379,"ĠsjÃ¡varÃºtvegsrÃ¡Ã°herra":12380,"argÃ¦slu":12381,"ĠgjaldÃ¾rot":12382,"NI":12383,"ĠskerÃ°a":12384,"ugur":12385,"ĠskipaÃ°i":12386,"ĠfjÃ¡rlaganefndar":12387,"het":12388,"ĠÃºtlÃ¶ndum":12389,"ĠalÃ¾jÃ³Ã°legu":12390,"shlu":12391,"Ġhugsanlegt":12392,"ĠfjÃ¶lmÃ¶rg":12393,"ĠlÃŃkams":12394,"ĠFC":12395,"HÃ¡l":12396,"Ġtapi":12397,"ĠMÃ½vatn":12398,"ego":12399,"ĠvaramaÃ°ur":12400,"ĠkjÃ¶rum":12401,"hÃ³li":12402,"ova":12403,"ĠPalestÃŃnumanna":12404,"ĠmÃ¦likv":12405,"leÃ°i":12406,"akeppni":12407,"Ġframar":12408,"ĠÃ¡rÃ¡":12409,"ĠÃŀÃ½skaland":12410,"heiminum":12411,"ĠEins":12412,"ĠsÃ½ninguna":12413,"verÃ°mÃ¦ti":12414,"ĠFrÃ©ttablaÃ°iÃ°":12415,"ĠÃ¡kveÃ°ur":12416,"agl":12417,"sstaÃ°":12418,"Ġhill":12419,"mannsins":12420,"sgjald":12421,"ĠTindast":12422,"Ġvinnunni":12423,"ĠlÃ½stu":12424,"Ġverkefnisins":12425,"ĠÃ¾re":12426,"ĠGreen":12427,"Ġmsk":12428,"izt":12429,"ĠNa":12430,"ĠtilboÃ°i":12431,"ĠÃ¡lita":12432,"autjÃ¡n":12433,"ĠStjÃ³rnar":12434,"Ġvarir":12435,"ĠuppboÃ°":12436,"ĠsamfÃ©lags":12437,"Ġnafninu":12438,"Ġhrak":12439,"ĠEirÃŃksson":12440,"ĠheimsÃ³tti":12441,"Ġtrufl":12442,"ĠWenger":12443,"ĠÃ¾ÃŃnu":12444,"Ġfagnar":12445,"ĠÃŃbÃºÃ°inni":12446,"ĠÃ¡gÃ¦tis":12447,"ĠmÃ¡latil":12448,"Ġhik":12449,"valdur":12450,"Ġeldg":12451,"Ġfremstu":12452,"hygg":12453,"ĠframboÃ°i":12454,"gangurinn":12455,"ĠStu":12456,"kkan":12457,"Ġsveitarinnar":12458,"sÃ¦i":12459,"ĠLS":12460,"iskos":12461,"ennandi":12462,"ĠÃįslandsmÃ³t":12463,"ĠVen":12464,"ĠÃŀrÃ¡":12465,"Ġseldur":12466,"skyn":12467,"atÃ¶ku":12468,"ĠrÃºma":12469,"ĠbÃºsett":12470,"ĠÃ¾ingfest":12471,"vig":12472,"ĠSkÃºlason":12473,"Ġaldurs":12474,"ĠdÃ¶kk":12475,"ĠInst":12476,"ĠFL":12477,"Ġkjarna":12478,"ĠdrÃ¶g":12479,"ĠlÃ¶gfrÃ¦Ã°i":12480,"Ġbrotin":12481,"Ġ1959":12482,"ĠviÃ°miÃ°unar":12483,"ĠBirnu":12484,"ĠLandss":12485,"arfyrirtÃ¦k":12486,"astaÃ°":12487,"ĠpÃ¡ska":12488,"Ġfrels":12489,"DÃ³mur":12490,"MarkmiÃ°iÃ°":12491,"samnings":12492,"verÃ°launin":12493,"Ġplata":12494,"Ġandlega":12495,"tÃŃÃ°in":12496,"infÃ³nÃŃu":12497,"ĠMagnÃºsar":12498,"Ġbirg":12499,"ĠsvipuÃ°":12500,"lÃŃfi":12501,"ĠÃŀÃ³rarinsson":12502,"lapp":12503,"ĠborgarstjÃ³rn":12504,"Â´":12505,"ĠnÃ½skÃ¶pun":12506,"ĠInternational":12507,"Ġvandlega":12508,"Ġrof":12509,"ĠfjÃ¶lmÃ¶rgum":12510,"ĠfjarlÃ¦gja":12511,"Ġag":12512,"ĠsÃ¶f":12513,"Ġbrun":12514,"ĠÃºrlausn":12515,"ĠskattgreiÃ°":12516,"hu":12517,"Ġskipsins":12518,"GuÃ°ni":12519,"LD":12520,"verkiÃ°":12521,"ĠPÃ©turs":12522,"ĠatvikiÃ°":12523,"yglÃ³":12524,"Ġvitneskju":12525,"ateng":12526,"ĠstÃºlka":12527,"del":12528,"isst":12529,"ĠmÃ¦lst":12530,"Ġgas":12531,"ĠBag":12532,"ĠÃ³tt":12533,"srÃ©tt":12534,"ĠumhverfiÃ°":12535,"beinn":12536,"Ġhlutfallslega":12537,"ĠÃ³full":12538,"drif":12539,"ĠverÃ°lags":12540,"ĠrÃ©ttilega":12541,"Ġhugmyndin":12542,"lifandi":12543,"Ġfjvn":12544,"ĠfyrirmÃ¦li":12545,"Ġstarfinu":12546,"utÃŃu":12547,"ĠnÃ¡grannal":12548,"xe":12549,"Ġkeyptu":12550,"jÃ¶ll":12551,"Ġ1963":12552,"nahag":12553,"Ã¡rin":12554,"Ġsveif":12555,"ĠFis":12556,"ĠfÃ¦rÃ°i":12557,"gunar":12558,"ĠlÃŃfeyrissjÃ³Ã°a":12559,"ĠSkarphÃ©Ã°insson":12560,"ÃŃmab":12561,"Ã¡kÃ¦r":12562,"Ġkosningarnar":12563,"Ġeinbeita":12564,"ĠAli":12565,"ĠBau":12566,"Ġ1944":12567,"ĠPÃ³llandi":12568,"skerfi":12569,"ĠFjÃ¶lnir":12570,"virkja":12571,"Ã¡rum":12572,"Ã½singu":12573,"asamtaka":12574,"89":12575,"visku":12576,"Ã¶ss":12577,"ĠauglÃ½sa":12578,"umferÃ°":12579,"orÃ°iÃ°":12580,"Ġundirskrif":12581,"oga":12582,"ĠbÃŃÃ³":12583,"Ġbundin":12584,"SjÃ¡lfur":12585,"ĠAlÃ¾jÃ³Ã°agjaldeyrissjÃ³Ã°":12586,"Berg":12587,"ĠlÃ½Ã°veld":12588,"Ġ1969":12589,"ĠÃŀÃ³rir":12590,"ĠÃ¡rangurs":12591,"ĠnÃ¡lÃ¦g":12592,"Ġverulegu":12593,"Gott":12594,"Ġhiti":12595,"ĠaÃ°standendur":12596,"Engar":12597,"ĠbrugÃ°iÃ°":12598,"angar":12599,"staÃ°ur":12600,"Ġhleyp":12601,"Ġfluttist":12602,"ĠValgerÃ°ur":12603,"BÃºist":12604,"ĠhÃ¡lfs":12605,"ĠAgnar":12606,"ets":12607,"Ġ900":12608,"ĠstÃºdentsp":12609,"SÃ¶ng":12610,"ĠumboÃ°smaÃ°ur":12611,"Ġmeiddist":12612,"ÃŀjÃ³":12613,"ĠgÃ³Ã°ra":12614,"Ġskemmdir":12615,"ĠrÃŃfa":12616,"ÃŃnur":12617,"ĠGuÃ°bjÃ¶rg":12618,"ĠloftiÃ°":12619,"ĠeiginmaÃ°ur":12620,"SjÃ¡lfstÃ¦Ã°i":12621,"Ġgrann":12622,"Ġmunurinn":12623,"ĠÃįslenska":12624,"unkt":12625,"ĠblÃ¶nd":12626,"Ġ1965":12627,"fin":12628,"ofnunum":12629,"fjall":12630,"ÃŀÃ¡tt":12631,"ĠFulham":12632,"ĠyfirlÃ½sing":12633,"ĠhÃ¶rku":12634,"Ġfunda":12635,"ĠDjÃºp":12636,"Ġreynum":12637,"hljÃ³Ã°andi":12638,"ĠvaraÃ°":12639,"Ġstyrkur":12640,"MÃ¶rg":12641,"rÃ¦Ã°iÃ°":12642,"ĠgÃŃfurlega":12643,"ageym":12644,"lie":12645,"ĠLÃºÃ°vÃŃk":12646,"Ġskilgreina":12647,"yti":12648,"ĠSigurbjÃ¶rn":12649,"mÃ¡nuÃ°i":12650,"ĠSverrisson":12651,"Gam":12652,"arÃ¶Ã°inni":12653,"Ġeldra":12654,"Ġkostum":12655,"ĠArnarson":12656,"ĠFrÃ©ttablaÃ°sins":12657,"ĠsÃ¶nnun":12658,"ĠlandbÃºnaÃ°arrÃ¡Ã°herra":12659,"Ġdrep":12660,"lausa":12661,"ĠGuÃ°rÃºnar":12662,"ĠGuÃ°rÃºnu":12663,"verjum":12664,"ĠGuardian":12665,"Vest":12666,"Ġsveifl":12667,"ĠleikmaÃ°urinn":12668,"wen":12669,"samningum":12670,"ĠBjarnadÃ³ttir":12671,"SÃ¦":12672,"ĠlandsframleiÃ°slu":12673,"slaga":12674,"ral":12675,"hÃ³pa":12676,"ĠÃ¾rot":12677,"ĠsÃ½r":12678,"Ġsendu":12679,"hlutum":12680,"ÃŃasson":12681,"Ġkrafta":12682,"ĠstÃ½rÃ°i":12683,"Ġan":12684,"ĠhÃ¶ndunum":12685,"Ġ102":12686,"ĠsÃŃldar":12687,"Ġkafli":12688,"Ġbleik":12689,"Ġmunar":12690,"ĠprÃ³sentum":12691,"Ġskiptingu":12692,"shn":12693,"ĠauÃ°veldlega":12694,"Meira":12695,"ĠrÃ¡Ã°sins":12696,"ĠandlitiÃ°":12697,"fit":12698,"Ġ1962":12699,"ĠStarf":12700,"mÃ¡lin":12701,"ĠviÃ°hor":12702,"195":12703,"Ġ365":12704,"ĠsmÃŃÃ°a":12705,"Ġkirkjunni":12706,"ĠJÃ³nsdÃ³ttur":12707,"ĠSambands":12708,"ĠrÃ¶Ã°um":12709,"ĠljÃ³Ã°a":12710,"Aug":12711,"flokkurinn":12712,"Ġsameinast":12713,"ĠBS":12714,"Ġneitar":12715,"Ãºa":12716,"ĠdÃ¦":12717,"ĠhraÃ°ar":12718,"ĠSkipulag":12719,"samningnum":12720,"Ãºssonar":12721,"ĠskoÃ°unum":12722,"ĠLÃį":12723,"gen":12724,"rekstur":12725,"undsson":12726,"Ġvestra":12727,"ava":12728,"ĠJÃºlÃŃusson":12729,"ĠsÃ¦l":12730,"ĠHafrannsÃ³knast":12731,"ĠÃ¡rÃ¡sinni":12732,"ĠviÃ°skiptavini":12733,"Ġvirkja":12734,"ect":12735,"Ġborgin":12736,"ĠyfirborÃ°":12737,"Th":12738,"jÃ¶kul":12739,"ĠHS":12740,"Ġstimp":12741,"BÃŃ":12742,"ĠsamÃ¾ykktar":12743,"ĠSir":12744,"Ġgrill":12745,"astÃ¶Ã°um":12746,"ĠÃ³lÃŃkt":12747,"onio":12748,"ĠeyÃ°i":12749,"markmiÃ°":12750,"Ġ1964":12751,"ĠLista":12752,"herberg":12753,"Ġskemmtilegur":12754,"Nokkur":12755,"ĠkÃ¶rfubolta":12756,"ĠBess":12757,"Ġfyrrv":12758,"ĠÃ¡hrifa":12759,"breytingum":12760,"ĠRob":12761,"bbi":12762,"Ġdram":12763,"ĠsvohljÃ³Ã°andi":12764,"ĠfÃ³tbolt":12765,"ĠÃ³gley":12766,"Ġsamtal":12767,"Haraldur":12768,"ĠeindregiÃ°":12769,"con":12770,"sey":12771,"ĠsjÃ¡lfstÃ¦Ã°ismenn":12772,"ĠorÃ°aÃ°ur":12773,"ĠmatvÃ¶ru":12774,"sskÃ½r":12775,"skort":12776,"hvarf":12777,"NiÃ°urstÃ¶Ã°ur":12778,"ĠFramkvÃ¦md":12779,"amennsku":12780,"Ġborgarar":12781,"ĠnÃ¡iÃ°":12782,"ĠÃ¾orp":12783,"Ġflot":12784,"ĠsvÃ¦Ã°isins":12785,"ĠHulda":12786,"ĠferÃ°amÃ¶nnum":12787,"Ġumhugsunar":12788,"ĠSkaft":12789,"Ġveiti":12790,"leikinn":12791,"Hiti":12792,"ĠDaÃ°i":12793,"Ã³leik":12794,"Ġkeppin":12795,"rautar":12796,"ĠminnkaÃ°i":12797,"arfjÃ¡r":12798,"ĠBur":12799,"ĠBor":12800,"jallaÃ°":12801,"ĠframÃºr":12802,"ĠvÃŃÃ°s":12803,"ĠFylkir":12804,"ĠGlitni":12805,"ĠhjÃ³naband":12806,"ĠjÃ¶r":12807,"teig":12808,"ĠfÃ³rst":12809,"ove":12810,"ĠÃŀannig":12811,"rÃ½mi":12812,"Ġ>":12813,"BÃ³kin":12814,"ĠSkagafirÃ°i":12815,"Ġgisti":12816,"opn":12817,"Ġhugarf":12818,"Ġflokkinn":12819,"YR":12820,"ĠDon":12821,"afÃ©laginu":12822,"eistur":12823,"Ġjap":12824,"hliÃ°":12825,"Ġkeppnis":12826,"Aftur":12827,"Ġspennu":12828,"Ġslitast":12829,"Ã¶lsku":12830,"Voru":12831,"oston":12832,"Ġ1956":12833,"ninginn":12834,"ĠAtlantshafs":12835,"stÃ³r":12836,"ĠaÃ°stÃ¦Ã°":12837,"Ġvakna":12838,"IK":12839,"alegar":12840,"Ġreynist":12841,"ĠfÃ¦kkun":12842,"Ġsigrinum":12843,"ĠerfiÃ°leika":12844,"bjarnar":12845,"boÃ°aliÃ°":12846,"nuna":12847,"ĠendurnÃ½jun":12848,"ÃŃmum":12849,"annsins":12850,"Ġfir":12851,"agt":12852,"ole":12853,"ĠKÃ¡rahnjÃºka":12854,"Ġeldur":12855,"41":12856,"ĠaÃ°almeÃ°ferÃ°":12857,"87":12858,"alds":12859,"sskrÃ¡":12860,"arans":12861,"ĠÃ¾Ãºsunda":12862,"Ġeigendum":12863,"pÃ³lit":12864,"Ġflutningi":12865,"Ġhugar":12866,"Innan":12867,"Ġleikslok":12868,"ital":12869,"ĠStefan":12870,"skurÃ°ur":12871,"tunum":12872,"nr":12873,"ĠTyrklandi":12874,"ĠStykkishÃ³lmi":12875,"ĠhrÃ³p":12876,"Ġfleirum":12877,"Ġpall":12878,"ĠafnÃ¡m":12879,"Ġdrengur":12880,"Ġstilla":12881,"ĠhÃ¦kkunar":12882,"ĠHlÃŃÃ°ar":12883,"rÃ¡Ã°u":12884,"Ġfelldur":12885,"Ã¡rdal":12886,"issur":12887,"hÃ³pnum":12888,"ĠhÃ¶nnunar":12889,"Aron":12890,"eignir":12891,"ĠkarlmaÃ°ur":12892,"ĠumrÃ¦ddum":12893,"ĠlÃ¦kkunar":12894,"Ġendurskipulag":12895,"ĠvinÃ¡tt":12896,"ĠskÃ³linn":12897,"ĠMak":12898,"ĠmÃ¡lflutningi":12899,"ĠaÃ°spurÃ°ur":12900,"aney":12901,"ĠhjÃ³la":12902,"Ġerind":12903,"erÃ°ar":12904,"Ġskynsamlegt":12905,"Ġendar":12906,"ĠHringbraut":12907,"ĠSky":12908,"ĠsvÃ¶rum":12909,"ĠÃŃhuga":12910,"ĠRod":12911,"HÃºsiÃ°":12912,"Ġhittumst":12913,"Ġendurtaka":12914,"ĠlÃŃkamsÃ¡rÃ¡s":12915,"ĠvonbrigÃ°i":12916,"aukur":12917,"amarkaÃ°":12918,"Ġkonunnar":12919,"Ġgreiningu":12920,"ĠpÃŃanÃ³":12921,"ĠlifÃ°i":12922,"kust":12923,"afell":12924,"ĠKalifornÃŃu":12925,"helm":12926,"ĠUnd":12927,"sÃ¾jÃ³nusta":12928,"ĠtÃŃmapunkti":12929,"Ġgefast":12930,"Ġungmenna":12931,"ĠsÃ©ra":12932,"styrk":12933,"ĠÃ¦vintÃ½ri":12934,"shrepp":12935,"Ġtilver":12936,"FriÃ°rik":12937,"ĠdÃ¦mdir":12938,"Hvar":12939,"Ã¡Ã°ir":12940,"ĠPla":12941,"arkostnaÃ°ur":12942,"Ġungmenni":12943,"ĠbrÃ©fa":12944,"Ġkind":12945,"ĠstÃ¶ddu":12946,"fast":12947,"Ġ1954":12948,"ĠApp":12949,"ĠSwansea":12950,"Ġverkin":12951,"ĠÃŃsrael":12952,"Ġheimamanna":12953,"ĠÃ³sÃ¡tt":12954,"ĠhorfÃ°i":12955,"leikari":12956,"Ġgrafa":12957,"ĠvÃ¶rslu":12958,"ĠBirkir":12959,"etti":12960,"ĠfÃ©lagsska":12961,"vant":12962,"Ġpo":12963,"nana":12964,"Ġtitilinn":12965,"ĠIÃ°n":12966,"Ã¡ta":12967,"Ġdetta":12968,"ĠskjÃ¡":12969,"byss":12970,"Ġmagni":12971,"skattur":12972,"ĠrÃŃkisÃºtvarp":12973,"Vissulega":12974,"res":12975,"Ġframfyl":12976,"we":12977,"ĠfÃ¡ein":12978,"ĠMÃ¼":12979,"ĠÃºrvalsdeildarinnar":12980,"ese":12981,"Ġheyrir":12982,"ĠBÃ¦nd":12983,"ĠfyrirhugaÃ°":12984,"sley":12985,"Ġauknar":12986,"ĠÃ¶rfÃ¡um":12987,"Ġtugi":12988,"ĠlÃ¶gfrÃ¦Ã°ingur":12989,"ĠSamtÃ¶k":12990,"ai":12991,"okkurinn":12992,"ningnum":12993,"Ġmenntmrh":12994,"Ã¡ls":12995,"ĠtjÃ³ns":12996,"andalag":12997,"igan":12998,"Ġ109":12999,"eis":13000,"ĠviÃ°talinu":13001,"MÃ³Ã°ir":13002,"varn":13003,"Ġdugleg":13004,"ĠdÃ¦miÃ°":13005,"ĠframfÃ¦rslu":13006,"ĠtÃŃÃ°ar":13007,"NN":13008,"blÃ¡stur":13009,"ĠsÃ©rstÃ¶Ã°u":13010,"ĠjarÃ°arinnar":13011,"Ġboltinn":13012,"ĠupplifaÃ°":13013,"ĠHarÃ°ardÃ³ttir":13014,"asjÃ³Ã°":13015,"Ãºk":13016,"ĠfortÃŃÃ°":13017,"ĠÃ³sammÃ¡la":13018,"Ġmisseri":13019,"ĠhÃ³par":13020,"ĠÃ¡kvÃ¦Ã°a":13021,"ĠÃŃhug":13022,"ĠlÃ½si":13023,"ĠstÃ¶dd":13024,"ĠbÃ³kun":13025,"ny":13026,"sdal":13027,"Ãºf":13028,"Ġafmark":13029,"ĠslÃ¶":13030,"ĠHraun":13031,"Hall":13032,"ĠFlÃ³r":13033,"bankinn":13034,"ĠvÃ¶rÃ°":13035,"ĠTe":13036,"ĠMed":13037,"legast":13038,"eygja":13039,"ĠKristjÃ¡ns":13040,"ĠSandgerÃ°i":13041,"Ġhdl":13042,"ĠÃ¡lÃŃka":13043,"ECD":13044,"ĠHalldÃ³rsdÃ³ttir":13045,"ĠstjÃ³rnarflokkanna":13046,"xf":13047,"Kar":13048,"NÃ½ja":13049,"sef":13050,"Ġsigla":13051,"ĠGold":13052,"ikk":13053,"reglan":13054,"Ġskrifstofust":13055,"ĠEgyptal":13056,"ĠmÃ³tmÃ¦lir":13057,"Ġsendingu":13058,"Ġtoppi":13059,"FjÃ³rir":13060,"ĠdÃ³mstÃ³lum":13061,"ĠmyndavÃ©l":13062,"Ġtort":13063,"SM":13064,"ĠÃ¾Ã³knun":13065,"ĠrÃ¡Ã°amenn":13066,"umaÃ°ur":13067,"rÃŃkjanna":13068,"asÃ¶m":13069,"ĠRÃŃkiss":13070,"Ġlund":13071,"Ġhugsanleg":13072,"hann":13073,"Ġheilu":13074,"ĠSnÃ¦fellsnesi":13075,"ĠkostaÃ°":13076,"ĠrÃ¦Ã°ustÃ³l":13077,"ĠMeistaradeildinni":13078,"ĠnÃ½skÃ¶punar":13079,"ameistari":13080,"Ġdettur":13081,"odaf":13082,"atÃ¶lur":13083,"Ġhreyfingu":13084,"Helstu":13085,"ĠverksmiÃ°ju":13086,"hrif":13087,"ĠrÃŃkisstjÃ³r":13088,"Ã³si":13089,"Lit":13090,"ĠÃºtsvar":13091,"ĠDonald":13092,"Ġverr":13093,"ĠLÃºxemborg":13094,"launum":13095,"ĠfrÃ¦nda":13096,"FH":13097,"Ġhyl":13098,"Ġsnjall":13099,"him":13100,"Ã¡hug":13101,"ĠgÃ¡tum":13102,"ĠlÃ³n":13103,"Ġgeymslu":13104,"ĠCor":13105,"ÃŃan":13106,"ĠfjÃ¡rfram":13107,"ĠPÃºtÃŃn":13108,"liki":13109,"ĠGrind":13110,"ĠÃ¡hyggjuefni":13111,"Sveinn":13112,"ĠÃŃhald":13113,"ĠRÃºssar":13114,"Ġveikinda":13115,"eni":13116,"Ġ106":13117,"ĠRooney":13118,"ĠfÃ¦Ã°ingu":13119,"slÃ¦k":13120,"SE":13121,"feng":13122,"ĠAdam":13123,"ĠlangtÃŃm":13124,"ĠfjÃ¡rlagafrv":13125,"ĠsÃ¶kk":13126,"ĠskipulÃ¶g":13127,"ĠhvÃŃt":13128,"ĠLauf":13129,"ĠAss":13130,"ĠtÃ³nleikunum":13131,"ĠLandsbankinn":13132,"arfrÃŃ":13133,"KvaÃ°st":13134,"ĠKom":13135,"Ġlistamann":13136,"aflÃ³a":13137,"ĠsÃ½knaÃ°ur":13138,"Ġytra":13139,"iga":13140,"OrÃ°":13141,"odafone":13142,"ĠSÃ½":13143,"skostnaÃ°ur":13144,"FR":13145,"skr":13146,"ĠKeil":13147,"Ġvex":13148,"Sr":13149,"ĠmÃºs":13150,"Ġmenntunar":13151,"Ġleiti":13152,"ĠLeifs":13153,"ĠbÃŃlsins":13154,"ĠrannsakaÃ°":13155,"Ã¶gun":13156,"ĠlÃŃtt":13157,"Fyrsti":13158,"âĢ¦]":13159,"ĠsÃ¶lum":13160,"AÃĲUR":13161,"Ġ115":13162,"BI":13163,"ĠSmith":13164,"ĠHarry":13165,"ĠafurÃ°a":13166,"veginum":13167,"ĠvÃ¦gi":13168,"amÃ³tin":13169,"ĠJakobsdÃ³ttir":13170,"aley":13171,"bÃ¦kur":13172,"ze":13173,"Ġvafalaust":13174,"ĠNBA":13175,"Ġdeginum":13176,"Ġgreinilegt":13177,"ĠDÃ³ra":13178,"iff":13179,"ĠBill":13180,"afÃ©laga":13181,"ĠspÃ¦nsku":13182,"ĠgagnrÃ½ndi":13183,"ĠfrÃ¦ndi":13184,"unefndar":13185,"ath":13186,"lipp":13187,"ĠBrown":13188,"ĠAG":13189,"ĠÃŀess":13190,"endanna":13191,"ĠnauÃ°ung":13192,"ĠWil":13193,"Gengi":13194,"Ġkald":13195,"ĠhÃ¡ar":13196,"Ġminnkandi":13197,"Ġfullnustu":13198,"Ġfylgd":13199,"196":13200,"NiÃ°urstaÃ°an":13201,"Ġskipi":13202,"ĠHill":13203,"ĠSigurÃ°ssonar":13204,"Segja":13205,"slÃ³Ã°":13206,"Ġlam":13207,"Hand":13208,"ĠÃĵlafi":13209,"ĠSouthampton":13210,"ĠHenry":13211,"ĠtÃ³nskÃ¡ld":13212,"ĠhÃ¡lend":13213,"ĠhÃºfi":13214,"ĠAkraness":13215,"Ġverktak":13216,"ĠatvinnulÃŃfiÃ°":13217,"Ġflutninga":13218,"mingham":13219,"fla":13220,"rÃ³fi":13221,"Ġendalaust":13222,"ĠjÃ¶rÃ°u":13223,"ningja":13224,"harÃ°":13225,"ĠÃ¦tluÃ°":13226,"ĠfÃ©lagslega":13227,"700":13228,"ĠNic":13229,"Ġflugeld":13230,"ĠhÃ¦kkandi":13231,"ĠsÃ¡ttir":13232,"Manchester":13233,"Ġvond":13234,"Ġerlendar":13235,"jer":13236,"ĠHÃ¡skÃ³lann":13237,"MikilvÃ¦gt":13238,"ĠeyÃ°il":13239,"ĠbÃ¡ga":13240,"Ġleiddu":13241,"aÃ°u":13242,"ĠFannar":13243,"ĠÃ³hjÃ¡kvÃ¦milegt":13244,"ĠtrjÃ¡":13245,"ĠfrÃ¦nka":13246,"Ġmil":13247,"ĠrÃ¦kta":13248,"skurÃ°":13249,"ĠStre":13250,"RÃºm":13251,"ĠFerÃ°":13252,"ĠverÃ°bÃ³lga":13253,"ĠsÃ½ndur":13254,"ĠvefsÃŃÃ°":13255,"ifÃ©lag":13256,"ega":13257,"ĠummÃ¦lum":13258,"Ġsystkina":13259,"bÃ¦ri":13260,"Ġhugur":13261,"ĠEyÃ¾Ã³r":13262,"Ġlandslag":13263,"ĠdÃ½rt":13264,"Vonandi":13265,"ĠAld":13266,"efnis":13267,"ĠsjÃ¡st":13268,"ĠknÃ½ja":13269,"Ġhey":13270,"ĠHeilbrigÃ°i":13271,"Ġkeppendur":13272,"ĠNÃŃger":13273,"ome":13274,"Ġsviptur":13275,"eistaratitilinn":13276,"Ġfulln":13277,"ĠtÃ¦kjum":13278,"Op":13279,"ĠÃ¡skil":13280,"Afi":13281,"Ġhenda":13282,"ĠgoÃ°":13283,"Ġsystkinin":13284,"hÃ¦fa":13285,"ĠmiÃ°ja":13286,"www":13287,"Ġsnerta":13288,"Ġhlutirnir":13289,"ĠmÃ¡lsl":13290,"jalar":13291,"ÃĿm":13292,"AlÃ¾ingi":13293,"Ġmengunar":13294,"Ġ[âĢ¦]":13295,"ĠRagnars":13296,"Ġveislu":13297,"SÃŃÃ°asta":13298,"ĠtÃŃmabilsins":13299,"JÃ³hannes":13300,"ĠÃģlftan":13301,"Ġfundarins":13302,"Ġflugum":13303,"ĠvÃ©linni":13304,"dagar":13305,"ĠPan":13306,"arn":13307,"reiÃ°slur":13308,"tryggingar":13309,"Ġvaranleg":13310,"Ġfiskim":13311,"ĠrÃ©ttl":13312,"ĠÃŀÃ³rdÃŃs":13313,"ĠHermannsson":13314,"ĠfÃ©lmrh":13315,"bux":13316,"ĠBandarÃŃkjadal":13317,"blaÃ°sins":13318,"Ġkor":13319,"ĠsjÃºkrahÃºsi":13320,"ĠvinsÃ¦l":13321,"bÃ¶ndum":13322,"Ã¦tisrÃ¡Ã°herra":13323,"Ġskilst":13324,"vikmynd":13325,"Ġsannleik":13326,"ĠJÃ³hannsdÃ³ttir":13327,"ĠÃ¾jÃ³Ã°aratkvÃ¦Ã°agreiÃ°":13328,"ĠrÃ³ttÃ¦k":13329,"ĠÃ¾yrlu":13330,"ingarnir":13331,"ĠrÃŃkari":13332,"ading":13333,"ĠFljÃ³ts":13334,"ĠvarÃ°veita":13335,"ĠprÃ³sentust":13336,"vÃŃsind":13337,"Ġgefnar":13338,"ĠverÃ°launin":13339,"Birgir":13340,"ĠlÃ³Ã°ar":13341,"Krafa":13342,"ĠmarkaÃ°inn":13343,"tÃ¦kt":13344,"agjÃ¶f":13345,"Mennirnir":13346,"gerandi":13347,"ĠhjÃ¶r":13348,"tilegar":13349,"ĠWe":13350,"kennari":13351,"ĠbrÃ¡st":13352,"Ġskorar":13353,"ĠfjÃ¡rveitingar":13354,"ĠklÃ¦Ã°":13355,"snÃº":13356,"eind":13357,"ĠeiginfjÃ¡r":13358,"ĠheilbrigÃ°isst":13359,"ĠSauÃ°Ã¡rkrÃ³ki":13360,"ĠdÃ¦mdi":13361,"ĠhvÃŃla":13362,"ĠerfiÃ°ur":13363,"Liverpool":13364,"ĠÃ³fÃ¡":13365,"Geng":13366,"Nokkrir":13367,"ĠMill":13368,"ĠaÃ°ferÃ°um":13369,"ĠfrÃ³Ã°legt":13370,"ĠfÃ¦rir":13371,"ĠÃ¡ramÃ³tum":13372,"ĠrÃ¡Ã°un":13373,"ĠKi":13374,"Ġblind":13375,"Ġskuldara":13376,"ĠstaÃ°reyndir":13377,"ĠdÃ³minum":13378,"Ġbankann":13379,"eli":13380,"ĠskÃ³gar":13381,"Ġleikrit":13382,"unark":13383,"ĠElÃŃas":13384,"ĠundanÃºrslitum":13385,"ĠSigga":13386,"KUR":13387,"sfÃ©laga":13388,"ĠÃ¾yki":13389,"Undanfar":13390,"Ġatvinnuleysis":13391,"ĠGuÃ°finn":13392,"ĠÃļl":13393,"asyni":13394,"raph":13395,"Ġungs":13396,"Ġfrsm":13397,"Ġsest":13398,"ĠsamrÃ½":13399,"ĠsÃ¡rs":13400,"ĠborÃ°inu":13401,"ĠBorgarfirÃ°i":13402,"Ġskrey":13403,"ĠbandarÃŃskum":13404,"ĠSverrisdÃ³ttir":13405,"ĠÃ¡ttir":13406,"ĠfullnÃ¦gt":13407,"ĠsnjÃ³fl":13408,"Ġaugn":13409,"ĠEv":13410,"yÃ°ja":13411,"riti":13412,"Ġuppeldis":13413,"ĠGK":13414,"ĠÃ³breyttu":13415,"ĠspÃŃtalans":13416,"ĠstefnumÃ³tun":13417,"Ġreyndust":13418,"ĠnÃ¦gja":13419,"Ġfyrirkomulagi":13420,"ĠNik":13421,"eing":13422,"Ġban":13423,"ĠNÃ³":13424,"LÃŃkt":13425,"oth":13426,"ĠÃŃbÃºÃ°arhÃºsnÃ¦Ã°i":13427,"Ġmegum":13428,"Ġgegnir":13429,"Ġeinangrun":13430,"jÃ³nin":13431,"ĠplÃ¶tunni":13432,"afull":13433,"ĠfÃ©lÃ¶gin":13434,"ĠfÃ³tum":13435,"eitanlega":13436,"spÃ¡":13437,"ĠsveitarstjÃ³rn":13438,"sbÃ³ta":13439,"ÃŃtil":13440,"ĠandlÃ¡t":13441,"Ã¶ndunum":13442,"arÃ¡Ã°uneytisins":13443,"ninum":13444,"ĠhÃ¡lkublettir":13445,"ĠÃ¡sÃ¶k":13446,"ĠlÃŃfskjÃ¶r":13447,"//":13448,"ĠLou":13449,"ĠandvÃŃ":13450,"ĠfÃ³rnarlÃ¶mb":13451,"Ġbyl":13452,"ĠBra":13453,"Upphaf":13454,"ĠHilmarsson":13455,"afniÃ°":13456,"kostnaÃ°i":13457,"ĠÃ¡hugasam":13458,"ĠOECD":13459,"ĠRoma":13460,"sorÃ°":13461,"lÃ¶greglu":13462,"Margt":13463,"Mest":13464,"eds":13465,"Ã¶skun":13466,"ÃŃtar":13467,"ĠSveinbjÃ¶rn":13468,"ĠfrÃ¦nku":13469,"ĠStÃ³r":13470,"Ġannarrar":13471,"afurÃ°a":13472,"ĠlandbÃºnaÃ°arins":13473,"ĠfjÃ¶rutÃŃu":13474,"Ġkynntar":13475,"ĠÃ¡kvÃ¶rÃ°unum":13476,"ĠÃŃslenskur":13477,"ĠMail":13478,"Ã¾yr":13479,"Ġdragi":13480,"Ġnotast":13481,"ĠHB":13482,"ian":13483,"ĠHrÃ¶nn":13484,"Ġfiskur":13485,"smÃŃÃ°":13486,"://":13487,"Ã³tek":13488,"Ġbreytti":13489,"EA":13490,"ĠnÃ½st":13491,"ĠSigfÃºs":13492,"ĠverÃ°brÃ©fa":13493,"ĠrÃ¡Ã°ningarsam":13494,"alyf":13495,"Ġskilningur":13496,"ĠÃŀorvaldur":13497,"ĠaÃ°stÃ¦Ã°na":13498,"ĠrÃ©ttinda":13499,"uters":13500,"Takk":13501,"ĠkÃ¶rfuknattleik":13502,"ĠmiÃ°bÃ¦":13503,"ĠWood":13504,"Ã¾ekja":13505,"arfÃ©lagsins":13506,"ĠframboÃ°s":13507,"ĠÃ¾jÃ³Ã°arbÃº":13508,"ĠinnlÃ¡n":13509,"ĠfÃ¡rÃ¡n":13510,"lendinga":13511,"ĠtÃºn":13512,"Atl":13513,"ĠjafnvirÃ°i":13514,"ĠMun":13515,"ĠÃ¡kvÃ¡Ã°um":13516,"ĠmiÃ°jumaÃ°ur":13517,"efnt":13518,"drykk":13519,"ĠRam":13520,"Reik":13521,"ĠNeskaup":13522,"ĠorÃ°nar":13523,"ĠÃ½tt":13524,"ĠfÃ©lagsmenn":13525,"ĠÃŃbÃºÃ°um":13526,"ĠfÃ¡ist":13527,"Ġstafar":13528,"tari":13529,"ĠrÃŃkissaksÃ³knara":13530,"ĠHalla":13531,"ĠleiÃ°ina":13532,"ĠdemÃ³kra":13533,"ĠdottiÃ°":13534,"ĠhagfrÃ¦Ã°i":13535,"ĠskÃ¶mmum":13536,"olu":13537,"kominn":13538,"Margar":13539,"borÃ°i":13540,"ĠÃ³rÃ©tt":13541,"ĠNorÃ°austur":13542,"ĠsÃ½ndar":13543,"ĠfrumsÃ½nd":13544,"ĠrÃ³lega":13545,"ĠrithÃ¶fundur":13546,"ĠskarÃ°":13547,"Saman":13548,"ĠrÃŃkjanna":13549,"EG":13550,"Ġsamruna":13551,"sfyrirtÃ¦k":13552,"ĠsÃ½slumanns":13553,"ĠhÃ¦fni":13554,"Ġfyrirliggjandi":13555,"hvÃŃ":13556,"akter":13557,"Kjartan":13558,"Ã¦tta":13559,"Ġkalt":13560,"Bara":13561,"Ġhorfi":13562,"ĠsÃ©rt":13563,"bankans":13564,"Ġtiltekna":13565,"Ġdvaldi":13566,"ĠFlat":13567,"felli":13568,"ĠprÃ³fkjÃ¶r":13569,"sskoÃ°":13570,"starfinu":13571,"ĠÃ³lÃŃkum":13572,"ĠEggertsson":13573,"ĠValencia":13574,"Ġheilt":13575,"ĠPÃ¡lmi":13576,"EFA":13577,"ingjum":13578,"ssveit":13579,"ĠÃŀÃ³rarinn":13580,"dagurinn":13581,"staÃ°i":13582,"ĠhÃ¦kkanir":13583,"79":13584,"tekjum":13585,"Ġ1936":13586,"ĠJÃ³nssyni":13587,"ĠHlynur":13588,"Ġbekknum":13589,"leitni":13590,"HjÃ¡l":13591,"ale":13592,"Ġtolla":13593,"Ã¡lk":13594,"Ennfremur":13595,"Ġheiman":13596,"ĠBÃ³k":13597,"ĠÃ³r":13598,"ĠbÃ¶nkum":13599,"Ġtengt":13600,"ĠBro":13601,"Ġfsp":13602,"ĠlandbÃºnaÃ°i":13603,"auf":13604,"ĠskrÃ¡ningar":13605,"helg":13606,"ĠGuÃ°mundssonar":13607,"Ġeignarhlut":13608,"ĠÃ¶fl":13609,"vegum":13610,"Ġevrur":13611,"ĠÃ³skar":13612,"ĠElliÃ°":13613,"ygl":13614,"Ġflestra":13615,"ĠIndlandi":13616,"ĠlÃ¡tum":13617,"issk":13618,"flokksins":13619,"ĠrÃŃkt":13620,"ĠÃ¦tluÃ°um":13621,"ĠsÃºkkulaÃ°i":13622,"ĠOrkuveitu":13623,"ĠviÃ°skiptan":13624,"Ġ104":13625,"ĠlÃŃtillega":13626,"ĠupptÃ¶k":13627,"ĠKaupÃ¾ingi":13628,"ĠVic":13629,"ĠfyrirsjÃ¡":13630,"Ġlentu":13631,"Ġinnra":13632,"ĠdÃ½rari":13633,"Ġmannanna":13634,"ĠTrausta":13635,"ĠVik":13636,"ĠSkallag":13637,"skrifstofu":13638,"ennslu":13639,"Gunn":13640,"ĠFÃ¦rey":13641,"ĠheimilaÃ°":13642,"ĠlÃ¦gi":13643,"Ġafgerandi":13644,"rÃ¡k":13645,"Ġdeildina":13646,"suÃ°u":13647,"ĠFÃ¡":13648,"ĠsaksÃ³knari":13649,"Ġheyri":13650,"ĠTryggv":13651,"Ġalvarlegum":13652,"aleysi":13653,"Ġre":13654,"samtÃ¶k":13655,"Ġtilgangur":13656,"Ġmarkviss":13657,"ĠSÃ¶l":13658,"ĠrÃŃsa":13659,"ĠviÃ°tÃ¶l":13660,"ĠÃ¡heyr":13661,"eitu":13662,"Ġhvoru":13663,"Ġsport":13664,"Ã¡Ã¦tlunar":13665,"ĠgagnrÃ½nir":13666,"ĠfjÃ¶lmargir":13667,"ĠurÃ°um":13668,"rich":13669,"ĠÃºtfÃ¦rslu":13670,"ĠByggÃ°ast":13671,"Ġhaldist":13672,"ĠbyggÃ°i":13673,"Ġspjalla":13674,"ĠstofnaÃ°ur":13675,"ĠboÃ°in":13676,"standi":13677,"ĠsjÃ³inn":13678,"ĠaÃ°staÃ°a":13679,"skipiÃ°":13680,"ĠiÃ°naÃ°arrÃ¡Ã°herra":13681,"Ã¾jÃ³nustuna":13682,"ory":13683,"sfÃ©lÃ¶g":13684,"punk":13685,"ĠhÃ¦fileika":13686,"Ãļrslit":13687,"ĠvirÃ°isaukaskatts":13688,"ĠSH":13689,"ĠborgaÃ°":13690,"Ġfyrstur":13691,"andic":13692,"ĠÃŀorvaldsson":13693,"Ġlaginu":13694,"ĠmÃ¡nuÃ°inum":13695,"raÃ°ir":13696,"lus":13697,"Fran":13698,"Ġyl":13699,
[...]
